<unk>	0
<s>	0
</s>	0
▁a	-2.51561
.	-2.69152
▁A	-3.16216
▁in	-3.28656
▁the	-3.66046
▁on	-3.87836
▁and	-3.91963
▁is	-3.99196
▁man	-4.01387
▁of	-4.04828
▁with	-4.11857
,	-4.47249
▁woman	-4.656
▁are	-4.70135
▁to	-4.82485
▁Two	-4.86603
▁at	-4.94125
▁wearing	-4.95547
s	-4.9936
▁people	-5.0659
▁	-5.10951
▁shirt	-5.13598
▁white	-5.13727
ing	-5.15848
▁black	-5.21004
▁young	-5.23213
▁while	-5.2478
▁his	-5.26803
▁blue	-5.27921
▁an	-5.33584
▁red	-5.38497
▁sitting	-5.44391
▁girl	-5.49281
▁standing	-5.50862
▁boy	-5.51387
▁dog	-5.52765
▁men	-5.53289
▁playing	-5.55446
-	-5.57823
▁street	-5.63186
▁down	-5.67175
▁front	-5.68049
▁group	-5.68168
▁her	-5.69681
▁walking	-5.71465
▁holding	-5.77016
e	-5.81514
▁water	-5.92285
▁by	-5.95777
▁The	-5.98629
▁one	-6.04052
▁green	-6.06157
▁up	-6.06902
▁looking	-6.09236
▁for	-6.11102
▁child	-6.12196
▁women	-6.12219
▁An	-6.14289
▁outside	-6.16324
▁large	-6.16977
▁yellow	-6.18947
▁Thre	-6.20186
▁brown	-6.21391
▁two	-6.2257
▁through	-6.25649
▁little	-6.25678
▁person	-6.2934
▁hat	-6.29788
ed	-6.30086
▁from	-6.30957
▁their	-6.31468
▁other	-6.3193
▁as	-6.3292
▁ball	-6.34234
▁over	-6.35212
▁children	-6.37478
▁next	-6.39075
▁into	-6.40828
▁small	-6.43119
▁out	-6.45874
▁dressed	-6.46673
▁People	-6.48992
▁building	-6.49295
▁jacket	-6.49868
▁another	-6.50492
▁running	-6.50795
▁riding	-6.51829
▁Man	-6.55429
▁around	-6.5663
▁some	-6.58058
▁orange	-6.58077
▁near	-6.61109
▁field	-6.61475
▁crowd	-6.63969
▁stands	-6.6461
▁background	-6.64667
▁pink	-6.6498
▁beach	-6.6533
▁behind	-6.6623
▁be	-6.66832
▁sidewalk	-6.67512
▁table	-6.7071
▁jumping	-6.72662
▁snow	-6.73882
▁sits	-6.75013
▁grass	-6.76707
'	-6.77376
▁that	-6.78851
▁bike	-6.7926
▁looks	-6.81208
▁top	-6.82141
▁camera	-6.83266
▁girls	-6.84244
▁stand	-6.84841
▁air	-6.86085
▁wall	-6.86725
▁player	-6.8735
▁city	-6.89941
▁off	-6.9005
▁dogs	-6.90598
▁hair	-6.90806
▁working	-6.92287
▁has	-6.92389
▁gray	-6.92667
▁dress	-6.93442
▁something	-6.95755
▁older	-6.96846
▁talking	-6.97133
▁hand	-6.97135
▁soccer	-6.98588
▁park	-6.99714
▁it	-6.99715
▁shorts	-7.00068
▁him	-7.00283
▁blond	-7.00604
y	-7.00685
▁guitar	-7.01221
▁pants	-7.01926
▁picture	-7.02534
▁walks	-7.03187
▁jeans	-7.06052
▁Asian	-7.0614
▁t	-7.06163
▁play	-7.06444
▁lady	-7.06911
▁smiling	-7.0697
▁plays	-7.07307
▁along	-7.09289
▁car	-7.10095
▁dark	-7.1104
▁boys	-7.11315
▁game	-7.11657
▁carrying	-7.13536
▁together	-7.13894
▁road	-7.1407
▁food	-7.14082
▁them	-7.14335
▁bench	-7.15584
▁holds	-7.1561
▁walk	-7.16609
▁Four	-7.17776
▁side	-7.17875
▁head	-7.18453
▁long	-7.18667
d	-7.18881
▁face	-7.19598
▁glasses	-7.21951
▁stage	-7.221
▁sit	-7.22544
▁baby	-7.24428
▁back	-7.24718
▁bicycle	-7.2691
▁tree	-7.27436
▁hands	-7.27776
▁taking	-7.2904
▁rock	-7.29171
▁doing	-7.30663
▁watching	-7.30871
▁pool	-7.31215
▁old	-7.31226
▁who	-7.32225
▁each	-7.33436
▁ground	-7.34816
▁couple	-7.35626
shirt	-7.36321
▁baseball	-7.36797
▁he	-7.37239
▁dirt	-7.37354
▁area	-7.37864
▁male	-7.38392
▁boat	-7.38462
▁look	-7.39558
▁race	-7.40818
▁performing	-7.41534
▁day	-7.41584
▁striped	-7.41776
▁suit	-7.4223
▁coat	-7.42607
▁middle	-7.43171
▁room	-7.43294
▁mouth	-7.43317
▁guy	-7.43347
▁female	-7.43357
▁across	-7.44751
▁jumps	-7.44785
▁purple	-7.45368
▁uniform	-7.48163
▁Young	-7.48173
▁sunglasses	-7.4834
▁eating	-7.48888
▁under	-7.4931
▁sign	-7.49589
▁horse	-7.51064
▁football	-7.53264
▁There	-7.53494
▁band	-7.54631
▁sand	-7.54688
▁microphone	-7.54848
▁using	-7.54874
▁runs	-7.55781
haired	-7.55994
▁reading	-7.56298
▁helmet	-7.56467
▁three	-7.5719
▁watch	-7.57953
▁tennis	-7.58642
▁or	-7.59409
▁On	-7.6039
▁store	-7.60899
▁its	-7.61455
▁players	-7.6201
▁construction	-7.62049
▁mountain	-7.62366
▁watches	-7.62957
▁floor	-7.63116
▁work	-7.64784
▁toy	-7.64828
▁cap	-7.65445
▁Woman	-7.65472
▁train	-7.65508
▁window	-7.65562
▁wooden	-7.65968
▁against	-7.66607
▁chair	-7.66867
▁rides	-7.67044
▁about	-7.67463
▁all	-7.67921
▁basketball	-7.68614
▁dancing	-7.69248
▁bag	-7.6964
▁clothing	-7.69713
▁ocean	-7.69733
▁team	-7.71399
▁waiting	-7.71876
▁busy	-7.72667
▁past	-7.73269
▁having	-7.73458
▁climbing	-7.74086
▁elderly	-7.74701
n	-7.74946
▁restaurant	-7.75009
▁trees	-7.75278
▁kids	-7.75481
al	-7.75525
▁outdoor	-7.75712
▁workers	-7.7579
▁colorful	-7.76935
▁swimming	-7.7696
▁making	-7.77956
▁posing	-7.8031
▁inside	-7.80644
▁line	-7.80836
▁singing	-7.81226
▁covered	-7.8228
▁light	-7.83054
▁fence	-7.8346
▁tan	-7.84262
▁shirts	-7.85365
▁stick	-7.85686
▁brick	-7.85819
▁they	-7.86061
▁"	-7.8631
▁market	-7.86545
▁ice	-7.86821
▁skateboard	-7.87215
▁she	-7.8778
▁high	-7.88603
▁surround	-7.8906
▁gett	-7.89386
▁very	-7.89696
▁ride	-7.89866
▁sweater	-7.90333
▁big	-7.90716
▁hats	-7.91988
▁beside	-7.931
▁catch	-7.93374
▁towards	-7.9368
▁cart	-7.94019
▁hill	-7.94072
▁open	-7.94084
▁cellphone	-7.94414
▁d	-7.94677
t	-7.95271
▁lake	-7.95287
▁bright	-7.95506
▁kitchen	-7.95656
▁truck	-7.95766
▁motorcycle	-7.96517
▁book	-7.96693
▁path	-7.97239
▁This	-7.97291
▁jump	-7.9786
▁track	-7.9829
▁laying	-7.98356
"	-7.98437
uring	-7.98947
▁vest	-7.98993
▁body	-7.99081
▁Men	-7.99259
▁grassy	-7.99708
▁outdoors	-7.99883
▁umbrella	-8.00164
▁clothes	-8.00232
▁arms	-8.00513
▁bus	-8.00809
▁river	-8.01907
▁piece	-8.02335
▁tank	-8.02952
▁Seve	-8.03454
▁outfit	-8.04104
▁others	-8.04268
▁colored	-8.06138
▁hard	-8.07185
veral	-8.07315
▁swing	-8.07393
▁night	-8.07766
▁shopping	-8.0792
▁lot	-8.09031
ly	-8.09068
▁try	-8.09147
▁painting	-8.09206
▁above	-8.09584
▁enjoying	-8.09781
▁event	-8.09966
▁uniforms	-8.10348
▁stone	-8.10688
▁worker	-8.11145
ral	-8.1149
▁paper	-8.11554
▁get	-8.12328
▁ready	-8.12626
▁metal	-8.12801
▁snowy	-8.12812
▁Five	-8.1291
▁run	-8.1297
▁drinking	-8.13108
▁hanging	-8.1341
▁full	-8.13608
▁trick	-8.13887
▁like	-8.14655
▁sleeping	-8.15157
▁music	-8.15191
▁right	-8.16639
▁many	-8.16715
▁arm	-8.17097
▁Children	-8.17371
▁house	-8.17523
▁backpack	-8.18032
▁away	-8.18203
▁guys	-8.18451
▁gathered	-8.1892
▁phone	-8.19023
▁toddler	-8.19244
▁shoes	-8.19319
▁takes	-8.1947
▁shop	-8.20054
▁set	-8.20344
▁going	-8.20754
▁bridge	-8.20882
▁dance	-8.21585
▁2	-8.21907
▁board	-8.21936
▁pole	-8.21981
to	-8.22101
▁adults	-8.22569
▁wave	-8.22664
▁bar	-8.22677
▁costume	-8.22844
▁both	-8.22906
es	-8.22994
▁rope	-8.23393
▁smiles	-8.23778
▁short	-8.24334
▁photo	-8.24351
▁after	-8.24435
hair	-8.24512
▁what	-8.24716
▁leaning	-8.25139
▁pose	-8.25694
▁left	-8.25861
a	-8.25888
▁crowded	-8.25912
▁steps	-8.2601
▁attempt	-8.26065
▁skirt	-8.26344
▁flowers	-8.26392
▁gear	-8.2676
▁preparing	-8.27003
▁rocks	-8.28065
▁family	-8.28364
▁sunny	-8.29094
▁subway	-8.29459
▁have	-8.29483
▁which	-8.29642
▁African	-8.29679
▁kid	-8.29694
▁fishing	-8.30367
▁hockey	-8.30401
▁four	-8.30412
▁fire	-8.30516
▁racing	-8.3154
ween	-8.31738
▁flag	-8.32615
▁bet	-8.32934
▁cowboy	-8.3299
▁fountain	-8.3356
▁machine	-8.34332
▁wood	-8.35247
▁Se	-8.35458
▁corner	-8.35935
▁laughing	-8.36204
▁setting	-8.3645
▁chairs	-8.36508
▁public	-8.36662
▁instruments	-8.36989
▁glass	-8.37077
▁drink	-8.37621
▁forest	-8.37657
▁volleyball	-8.37688
▁plaid	-8.37702
▁graffiti	-8.37887
▁shirtless	-8.38657
▁Some	-8.39736
▁appears	-8.39763
▁stairs	-8.39946
▁selling	-8.40206
▁plastic	-8.41135
▁concrete	-8.41549
▁someone	-8.4184
▁number	-8.41855
▁couch	-8.42112
▁prepare	-8.42164
▁adult	-8.42237
▁tall	-8.42908
▁match	-8.42946
▁American	-8.43057
▁sweatshirt	-8.4369
▁seated	-8.44568
▁bags	-8.45286
▁scarf	-8.46099
▁computer	-8.46273
▁sever	-8.46529
▁midair	-8.46652
▁cooking	-8.46755
▁take	-8.46825
▁putting	-8.46896
▁view	-8.47631
▁equipment	-8.47748
▁woods	-8.47782
▁object	-8.47983
▁beard	-8.48107
▁toward	-8.48497
▁beautiful	-8.48834
▁ramp	-8.49187
▁edge	-8.49446
▁slide	-8.49528
▁asian	-8.49588
▁sky	-8.49605
▁boots	-8.50009
▁pushing	-8.51039
▁sun	-8.51146
▁display	-8.51607
▁does	-8.51855
▁wear	-8.51864
▁mountains	-8.51874
▁bed	-8.52499
▁nearby	-8.52534
▁distance	-8.5297
▁throwing	-8.53224
▁fish	-8.53999
er	-8.54324
▁jersey	-8.54714
▁where	-8.55083
▁just	-8.55322
▁audience	-8.55587
▁pictures	-8.55686
▁trail	-8.55899
▁cross	-8.56054
▁there	-8.56316
▁police	-8.56438
▁eyes	-8.56906
▁door	-8.56989
▁performs	-8.57059
▁poses	-8.57085
▁crossing	-8.57186
▁rider	-8.57244
▁ladies	-8.57468
▁pulling	-8.57484
▁playground	-8.5749
▁Women	-8.5795
▁winter	-8.57952
▁instrument	-8.58031
▁bikes	-8.5812
▁vehicle	-8.58335
▁cigarette	-8.6033
▁hit	-8.60413
▁lawn	-8.60426
▁party	-8.60507
▁buildings	-8.60534
▁parade	-8.60932
▁leaves	-8.60947
aged	-8.61642
▁driving	-8.61958
▁smoking	-8.61961
▁statue	-8.6216
▁cleaning	-8.62347
▁painted	-8.62946
ring	-8.63141
▁works	-8.63144
▁filled	-8.63202
▁station	-8.64005
▁net	-8.64199
▁Frisbee	-8.64473
▁cutting	-8.64523
▁yard	-8.64661
▁horses	-8.65321
▁beer	-8.65443
▁rocky	-8.65921
▁apron	-8.66049
▁skateboarder	-8.66088
▁safety	-8.66353
▁roof	-8.66698
lying	-8.67021
▁cream	-8.67647
▁Group	-8.67689
▁T	-8.68271
▁smile	-8.68284
▁gloves	-8.68347
▁structure	-8.69006
▁concert	-8.69322
▁bottle	-8.69549
▁friends	-8.69551
▁gentleman	-8.70146
▁fruit	-8.70374
▁makes	-8.7106
▁court	-8.71269
giving	-8.7136
▁perform	-8.71572
▁shoulder	-8.71784
▁reads	-8.72042
▁no	-8.72314
▁martial	-8.72375
▁art	-8.72481
▁school	-8.72485
▁showing	-8.72796
▁cup	-8.73268
▁shore	-8.73328
▁cars	-8.73357
▁newspaper	-8.73484
▁enjoy	-8.73623
▁drums	-8.73902
▁dock	-8.73913
▁hold	-8.74165
▁L	-8.74268
▁box	-8.74736
▁among	-8.74749
▁sort	-8.74931
▁home	-8.7586
▁flower	-8.75985
▁parked	-8.7607
▁bowling	-8.76198
▁Girl	-8.7639
in	-8.76461
▁rodeo	-8.76697
▁pointing	-8.76813
▁goggles	-8.77004
▁drinks	-8.77016
▁bunch	-8.77018
rying	-8.77055
▁pile	-8.77107
▁suits	-8.77221
▁wet	-8.77574
▁make	-8.77624
▁costumes	-8.77728
▁practicing	-8.77892
▁counter	-8.78173
▁mask	-8.78216
▁rain	-8.78911
▁carrie	-8.79054
▁listening	-8.79191
▁mother	-8.79398
▁jackets	-8.79486
▁vests	-8.79504
▁arts	-8.79538
▁Someone	-8.79705
▁talks	-8.79987
▁facing	-8.80055
▁teams	-8.80235
▁dresses	-8.8075
▁tent	-8.81025
▁bathing	-8.81032
▁sports	-8.81234
▁show	-8.81521
▁different	-8.81528
▁feet	-8.81537
▁vendor	-8.81546
▁ladder	-8.81554
▁flying	-8.81698
▁scene	-8.81943
▁grill	-8.82428
▁du	-8.82452
▁fix	-8.82466
▁paint	-8.82742
▁gold	-8.82788
▁onlookers	-8.8282
▁electric	-8.82858
▁bull	-8.82895
▁tie	-8.83351
▁gather	-8.83411
▁reach	-8.83633
▁Sev	-8.83675
▁bucket	-8.84074
▁cliff	-8.84091
st	-8.84129
w	-8.8431
▁wedding	-8.8467
▁desk	-8.84697
▁bird	-8.8472
▁speaking	-8.84791
▁biker	-8.85102
▁staring	-8.85161
▁coffee	-8.85304
▁railing	-8.85451
▁parking	-8.8561
▁swinging	-8.85627
▁empty	-8.85651
▁stop	-8.85822
▁before	-8.8595
▁snowboarder	-8.8601
▁time	-8.86101
eral	-8.86121
▁surfer	-8.86357
▁leather	-8.86924
▁blanket	-8.8764
▁waves	-8.88384
▁younger	-8.88578
▁flags	-8.88607
▁Boy	-8.88636
an	-8.88691
▁Person	-8.88899
▁kicking	-8.88999
▁talk	-8.89113
▁basket	-8.89261
▁attire	-8.89491
▁kick	-8.89627
▁can	-8.89684
▁purse	-8.89998
▁conversation	-8.9032
▁items	-8.90773
▁skateboarding	-8.90839
▁swim	-8.90989
▁foreground	-8.91259
▁flip	-8.9183
▁various	-8.91942
▁spectators	-8.91962
▁put	-8.9208
▁break	-8.92369
▁legs	-8.92485
▁go	-8.92574
▁silver	-8.92629
▁cement	-8.9265
▁bowl	-8.92928
▁competition	-8.92977
▁same	-8.93384
lined	-8.94075
▁surfboard	-8.95092
▁writing	-8.95311
▁leaps	-8.95591
▁life	-8.95791
▁shot	-8.95957
▁place	-8.96276
▁animal	-8.9638
▁meal	-8.96663
▁this	-8.96863
▁Indian	-8.96889
▁business	-8.97459
▁kneeling	-8.97627
ittle	-8.97627
▁musical	-8.97766
▁climbs	-8.98046
▁students	-8.98173
▁outfits	-8.98374
▁rail	-8.98829
▁Six	-8.99041
▁stroller	-8.99205
▁balloon	-8.99562
▁fe	-8.9957
▁alley	-8.99609
▁In	-8.9994
▁overlook	-9.00047
▁way	-9.00261
▁bicycles	-9.00535
▁ski	-9.00783
▁signs	-9.01352
▁vegetables	-9.01474
▁sings	-9.01516
▁tables	-9.02085
▁bearded	-9.02351
▁chasing	-9.02443
▁leg	-9.02463
▁screen	-9.02954
▁gathering	-9.02978
▁lap	-9.03142
▁says	-9.03261
▁bikini	-9.03352
▁kissing	-9.03417
▁base	-9.03837
▁skier	-9.03846
▁site	-9.04039
▁pull	-9.04327
▁wait	-9.0456
▁helmets	-9.04612
▁bride	-9.04719
▁fighting	-9.05101
▁sunset	-9.05132
▁lit	-9.0514
▁cake	-9.05323
▁bald	-9.05483
▁military	-9.05518
▁blowing	-9.05703
▁surfing	-9.05793
▁close	-9.06013
▁platform	-9.06101
▁violin	-9.06503
▁walkway	-9.06923
▁balloons	-9.06945
▁classroom	-9.07101
▁hot	-9.07458
▁throw	-9.07492
▁Old	-9.08232
▁Construction	-9.08305
▁uses	-9.08382
r	-9.08565
▁gym	-9.08752
▁diving	-9.08758
▁laptop	-9.08926
▁ledge	-9.08967
▁class	-9.09307
▁f	-9.09351
▁alone	-9.09434
l	-9.09566
▁clear	-9.09577
▁scooter	-9.09774
▁coming	-9.09871
▁mirror	-9.10155
tries	-9.10164
▁sandy	-9.10334
▁hiking	-9.10366
▁foot	-9.10629
▁resting	-9.10701
▁sport	-9.10762
▁competing	-9.10794
▁bubbles	-9.11091
▁wheel	-9.11314
▁wooded	-9.1152
▁traffic	-9.11634
▁course	-9.12018
▁Black	-9.12181
▁meat	-9.12286
▁pour	-9.12431
▁pass	-9.12498
▁huge	-9.12537
▁shows	-9.12847
▁faces	-9.13114
▁collar	-9.13359
▁trunks	-9.1347
▁fun	-9.13548
▁officer	-9.13571
▁males	-9.13688
▁check	-9.13851
▁desert	-9.13974
▁artist	-9.14249
▁upside	-9.14291
▁helping	-9.14443
▁opposing	-9.14563
▁headphones	-9.14571
▁town	-9.14572
▁passing	-9.14581
▁well	-9.1462
leans	-9.14875
▁b	-9.14995
▁garden	-9.1502
▁goal	-9.1506
▁sandals	-9.15446
▁son	-9.15818
▁hang	-9.15846
▁traditional	-9.15881
▁waving	-9.15892
▁plate	-9.15925
▁cat	-9.16135
▁float	-9.16354
▁brunette	-9.16567
▁made	-9.16586
▁swings	-9.16732
▁brightly	-9.16803
▁urban	-9.16805
▁block	-9.16943
▁S	-9.17088
▁stadium	-9.17612
▁lights	-9.17703
▁skiing	-9.18231
▁musicians	-9.18531
▁held	-9.18532
▁country	-9.1861
▁do	-9.1874
▁skating	-9.19087
▁seem	-9.19175
▁marathon	-9.19402
▁Kids	-9.1955
▁karate	-9.19856
▁performance	-9.19857
▁father	-9.20161
▁church	-9.20307
▁doorway	-9.20313
▁streets	-9.20408
▁leaping	-9.20464
▁leash	-9.20469
▁waits	-9.20577
▁drum	-9.20583
▁teenage	-9.2071
▁bat	-9.20887
▁lift	-9.21251
▁stuff	-9.21257
▁cafe	-9.21739
▁hole	-9.21781
▁s	-9.2188
▁clown	-9.22032
▁shovel	-9.22033
▁video	-9.22144
▁slid	-9.22187
▁se	-9.22529
▁tracks	-9.22746
▁seen	-9.22842
▁Christmas	-9.23081
▁five	-9.23306
▁p	-9.23447
▁shallow	-9.23549
▁type	-9.23647
▁photographer	-9.23927
▁stream	-9.23977
▁digging	-9.24023
▁office	-9.24469
▁turn	-9.24765
▁pier	-9.25689
▁dirty	-9.2606
▁deck	-9.26076
▁circle	-9.26113
▁sculpture	-9.26295
▁shoulders	-9.26479
▁tattoo	-9.26648
▁sticks	-9.26883
▁brush	-9.26938
▁golf	-9.26971
▁coats	-9.27199
▁straw	-9.27761
▁row	-9.27863
▁below	-9.27914
▁attached	-9.27924
▁give	-9.27953
▁mud	-9.282
▁microscope	-9.28262
▁toys	-9.2862
▁multicolored	-9.28879
▁asleep	-9.2914
▁neck	-9.29184
▁hugging	-9.29383
▁eat	-9.29482
▁throws	-9.29632
▁accordion	-9.2982
▁seat	-9.29832
▁third	-9.29868
▁makeup	-9.29888
▁members	-9.30219
▁nose	-9.30273
▁lab	-9.30275
▁performer	-9.30339
▁beige	-9.30363
▁photograph	-9.30462
▁moving	-9.30515
▁umbrellas	-9.3054
▁pond	-9.30716
▁giant	-9.30867
▁grocery	-9.3087
▁happy	-9.30878
▁produce	-9.30887
▁crying	-9.30967
▁washing	-9.31095
▁telescope	-9.31281
▁runner	-9.31307
▁sled	-9.31355
▁Chinese	-9.3138
sleeved	-9.31479
▁friend	-9.31514
▁booth	-9.32351
▁dinner	-9.324
o	-9.32987
▁fight	-9.32994
▁gun	-9.33329
▁Guy	-9.3343
▁jogging	-9.33438
▁canoe	-9.33462
▁balls	-9.33538
▁relaxing	-9.33644
▁himself	-9.33956
▁how	-9.3437
en	-9.34623
▁sweeping	-9.34663
▁climb	-9.34777
▁tire	-9.3498
▁B	-9.35236
▁hoodie	-9.35464
▁not	-9.35533
less	-9.3572
▁barefoot	-9.35919
▁ring	-9.36265
▁skate	-9.36496
▁underneath	-9.36615
▁closed	-9.368
▁teeth	-9.37154
▁windows	-9.37193
▁books	-9.37347
▁van	-9.37654
▁picnic	-9.3822
▁trampoline	-9.38237
▁cut	-9.38457
▁mid	-9.38532
▁tricks	-9.38646
▁project	-9.3908
▁see	-9.39187
▁kind	-9.39242
▁dancers	-9.39815
▁string	-9.3995
▁pulled	-9.40078
▁falling	-9.4024
▁individuals	-9.40256
▁device	-9.40378
▁fallen	-9.40435
▁drawing	-9.40551
man	-9.40561
▁roller	-9.40697
▁khaki	-9.4094
▁singer	-9.40945
▁heavy	-9.40997
▁heads	-9.41016
▁pair	-9.41151
▁center	-9.41545
▁goes	-9.41635
▁decorated	-9.41637
▁end	-9.41701
▁officers	-9.4178
▁cane	-9.42062
▁musician	-9.42081
▁fair	-9.42095
▁square	-9.42098
▁camouflage	-9.42112
▁wide	-9.42142
▁cloth	-9.42242
▁deep	-9.42345
▁racket	-9.42625
▁muddy	-9.42678
▁also	-9.42729
▁These	-9.42987
▁atop	-9.43205
▁festival	-9.43251
▁cyclist	-9.43314
▁including	-9.43344
▁wetsuit	-9.43798
▁robe	-9.44163
▁repair	-9.44173
▁Dog	-9.44215
▁plants	-9.4426
▁chef	-9.44401
▁crosswalk	-9.44416
▁covering	-9.44686
▁hula	-9.44982
▁mat	-9.45
▁cold	-9.45166
▁print	-9.45234
▁part	-9.45623
▁splashing	-9.45761
▁dances	-9.45914
skinned	-9.46122
▁jean	-9.4613
▁Small	-9.46157
▁curly	-9.46159
▁blouse	-9.4616
▁tongue	-9.46732
ting	-9.46796
▁tunnel	-9.4732
▁carnival	-9.47344
▁bicyclist	-9.47359
▁indoor	-9.47449
lays	-9.47631
▁but	-9.47702
▁sea	-9.47761
up	-9.47793
▁taken	-9.47831
▁mural	-9.4795
▁daughter	-9.4795
▁whil	-9.48105
▁speaks	-9.48195
▁obstacle	-9.48543
▁low	-9.48871
▁eats	-9.49024
▁lone	-9.49375
▁curb	-9.49375
▁help	-9.49438
on	-9.49547
▁button	-9.49659
▁denim	-9.49758
▁railroad	-9.49765
▁stunt	-9.49778
▁D	-9.49866
▁marching	-9.49926
▁picking	-9.50059
▁start	-9.50274
▁half	-9.50391
▁golden	-9.50401
▁guard	-9.5044
▁new	-9.50447
▁appear	-9.50532
▁points	-9.50697
▁hose	-9.50739
▁kicks	-9.50763
▁balcony	-9.50991
▁flies	-9.51007
▁hooded	-9.51141
▁pushe	-9.51589
▁backyard	-9.51619
▁post	-9.52224
▁Child	-9.52236
▁pavement	-9.52254
▁airplane	-9.52292
▁trash	-9.52682
▁nice	-9.52864
▁surface	-9.52912
▁runners	-9.52973
▁sleeps	-9.53073
▁opening	-9.53124
▁log	-9.53264
▁knee	-9.53436
▁infant	-9.53536
▁Workers	-9.53596
▁passes	-9.53596
▁colors	-9.53998
ic	-9.54074
▁cow	-9.54127
▁pot	-9.54168
▁move	-9.54442
▁groom	-9.54753
▁polo	-9.54842
▁driver	-9.55035
▁rolling	-9.55157
▁hoop	-9.55224
▁round	-9.55323
▁Lady	-9.55419
▁piano	-9.55421
▁presentation	-9.55425
▁bandanna	-9.55453
▁overalls	-9.55474
▁dry	-9.55596
▁touching	-9.5562
▁bottom	-9.55627
▁females	-9.55822
▁boats	-9.56045
▁laundry	-9.56071
▁landscape	-9.56133
▁E	-9.5623
▁shooting	-9.56328
▁paved	-9.56423
▁drives	-9.56492
▁slides	-9.56638
▁protective	-9.56726
▁raised	-9.56909
▁gymnast	-9.57379
▁climber	-9.57505
looking	-9.57987
▁living	-9.58058
▁wrestling	-9.5806
▁balancing	-9.58076
▁finger	-9.58109
▁harness	-9.58348
▁shade	-9.59428
▁local	-9.5945
▁direction	-9.59459
▁luggage	-9.60058
▁sewing	-9.60086
▁belt	-9.60241
▁guitars	-9.60439
▁White	-9.6074
▁kayak	-9.60989
▁P	-9.61012
▁slope	-9.61114
▁un	-9.61459
▁image	-9.6151
re	-9.6166
ew	-9.6172
▁motorcycles	-9.6177
▁keyboard	-9.62192
▁scaffolding	-9.62273
▁fall	-9.62521
▁shoe	-9.62724
▁navy	-9.62806
▁checkered	-9.62834
▁professional	-9.62875
▁banner	-9.62915
▁chain	-9.63083
▁examin	-9.63154
▁goods	-9.63282
▁swims	-9.63353
▁papers	-9.6345
▁tractor	-9.63508
▁puddle	-9.63598
▁referee	-9.63604
▁wheelchair	-9.63606
▁rest	-9.63665
▁M	-9.63692
▁New	-9.63714
covered	-9.63751
▁kiss	-9.63844
▁rugby	-9.64212
▁mustache	-9.64357
▁fans	-9.64449
▁poles	-9.64539
▁skis	-9.64694
▁fabric	-9.65033
▁smoke	-9.6506
ers	-9.6521
▁dancer	-9.65284
▁shaving	-9.65657
▁waterfall	-9.65744
▁stool	-9.65793
▁staircase	-9.66354
▁inflatable	-9.66355
▁chest	-9.66357
▁paints	-9.6643
▁ship	-9.66466
▁swimsuit	-9.66479
▁spray	-9.66534
▁sale	-9.66552
▁pack	-9.66613
▁only	-9.66618
▁cone	-9.6679
▁C	-9.67042
▁garbage	-9.6708
▁juggling	-9.67084
sleeve	-9.67669
▁goalie	-9.67818
▁tool	-9.68317
▁wine	-9.68418
▁arena	-9.68714
▁without	-9.68872
▁pipe	-9.68973
▁teenagers	-9.69031
▁ear	-9.69159
▁walls	-9.69294
▁conversing	-9.69323
▁guitarist	-9.69442
▁bubble	-9.69469
▁inspect	-9.69497
▁sheet	-9.69505
▁push	-9.69914
▁opposite	-9.70032
▁floral	-9.70059
▁dust	-9.70073
▁saxophone	-9.70177
▁pitcher	-9.70194
▁bending	-9.70329
▁so	-9.70682
▁gate	-9.70859
▁plane	-9.7116
▁hammer	-9.71238
▁York	-9.71538
▁funny	-9.71559
▁stares	-9.71828
▁hay	-9.7185
▁ears	-9.71901
▁thrown	-9.71922
▁warm	-9.72217
▁shoveling	-9.72278
▁moves	-9.72279
▁themselves	-9.72304
▁boxes	-9.7246
▁soldier	-9.72469
2	-9.72918
▁hurdle	-9.7312
▁serving	-9.73161
▁podium	-9.732
▁club	-9.73234
▁birds	-9.73739
▁Blond	-9.73845
▁clean	-9.73851
▁Here	-9.73867
▁shaking	-9.7389
▁motor	-9.73904
▁crew	-9.74049
▁hiker	-9.74073
▁pattern	-9.74181
▁multi	-9.74602
▁acoustic	-9.74647
▁neon	-9.74683
▁dig	-9.74752
▁palm	-9.74792
▁pedestrians	-9.74867
▁tile	-9.75074
▁riders	-9.751
▁adjust	-9.75232
▁plant	-9.75302
▁fingers	-9.75338
▁robes	-9.75421
▁lunch	-9.75454
ous	-9.75462
▁pajamas	-9.75487
▁cloudy	-9.75508
▁drummer	-9.75587
▁container	-9.75626
▁towel	-9.75629
▁surf	-9.7568
▁raise	-9.75758
▁animals	-9.76009
▁puppy	-9.76207
le	-9.76315
▁jerseys	-9.76627
ial	-9.76685
▁raft	-9.7672
▁steep	-9.76941
▁american	-9.76947
▁porch	-9.77007
▁foreign	-9.77009
▁caught	-9.7701
▁machinery	-9.77019
▁garb	-9.77025
▁rais	-9.77026
▁carpet	-9.77051
▁formal	-9.77146
▁saw	-9.77163
▁biking	-9.77175
▁practice	-9.7728
▁lane	-9.77408
▁you	-9.77439
▁balance	-9.7761
▁use	-9.77793
▁racetrack	-9.77827
▁polka	-9.77833
▁underwater	-9.77868
▁bucking	-9.77904
▁beam	-9.78212
▁snowboard	-9.78322
shirts	-9.78472
like	-9.78558
▁athletic	-9.78662
▁examine	-9.78753
▁escalator	-9.78834
▁present	-9.79152
▁surrounding	-9.79172
▁sleeve	-9.7925
▁tube	-9.79519
▁wrappe	-9.79594
lies	-9.79605
▁motorbike	-9.7968
▁bread	-9.7986
▁cones	-9.80063
▁marketplace	-9.80278
▁six	-9.80292
▁suspended	-9.80301
ple	-9.80325
▁blocks	-9.80578
▁barbecue	-9.80602
▁model	-9.80659
▁shown	-9.80797
▁puck	-9.80851
▁participat	-9.81079
▁hospital	-9.81108
▁herself	-9.81119
▁Girls	-9.81132
▁lean	-9.81137
▁observing	-9.8114
▁h	-9.81158
ying	-9.81187
▁heels	-9.81208
▁amusement	-9.81253
▁teacher	-9.81307
▁finish	-9.81382
▁dive	-9.81397
▁fill	-9.81428
▁compete	-9.81458
▁socks	-9.82004
▁wagon	-9.82165
▁member	-9.82216
▁flight	-9.82371
▁hallway	-9.82797
▁intersection	-9.82797
▁candy	-9.82798
▁money	-9.82859
▁haircut	-9.83007
▁pieces	-9.83032
▁chases	-9.83142
▁style	-9.83157
▁trumpet	-9.8334
▁narrow	-9.83648
▁softball	-9.83654
."	-9.83667
▁happily	-9.8367
▁maroon	-9.8367
▁paddling	-9.83675
▁backwards	-9.83764
▁bottles	-9.83791
▁opponent	-9.83906
▁tools	-9.84329
▁was	-9.84424
▁first	-9.84542
▁visible	-9.84627
▁hood	-9.84648
▁tattoos	-9.84718
▁good	-9.84789
▁summer	-9.84835
apanese	-9.84956
▁backpacks	-9.85072
▁laughs	-9.85117
▁fast	-9.85432
▁things	-9.85448
▁meeting	-9.85581
▁jumpsuit	-9.85671
▁boxing	-9.85993
▁sheep	-9.86219
▁plaza	-9.86256
▁celebrating	-9.86285
▁pitch	-9.86286
▁name	-9.86422
▁ponytail	-9.86519
▁poster	-9.86588
▁Santa	-9.87166
▁Male	-9.87174
▁individual	-9.87433
▁tackle	-9.87455
▁paddle	-9.87485
▁m	-9.87569
▁benches	-9.87972
▁speech	-9.88035
▁necklace	-9.88332
▁frame	-9.88337
▁swimmer	-9.88339
▁advertisement	-9.88365
▁athlete	-9.88389
▁drill	-9.88727
▁bicyclists	-9.88941
▁rests	-9.88957
▁sneakers	-9.88975
▁performers	-9.8914
▁crosses	-9.89149
▁eye	-9.89168
▁routine	-9.89223
▁beverage	-9.89245
▁skirts	-9.893
▁flowered	-9.8941
▁wind	-9.89414
▁lay	-9.89457
▁laugh	-9.89656
g	-9.89694
▁cheerleaders	-9.90046
▁airport	-9.90069
S	-9.90097
▁carriage	-9.90149
▁headband	-9.90162
▁leading	-9.90275
▁speed	-9.90319
▁fur	-9.90338
▁color	-9.90422
▁w	-9.90436
▁sets	-9.9046
▁Brown	-9.90763
▁museum	-9.90764
▁greyhound	-9.90764
▁squatting	-9.90796
colored	-9.90806
down	-9.90891
▁handstand	-9.90907
▁sells	-9.91335
▁German	-9.91583
▁wire	-9.9162
▁BM	-9.91678
▁reflective	-9.91691
▁gravel	-9.9173
▁kneels	-9.91822
▁chew	-9.91831
▁frisbee	-9.91962
▁cobblestone	-9.91995
▁firetruck	-9.92
▁broom	-9.92074
▁teenager	-9.92121
▁mall	-9.92149
▁drive	-9.92431
▁pan	-9.92462
▁helps	-9.92624
▁patio	-9.92627
▁teal	-9.92697
▁downtown	-9.92698
▁cyclists	-9.92749
▁peace	-9.92767
▁mix	-9.92802
▁tub	-9.92886
▁customers	-9.9305
▁stripes	-9.93084
▁catcher	-9.93106
▁computers	-9.9332
▁hikers	-9.9335
▁rink	-9.93356
▁fenced	-9.93561
▁buying	-9.93894
▁mound	-9.93941
▁grilling	-9.93956
▁step	-9.94042
▁branch	-9.94469
▁courtyard	-9.94522
▁operating	-9.94529
▁reache	-9.94812
▁nap	-9.94865
▁figure	-9.94932
▁spread	-9.94953
▁bars	-9.95069
gets	-9.95244
▁baskets	-9.95381
▁boardwalk	-9.95493
▁mostly	-9.95494
▁welding	-9.95519
▁c	-9.95572
▁shadow	-9.95701
▁space	-9.95905
▁pick	-9.96088
amp	-9.96257
▁orienta	-9.96402
▁silhouette	-9.96452
▁evening	-9.96637
▁african	-9.96772
▁forward	-9.96787
▁snowboarding	-9.97029
▁garage	-9.9743
▁Street	-9.97433
▁airborne	-9.97447
▁homeless	-9.97454
▁ma	-9.97576
▁redheaded	-9.97656
▁leaf	-9.97703
▁cheering	-9.97736
▁student	-9.97815
▁gas	-9.98085
▁position	-9.98116
and	-9.98164
▁I	-9.98462
▁coach	-9.98491
▁possibly	-9.98495
▁bass	-9.98856
onto	-9.98862
▁cook	-9.99318
▁college	-9.99428
▁Crowd	-9.99431
▁attention	-9.99447
▁mom	-9.99554
▁tee	-9.99598
▁caps	-9.99618
▁policeman	-9.99647
▁blows	-9.99946
▁map	-9.99984
▁indoors	-10.0004
▁bend	-10.0023
▁ahead	-10.0026
▁newborn	-10.0043
▁Large	-10.0043
▁village	-10.0043
▁folding	-10.0067
▁Female	-10.008
▁tag	-10.0084
▁tied	-10.0084
▁motorcyclist	-10.0085
▁carry	-10.0103
▁job	-10.0104
▁gentlemen	-10.0145
▁weather	-10.0149
▁racer	-10.0155
▁fly	-10.0164
▁smokes	-10.0166
▁backs	-10.017
▁sell	-10.0173
▁W	-10.018
▁waters	-10.0181
▁crossed	-10.0208
▁rainbow	-10.0248
▁motocross	-10.0249
▁smaller	-10.0271
▁sword	-10.0286
▁crane	-10.0286
▁item	-10.0294
▁tray	-10.0307
▁hits	-10.0321
▁orchestra	-10.0352
▁intently	-10.0353
▁rowing	-10.0353
▁bikers	-10.0359
▁studio	-10.0366
▁balding	-10.037
▁bite	-10.0382
▁sofa	-10.0389
▁liquid	-10.0395
▁magazine	-10.0397
ither	-10.0401
▁bit	-10.0418
▁soldiers	-10.0435
▁fresh	-10.0456
▁barber	-10.0459
▁spinn	-10.0494
▁entrance	-10.0494
▁single	-10.0509
▁stroll	-10.0514
▁tops	-10.0517
▁stack	-10.0525
▁read	-10.0528
▁objects	-10.0532
▁stove	-10.0564
▁design	-10.061
▁protest	-10.0622
▁bare	-10.0634
▁knees	-10.0669
▁shaped	-10.067
▁library	-10.0671
▁cricket	-10.0672
▁neighborhood	-10.0672
▁crouches	-10.0673
▁splashes	-10.0676
▁closeup	-10.0676
▁lead	-10.0678
▁bushes	-10.0678
▁backdrop	-10.0693
▁converse	-10.0693
▁knife	-10.0711
▁skates	-10.0714
▁bath	-10.0715
▁sink	-10.0723
▁ballet	-10.0725
▁st	-10.0734
▁song	-10.0746
▁choir	-10.078
▁cardboard	-10.0781
▁action	-10.0793
▁formation	-10.0833
▁carving	-10.0836
▁craft	-10.0844
▁turned	-10.0871
▁cover	-10.0875
side	-10.0876
▁tents	-10.0882
▁native	-10.089
▁headscarf	-10.0891
▁grab	-10.0893
▁iron	-10.0914
▁bathroom	-10.0936
▁lamp	-10.0947
▁heart	-10.098
▁guns	-10.0999
▁Soccer	-10.1001
▁form	-10.1009
▁dishes	-10.1012
▁skateboards	-10.1017
▁fruits	-10.1018
etting	-10.102
rubber	-10.1028
▁ceiling	-10.1048
▁vehicles	-10.105
▁castle	-10.1054
▁storefront	-10.106
▁cards	-10.1063
▁range	-10.107
▁power	-10.1072
▁re	-10.1078
▁stops	-10.1089
▁scub	-10.1091
▁stopped	-10.1117
▁corn	-10.112
▁hi	-10.1128
▁stretching	-10.1132
of	-10.1142
▁pillow	-10.1167
▁taxi	-10.1169
▁photos	-10.1173
▁lick	-10.1176
▁shoot	-10.1179
▁army	-10.1183
▁watched	-10.1196
▁bank	-10.1196
▁order	-10.12
▁buckets	-10.1213
▁farm	-10.1216
▁share	-10.1221
▁g	-10.1222
▁strange	-10.1222
▁conference	-10.1227
▁transportation	-10.1227
▁ceremony	-10.1228
flops	-10.123
▁pit	-10.1248
▁Th	-10.125
▁second	-10.1278
▁bouquet	-10.1279
▁elephant	-10.1281
▁wheels	-10.1289
▁lines	-10.1313
▁microphones	-10.1316
▁waist	-10.1338
▁creek	-10.1342
▁leaving	-10.1343
▁dining	-10.1345
▁cups	-10.1349
▁dish	-10.1363
▁plates	-10.1378
▁ropes	-10.1393
h	-10.1437
▁keep	-10.1445
▁birthday	-10.1458
m	-10.1459
▁outstretched	-10.1459
▁called	-10.1466
▁naked	-10.1473
▁point	-10.1474
▁photographs	-10.1487
▁City	-10.1505
▁electronic	-10.1515
▁suitcase	-10.1515
▁barrel	-10.1519
▁cast	-10.1542
▁pay	-10.1547
▁tower	-10.155
▁blow	-10.156
▁land	-10.1569
▁jewelry	-10.1576
▁pigeons	-10.1594
▁live	-10.1597
▁Police	-10.16
▁chicken	-10.1634
▁knit	-10.165
▁skater	-10.1655
tle	-10.1694
▁rough	-10.1694
▁married	-10.1695
▁security	-10.1696
▁dreadlocks	-10.1696
▁excited	-10.1696
▁telephone	-10.1698
▁star	-10.1703
▁wrestle	-10.1708
▁flipp	-10.171
▁cuts	-10.1723
▁vegetable	-10.1755
▁ribbon	-10.1755
▁dune	-10.1767
▁tug	-10.1782
▁bow	-10.1791
▁participate	-10.1793
▁bear	-10.1795
▁sing	-10.1795
▁directions	-10.1802
▁falls	-10.1803
▁calm	-10.1816
▁ballerina	-10.1816
▁horseback	-10.1818
▁wading	-10.1822
▁doors	-10.1837
▁hall	-10.184
ding	-10.1852
neath	-10.1862
▁pizza	-10.1875
▁apply	-10.1876
▁exercise	-10.188
▁apartment	-10.1883
rs	-10.1888
▁balances	-10.1902
▁bounc	-10.1905
▁pretty	-10.1937
▁discussion	-10.1938
▁rural	-10.1938
▁catche	-10.1944
▁terrain	-10.1948
is	-10.1965
▁wings	-10.1968
▁photographed	-10.1975
▁act	-10.1976
▁checks	-10.1977
▁sweep	-10.1989
▁donkey	-10.2
▁Boys	-10.2041
▁dimly	-10.2061
▁hillside	-10.2069
ten	-10.2075
▁relax	-10.2083
▁artwork	-10.2089
▁embrace	-10.2109
A	-10.2152
ng	-10.2158
▁control	-10.2177
▁fisherman	-10.2186
▁gathers	-10.219
▁pen	-10.22
▁youth	-10.2208
▁traveling	-10.2209
▁ethnic	-10.221
▁attending	-10.2216
▁contain	-10.2221
▁passengers	-10.2233
▁collared	-10.2235
▁observe	-10.2237
▁barrier	-10.2251
▁trailer	-10.2259
▁case	-10.2275
▁kite	-10.2281
▁jungle	-10.2312
▁fancy	-10.2312
▁Caucasian	-10.2313
▁casual	-10.2313
▁derby	-10.2315
tting	-10.2332
▁i	-10.2348
▁shovels	-10.2351
if	-10.237
▁unicycle	-10.2377
▁doctor	-10.238
▁rug	-10.2391
▁gown	-10.2392
itting	-10.2394
it	-10.2395
round	-10.244
▁steel	-10.2441
▁furry	-10.2441
▁partially	-10.2441
▁pottery	-10.2443
▁teaching	-10.2453
▁upon	-10.2479
men	-10.2485
▁R	-10.2504
▁leads	-10.2512
▁crafts	-10.2515
▁hike	-10.252
▁training	-10.2523
▁shops	-10.2533
▁straight	-10.2567
▁calf	-10.257
▁slightly	-10.2571
▁still	-10.2578
▁snack	-10.2582
▁discussing	-10.2587
▁lounge	-10.2594
▁O	-10.263
▁patient	-10.2634
▁billboard	-10.264
▁jockey	-10.2641
▁teammate	-10.2642
▁kayaking	-10.2657
▁tight	-10.2663
▁entertain	-10.2663
▁curve	-10.2665
▁G	-10.2676
▁cleans	-10.2686
▁huddle	-10.269
▁dusk	-10.2702
▁fluffy	-10.2702
▁furniture	-10.2702
▁shaved	-10.2706
▁mobile	-10.2706
▁turning	-10.2709
▁broken	-10.2709
▁more	-10.271
▁camping	-10.2728
able	-10.2732
▁clouds	-10.2741
▁seats	-10.2741
▁tattooed	-10.2744
▁thumbs	-10.2755
▁focus	-10.277
▁soda	-10.2773
▁customer	-10.2776
ttle	-10.2799
▁card	-10.28
▁Li	-10.2802
▁It	-10.2803
▁had	-10.2813
feeding	-10.2826
▁religious	-10.2835
▁clapping	-10.2836
▁bleachers	-10.2837
▁clay	-10.2839
▁great	-10.2839
▁crouching	-10.2843
▁engaged	-10.2845
ping	-10.2848
▁overhead	-10.2849
▁parents	-10.2858
▁fan	-10.2873
▁rainy	-10.2874
▁load	-10.288
▁leap	-10.2892
catching	-10.2927
▁buy	-10.2929
▁cheek	-10.2935
▁Lit	-10.2937
▁cool	-10.2956
American	-10.2957
▁strike	-10.2963
▁sandwich	-10.2965
▁shake	-10.2969
▁advertising	-10.2974
▁most	-10.298
▁sh	-10.3019
▁patch	-10.3021
▁protesting	-10.3028
▁spoon	-10.3046
▁trunk	-10.3047
▁jet	-10.3047
▁doll	-10.3048
▁engine	-10.3063
▁duck	-10.3105
▁similar	-10.3105
▁gymnasium	-10.3108
▁slacks	-10.3108
▁moment	-10.3109
▁factory	-10.3111
▁candles	-10.3142
▁serve	-10.3152
▁free	-10.3156
▁coloring	-10.3194
▁loom	-10.3206
▁clad	-10.3208
▁numbers	-10.3228
▁though	-10.3235
▁Football	-10.3246
▁fencing	-10.3254
▁downhill	-10.3254
▁grinding	-10.3269
▁follows	-10.3285
▁record	-10.329
▁variet	-10.3292
▁hug	-10.3309
▁splash	-10.332
midst	-10.3322
▁flute	-10.3327
▁tourist	-10.3327
▁cooks	-10.3341
▁cheer	-10.3362
▁score	-10.3383
▁ornate	-10.3385
▁chalk	-10.3386
▁yoga	-10.3387
▁chinese	-10.3387
▁gymnastics	-10.3403
▁following	-10.3417
▁come	-10.3424
se	-10.3435
▁plac	-10.344
▁tourists	-10.3448
▁glove	-10.3455
▁creat	-10.3456
▁section	-10.3463
▁kilt	-10.3471
▁tape	-10.3473
▁covers	-10.3479
▁paddles	-10.3484
▁tea	-10.3493
▁Middle	-10.353
▁branches	-10.3539
▁folded	-10.3541
war	-10.3547
▁teen	-10.3564
▁sides	-10.3572
▁dunk	-10.3588
▁me	-10.3595
or	-10.3609
▁thin	-10.3644
go	-10.3662
ight	-10.3669
▁'	-10.3675
▁weaving	-10.3676
at	-10.3687
▁rows	-10.3699
▁athletes	-10.3702
ther	-10.3705
▁horn	-10.3708
▁far	-10.3729
▁peer	-10.3743
▁pet	-10.3752
▁cage	-10.3756
▁material	-10.3761
▁cello	-10.3769
▁spraying	-10.3771
▁AT	-10.378
▁chase	-10.3797
▁dead	-10.3824
▁batter	-10.3826
▁wi	-10.3828
weight	-10.383
▁closely	-10.383
▁wheelie	-10.3831
▁Red	-10.3894
▁sprinkler	-10.3912
ized	-10.3918
▁stall	-10.393
nt	-10.3939
▁scen	-10.3953
ent	-10.3959
▁bricks	-10.3969
▁tropical	-10.3971
▁belly	-10.3979
▁listen	-10.4003
▁whom	-10.401
▁fireman	-10.4015
▁gestures	-10.4018
▁fetch	-10.4027
th	-10.4033
▁listens	-10.4035
▁Olde	-10.4042
▁laptops	-10.4042
▁writ	-10.4048
▁trashcan	-10.4059
▁pins	-10.4061
▁mop	-10.4078
▁touch	-10.4078
i	-10.4081
▁Couple	-10.4122
▁groceries	-10.4123
▁hotel	-10.4123
▁nighttime	-10.4123
▁chess	-10.4125
▁races	-10.4125
▁crouched	-10.4126
▁nature	-10.4126
circular	-10.4126
▁coaster	-10.4128
▁grabb	-10.414
▁pale	-10.4142
▁carts	-10.4143
▁parachute	-10.4158
▁theater	-10.4167
▁beanie	-10.4202
▁peek	-10.4202
▁forehead	-10.4208
▁television	-10.4212
▁swimmers	-10.4225
▁practices	-10.4236
▁ages	-10.4239
▁word	-10.4245
▁wash	-10.4249
▁tires	-10.4263
▁l	-10.4267
▁F	-10.4274
▁sniff	-10.4276
▁scenery	-10.4278
▁casually	-10.4279
▁crawl	-10.428
▁pathway	-10.428
▁messy	-10.4281
ree	-10.4282
▁stoop	-10.4283
▁venue	-10.429
nd	-10.4292
▁world	-10.4292
▁aisle	-10.4297
▁speak	-10.4314
▁done	-10.4324
▁placed	-10.4331
▁observes	-10.4351
▁exhibit	-10.4367
▁reflection	-10.437
▁stare	-10.4393
▁rear	-10.4395
▁apple	-10.4413
▁larger	-10.4432
▁puppies	-10.4433
▁tripod	-10.4433
▁juice	-10.4433
▁carefully	-10.4433
▁rally	-10.4435
▁firemen	-10.4446
▁viewing	-10.4454
▁notes	-10.4474
▁peers	-10.4475
▁saying	-10.448
▁turns	-10.4481
▁firefighters	-10.4491
▁visit	-10.4505
▁hugs	-10.4506
▁draw	-10.4531
▁moped	-10.4541
▁chat	-10.4554
▁dot	-10.4591
▁chalkboard	-10.4592
▁rollerskating	-10.4592
▁shoreline	-10.4593
▁chatting	-10.4593
▁strip	-10.4595
▁binoculars	-10.4596
▁wares	-10.46
▁sized	-10.46
▁approaching	-10.4614
▁jumped	-10.4622
▁flat	-10.4632
▁wheelbarrow	-10.4688
▁eastern	-10.4689
▁motion	-10.4697
▁surfs	-10.4738
▁celebration	-10.4753
▁yarn	-10.4753
▁skinny	-10.4753
▁rollerblading	-10.4753
▁supplies	-10.4754
▁tiny	-10.4754
▁dough	-10.4754
▁pigtails	-10.4754
▁missing	-10.4756
▁snowshoes	-10.4764
▁rolled	-10.4777
ical	-10.4799
▁medica	-10.482
red	-10.4846
▁r	-10.4847
▁canvas	-10.4848
▁opens	-10.4851
▁firefighter	-10.4856
▁passenger	-10.4856
▁turban	-10.4858
▁presents	-10.4868
▁logo	-10.4869
▁seven	-10.4869
▁rack	-10.4894
ll	-10.4901
▁masks	-10.4909
▁umpire	-10.4916
▁environment	-10.4917
▁sunlight	-10.4918
▁alleyway	-10.4918
▁descent	-10.4921
▁London	-10.4925
▁kisses	-10.4931
▁games	-10.4952
ally	-10.4955
▁oven	-10.4962
▁teammates	-10.4993
▁displays	-10.4995
▁hind	-10.4998
▁shadows	-10.5021
▁shower	-10.5024
▁complete	-10.5033
▁march	-10.5033
▁stripe	-10.504
▁played	-10.5043
▁bowls	-10.5047
▁shades	-10.5058
out	-10.5063
▁lecture	-10.5073
▁modern	-10.5083
▁silly	-10.5085
▁learning	-10.5101
▁hoops	-10.5114
ies	-10.5125
▁mini	-10.5129
▁torch	-10.5133
▁pause	-10.5148
▁feather	-10.5158
▁admir	-10.5168
▁movie	-10.5187
▁expression	-10.5192
▁houses	-10.5199
▁win	-10.5205
▁lighting	-10.5238
▁meet	-10.524
▁vendors	-10.5241
▁shar	-10.5245
▁semi	-10.5252
▁frozen	-10.5253
▁arcade	-10.5253
▁stomach	-10.5253
▁While	-10.5253
▁chainsaw	-10.5253
▁quickly	-10.5253
▁consist	-10.5254
▁embracing	-10.5258
▁rollerskates	-10.5262
▁almost	-10.5268
▁industr	-10.5273
▁eggs	-10.5285
▁roll	-10.5297
▁products	-10.5299
▁gettin	-10.5309
▁landing	-10.5324
aring	-10.5335
▁rod	-10.5335
▁racers	-10.5369
▁camel	-10.537
▁flips	-10.5389
▁alcohol	-10.5425
▁medium	-10.5425
▁butterfly	-10.5425
▁soap	-10.5426
▁Students	-10.543
▁contest	-10.5431
▁rapids	-10.5439
▁wig	-10.5452
▁Multip	-10.5454
Baby	-10.5464
▁crates	-10.5465
one	-10.5473
▁pads	-10.5482
▁words	-10.5488
▁comes	-10.5498
loading	-10.5504
▁stump	-10.5519
ir	-10.5525
▁notebook	-10.5538
▁nail	-10.5557
▁hut	-10.5558
▁link	-10.5564
▁stones	-10.5574
▁gallery	-10.56
▁trench	-10.56
▁chocolate	-10.5601
▁suspenders	-10.5601
▁Pedestrians	-10.5605
▁indian	-10.5607
▁spotted	-10.5617
▁couples	-10.5627
▁bagpipes	-10.5629
lifting	-10.5631
▁interacting	-10.5631
▁midst	-10.5631
camera	-10.5639
arious	-10.564
▁chopp	-10.5643
▁Olympics	-10.5657
▁cameras	-10.5662
▁rolls	-10.567
▁pine	-10.5712
▁leotard	-10.5718
▁owner	-10.5719
▁gift	-10.572
▁bamboo	-10.5779
▁valley	-10.5779
▁elaborate	-10.5779
▁bulldozer	-10.578
▁debris	-10.578
▁decorative	-10.5781
▁rooftop	-10.5784
▁scrubs	-10.5784
▁machines	-10.58
▁own	-10.5803
ful	-10.5825
fashioned	-10.5832
▁camels	-10.5837
▁squirt	-10.5865
▁tricycle	-10.59
▁drawn	-10.5902
▁build	-10.5906
▁Famil	-10.5907
▁feed	-10.5957
▁double	-10.5961
▁turquoise	-10.5961
▁lacrosse	-10.5961
▁milk	-10.5962
▁underwear	-10.5963
▁knitting	-10.5964
▁rice	-10.5965
▁built	-10.5975
aseball	-10.5998
▁begins	-10.6001
▁tights	-10.6042
style	-10.6054
▁wires	-10.6059
▁sailboat	-10.6085
▁pin	-10.6087
▁boxer	-10.6108
▁blankets	-10.6111
▁tail	-10.6128
▁monument	-10.6146
▁stairway	-10.6146
▁helicopter	-10.6146
▁Cheerleaders	-10.6148
▁poor	-10.6149
▁playfully	-10.6149
▁rollerblades	-10.6153
▁brass	-10.6154
▁Tourists	-10.6163
▁information	-10.6163
▁collect	-10.6186
▁hills	-10.621
▁diver	-10.6246
▁skiers	-10.6255
▁ben	-10.6268
▁handrail	-10.6271
▁Olympic	-10.6274
▁hotdog	-10.6276
▁Elder	-10.6278
▁wrestler	-10.6282
▁cute	-10.6286
▁amount	-10.629
▁swimsuits	-10.6303
f	-10.6304
▁crown	-10.631
▁process	-10.6333
▁Mohawk	-10.6334
▁chisel	-10.6334
▁pinata	-10.6334
▁trolley	-10.6335
▁bathtub	-10.6335
▁monkey	-10.6335
▁contraption	-10.6335
▁merchandise	-10.6335
▁demonstration	-10.6335
▁mower	-10.6338
▁lounging	-10.6339
▁identical	-10.634
▁stretches	-10.634
▁approaches	-10.6343
▁beads	-10.6347
▁praying	-10.6349
▁writes	-10.6363
▁tackled	-10.6371
▁odd	-10.6386
▁cameraman	-10.6397
▁joy	-10.6403
▁chin	-10.6422
▁shin	-10.6424
▁toss	-10.6439
▁toddlers	-10.6448
▁gesture	-10.6467
▁Kid	-10.6468
▁mechanic	-10.647
▁angel	-10.6471
▁human	-10.6473
▁St	-10.6486
ment	-10.6511
▁mohawk	-10.6527
▁surgery	-10.6527
▁wife	-10.6527
▁company	-10.6528
▁trip	-10.6529
▁wild	-10.6531
▁highway	-10.6531
▁wheeled	-10.6538
▁mountainside	-10.6547
▁brushes	-10.655
▁aprons	-10.6575
▁story	-10.6591
▁scooters	-10.6617
▁po	-10.6625
▁locat	-10.6658
▁briefcase	-10.666
▁enter	-10.6674
▁pillar	-10.6678
age	-10.6689
▁mill	-10.6719
▁tiger	-10.6723
▁heavily	-10.6723
▁location	-10.6723
▁shaggy	-10.6723
▁He	-10.6723
▁stilts	-10.6725
▁sledding	-10.6728
▁cargo	-10.6732
▁interesting	-10.6733
▁demonstrating	-10.6735
▁followed	-10.6736
▁steam	-10.674
▁newspapers	-10.6742
ar	-10.6742
▁loaded	-10.6749
▁were	-10.6759
▁gazes	-10.6761
▁pretending	-10.6761
▁jogs	-10.6764
▁fishes	-10.6772
▁lifted	-10.679
▁scaffold	-10.6797
▁tour	-10.6802
country	-10.6849
▁boards	-10.6859
▁pumpkin	-10.6861
▁Lot	-10.6861
▁pedestrian	-10.6862
▁portrait	-10.6871
▁strapp	-10.689
▁stepp	-10.69
▁service	-10.6901
▁sack	-10.6911
dressed	-10.6915
▁cans	-10.6918
▁butcher	-10.6923
▁burgundy	-10.6923
▁homemade	-10.6924
▁breakdancing	-10.6924
▁workshop	-10.6924
▁shiny	-10.6925
▁th	-10.6927
▁cycling	-10.693
▁H	-10.6934
▁Band	-10.695
▁will	-10.6987
▁teens	-10.7014
▁jumper	-10.7018
▁call	-10.7031
sized	-10.7043
▁displayed	-10.7044
▁figures	-10.705
▁bib	-10.7052
▁shawl	-10.7063
▁posters	-10.7064
ts	-10.7069
▁farmer	-10.7072
▁sad	-10.7076
▁N	-10.7094
▁goat	-10.7095
▁banjo	-10.7127
▁autumn	-10.7127
▁cotton	-10.7127
▁raincoat	-10.7131
▁Musician	-10.7135
▁policemen	-10.714
▁sidelines	-10.7144
▁grind	-10.7163
▁punching	-10.7163
▁snowball	-10.7168
▁colorfully	-10.7169
▁dragg	-10.717
▁label	-10.7171
▁tired	-10.7188
▁Dogs	-10.7193
▁separate	-10.7205
▁find	-10.7209
▁target	-10.727
▁places	-10.7271
▁rifle	-10.7273
▁lime	-10.7273
▁featur	-10.7279
▁containers	-10.7286
▁rings	-10.7292
▁involv	-10.731
▁miniature	-10.7335
▁laboratory	-10.7335
▁egg	-10.7338
▁extreme	-10.734
▁Army	-10.7342
▁Orient	-10.7348
▁studying	-10.7351
▁burning	-10.7353
▁clearing	-10.7354
▁bush	-10.7362
▁dad	-10.7383
▁wrapp	-10.7388
▁aerial	-10.739
▁cape	-10.7393
▁wrestlers	-10.7404
▁mouths	-10.7417
▁axe	-10.7431
▁camp	-10.7442
▁sleep	-10.7443
▁co	-10.7447
▁planting	-10.7459
▁marble	-10.7482
▁beret	-10.7484
▁tackl	-10.7488
▁monitor	-10.7492
▁vacuum	-10.7502
▁nun	-10.7511
▁images	-10.752
▁main	-10.7523
▁vend	-10.7531
▁cab	-10.7532
the	-10.7536
▁blood	-10.7539
▁pots	-10.7539
▁laundromat	-10.7548
▁graduation	-10.7548
▁science	-10.7548
▁tournament	-10.7549
▁leggings	-10.7549
▁headdress	-10.755
▁Firefighter	-10.755
▁Blue	-10.7552
▁chefs	-10.7553
▁shepherd	-10.7553
▁late	-10.7556
▁underground	-10.7561
▁retriever	-10.7566
▁stretched	-10.7569
▁scoop	-10.7571
▁handling	-10.7572
▁splashed	-10.7576
▁businessman	-10.758
▁columns	-10.7592
▁entering	-10.7595
▁nets	-10.7596
top	-10.76
▁lips	-10.7607
▁support	-10.7633
▁ducks	-10.764
▁snacks	-10.7646
▁beverages	-10.7692
▁jeep	-10.7694
▁highchair	-10.7702
▁snowsuit	-10.7707
▁brother	-10.7707
▁sleeves	-10.7714
▁gaz	-10.7717
ky	-10.772
wood	-10.7721
▁Asia	-10.7745
lit	-10.7761
rimmed	-10.7762
▁Hawaii	-10.7765
▁toothbrush	-10.7765
▁warehouse	-10.7765
▁driveway	-10.7766
▁gesturing	-10.7766
▁socializing	-10.7767
▁Hockey	-10.7771
▁bin	-10.7802
king	-10.7836
▁plain	-10.7866
▁attractive	-10.7867
▁follow	-10.7869
▁designs	-10.7875
▁artists	-10.7893
▁rust	-10.7922
▁cheese	-10.7925
▁mannequin	-10.7926
▁pirate	-10.7926
▁tuxedo	-10.7926
▁e	-10.7926
▁product	-10.793
▁speaker	-10.7931
▁spot	-10.7987
▁flannel	-10.7987
▁reception	-10.7988
▁department	-10.7988
▁supermarket	-10.7988
▁conductor	-10.7988
▁daytime	-10.799
▁somewhere	-10.7991
▁belongings	-10.7991
▁projector	-10.7992
▁Runners	-10.7999
▁orient	-10.7999
▁squats	-10.8004
▁crayons	-10.8007
▁skills	-10.8011
▁capture	-10.8011
▁framed	-10.8022
▁operates	-10.8027
▁sailing	-10.8036
▁menu	-10.806
▁handle	-10.8075
▁test	-10.8078
▁breath	-10.8121
p	-10.8136
▁picks	-10.8139
▁cloud	-10.8142
▁employee	-10.8157
▁spike	-10.8158
▁pretend	-10.8171
▁bra	-10.8198
▁repairs	-10.8206
▁unusual	-10.8212
▁Shepherd	-10.8215
▁terminal	-10.8215
▁auditorium	-10.8215
▁cherry	-10.8215
▁caucasian	-10.8215
▁sideways	-10.8216
▁skyline	-10.8217
▁festive	-10.8218
▁pilot	-10.8219
▁scaling	-10.8219
▁create	-10.8228
▁decorations	-10.8237
▁clock	-10.8239
▁trim	-10.8242
▁divers	-10.8246
▁lower	-10.8247
▁canal	-10.8249
▁Spectator	-10.825
▁level	-10.8251
▁topless	-10.8253
white	-10.8254
▁statues	-10.8258
▁drop	-10.8273
▁polish	-10.8277
▁types	-10.828
▁rush	-10.8288
▁disc	-10.8297
▁reflect	-10.8325
▁lasso	-10.8336
▁drag	-10.8342
▁kiosk	-10.8372
▁pe	-10.8376
▁tr	-10.8377
▁dumpster	-10.8377
▁include	-10.8381
▁spotlight	-10.8384
▁shape	-10.8389
▁perche	-10.839
▁nurse	-10.8391
ital	-10.8405
▁battle	-10.8406
▁logs	-10.8422
▁bottoms	-10.843
▁cows	-10.8443
▁meadow	-10.8447
▁activity	-10.8447
▁British	-10.8447
▁Shirtless	-10.8447
▁guards	-10.8448
▁blurry	-10.8448
▁eyeglasses	-10.8448
▁fireworks	-10.8456
▁treat	-10.8457
▁staff	-10.8465
▁letters	-10.847
▁smooth	-10.8478
▁return	-10.8482
▁marked	-10.8482
▁waterway	-10.8485
▁boarding	-10.8489
by	-10.8489
▁cop	-10.8499
▁lion	-10.8501
▁unload	-10.8546
▁cellphones	-10.8577
▁bikinis	-10.858
▁travel	-10.8588
x	-10.859
▁curtain	-10.8624
▁upward	-10.8631
▁mug	-10.8638
▁shield	-10.865
opping	-10.867
▁Mexic	-10.8679
▁harbor	-10.8685
▁babies	-10.8685
▁foliage	-10.8685
▁tarp	-10.8685
▁hydrant	-10.8685
▁campfire	-10.8685
▁champagne	-10.8685
▁blurred	-10.8686
▁passersby	-10.8686
▁blazer	-10.8686
▁browsing	-10.8687
▁bedroom	-10.8687
▁scissors	-10.8688
▁whistle	-10.8688
▁Skateboarder	-10.869
▁extend	-10.8691
▁candle	-10.8692
▁Mother	-10.8692
▁olive	-10.8692
▁bundled	-10.8694
▁shoppers	-10.8695
▁search	-10.8705
▁crashing	-10.8718
ular	-10.8726
▁skies	-10.8735
▁lining	-10.8747
sh	-10.8753
▁photographers	-10.8757
▁hotdogs	-10.8763
▁we	-10.8765
▁receiv	-10.88
▁tags	-10.8803
▁School	-10.8817
▁magazines	-10.8824
▁got	-10.8847
green	-10.8851
▁mow	-10.8855
▁instructor	-10.8862
▁direct	-10.8876
▁punch	-10.8899
▁crack	-10.8921
▁sharp	-10.8926
▁horizon	-10.8929
▁aquarium	-10.8929
▁Hispanic	-10.8929
▁Canadian	-10.8929
▁thick	-10.8929
▁shelf	-10.893
▁series	-10.8931
▁ingredients	-10.8932
▁surprised	-10.8932
▁scarves	-10.8933
k	-10.8935
▁victory	-10.8936
▁bystanders	-10.8939
▁avoid	-10.8939
▁zone	-10.8945
▁upper	-10.8946
▁South	-10.8946
▁transit	-10.8948
▁cowboys	-10.8958
▁protesters	-10.896
▁booths	-10.8965
▁focused	-10.8965
ling	-10.8966
▁characters	-10.8969
▁yelling	-10.8971
▁bananas	-10.8978
▁aqua	-10.8978
▁ei	-10.9002
▁boxers	-10.9019
▁cleaner	-10.9023
▁bound	-10.9064
Eastern	-10.9074
▁beers	-10.9103
▁burie	-10.9105
▁wh	-10.9109
▁advertisements	-10.911
▁tablecloth	-10.9117
▁tend	-10.9119
▁interact	-10.9119
▁purchase	-10.9126
▁mic	-10.9128
ted	-10.9145
▁temple	-10.9179
▁chopsticks	-10.9179
▁Smiling	-10.918
▁fellow	-10.918
▁else	-10.9181
▁emergency	-10.9186
▁blocking	-10.9188
▁assort	-10.9192
▁extended	-10.9192
▁earrings	-10.9205
▁checked	-10.9279
P	-10.9298
▁wade	-10.9313
ite	-10.9355
▁numbered	-10.9357
▁skull	-10.9359
▁muzzle	-10.9362
▁celebrate	-10.9368
▁ticket	-10.9376
▁handbag	-10.9376
▁crate	-10.9378
▁protect	-10.9382
▁stars	-10.9386
ily	-10.9431
▁casino	-10.9435
▁senior	-10.9435
▁Square	-10.9435
▁christmas	-10.9435
▁scientist	-10.9435
▁community	-10.9436
▁morning	-10.9436
▁buffet	-10.9436
▁natural	-10.9436
▁earphones	-10.9437
▁stirring	-10.9438
▁paperwork	-10.9438
▁Native	-10.9442
▁China	-10.9442
▁coast	-10.9447
eval	-10.9448
▁floats	-10.9449
▁Green	-10.9451
▁wrap	-10.9455
▁filming	-10.9465
▁tv	-10.947
▁roses	-10.9473
▁sprayed	-10.9488
▁launch	-10.9496
▁clowns	-10.9507
▁farmers	-10.9521
▁us	-10.9525
▁used	-10.9526
▁passed	-10.9532
▁amid	-10.9547
▁beat	-10.9555
▁trucks	-10.9564
u	-10.9572
▁tri	-10.9581
▁prepared	-10.9588
▁motorcyclists	-10.9591
▁ten	-10.9592
▁jumpsuits	-10.9617
▁bronco	-10.9623
erous	-10.9625
▁razor	-10.9628
▁ATM	-10.9631
▁experiment	-10.9635
▁poodle	-10.9637
▁McDonald	-10.9637
▁marker	-10.964
▁thumb	-10.964
▁giv	-10.965
▁bring	-10.9652
cular	-10.9659
▁suburb	-10.9661
▁join	-10.9666
▁Ma	-10.9669
C	-10.9679
ian	-10.9688
id	-10.9694
▁bmx	-10.9698
▁harmonica	-10.9699
▁tribal	-10.9699
▁Cowboy	-10.9699
▁establishment	-10.9699
▁quarterback	-10.9699
▁bartender	-10.9699
▁personnel	-10.9699
▁transport	-10.9701
▁European	-10.9702
▁lush	-10.9704
▁flock	-10.9706
▁injured	-10.9706
▁deer	-10.9708
▁afternoon	-10.9712
▁pointed	-10.9734
board	-10.9758
▁lighted	-10.9768
▁employees	-10.977
▁fashion	-10.9782
laid	-10.9783
▁sail	-10.9803
ated	-10.9809
▁foam	-10.981
▁receive	-10.9814
▁Asians	-10.9815
▁than	-10.9835
ift	-10.9837
▁asking	-10.9853
▁dinosaur	-10.9893
▁garment	-10.9907
▁tutu	-10.9908
▁begin	-10.9911
▁maneuver	-10.9913
▁sheets	-10.9915
▁descend	-10.993
▁awning	-10.9932
▁desks	-10.9933
▁India	-10.9954
▁interview	-10.9955
▁Dark	-10.9969
▁portable	-10.9969
▁Basketball	-10.9969
▁Toddler	-10.9969
▁directly	-10.9971
▁soft	-10.9971
▁raking	-10.9972
▁freshly	-10.9974
▁twirling	-10.9977
shaped	-10.9979
▁want	-10.9979
▁crops	-10.9981
▁snake	-10.9984
▁surg	-11.0001
▁historic	-11.0006
▁dump	-11.0008
▁guide	-11.0014
▁eight	-11.0031
▁too	-11.0066
▁pictured	-11.0077
▁signing	-11.0078
ce	-11.008
▁zip	-11.011
▁arch	-11.0117
▁tuba	-11.0144
▁package	-11.0145
▁rafting	-11.0152
▁clutch	-11.0156
▁stir	-11.0171
▁fak	-11.0179
▁antique	-11.0179
▁dryer	-11.0181
▁boulder	-11.0184
▁cheerleader	-11.0186
▁rescue	-11.0187
▁commerc	-11.0196
▁pipes	-11.02
▁bay	-11.0236
▁competitive	-11.0245
▁much	-11.0247
▁maintenance	-11.0247
▁protection	-11.0247
▁beginning	-11.0247
▁intense	-11.0247
▁rowboat	-11.0247
▁Protesters	-11.0248
▁backseat	-11.0248
▁mess	-11.0249
▁screaming	-11.0251
▁perhaps	-11.0253
▁contents	-11.0254
▁Soldier	-11.0255
▁medi	-11.0263
▁waterskiing	-11.027
▁icy	-11.0279
▁flowing	-11.0287
▁scouts	-11.0288
▁adorn	-11.0317
▁sound	-11.0323
▁de	-11.0327
ries	-11.0328
▁o	-11.0331
SA	-11.0342
▁cigarettes	-11.0355
▁youths	-11.0359
hree	-11.037
▁clothed	-11.0371
▁apart	-11.0378
▁entertains	-11.0382
▁complet	-11.0385
▁faci	-11.0386
▁organ	-11.0388
waiting	-11.0392
▁apples	-11.0392
▁pad	-11.0397
▁shoots	-11.0402
▁speeds	-11.0419
▁approach	-11.0427
▁text	-11.0433
▁acting	-11.0439
▁aged	-11.0447
▁stretch	-11.0462
▁pencil	-11.0467
▁purses	-11.0469
▁barricade	-11.047
▁rickshaw	-11.0474
▁plow	-11.0483
▁plank	-11.0489
▁even	-11.0489
et	-11.0492
▁news	-11.0502
▁kayaks	-11.0503
ion	-11.052
▁photographing	-11.0524
▁stunts	-11.0524
▁bounce	-11.0525
▁climbers	-11.0527
▁connect	-11.0532
▁depict	-11.0532
▁fedora	-11.0532
▁progress	-11.0532
▁unknown	-11.0532
▁unhappy	-11.0532
▁wilderness	-11.0532
▁pony	-11.0534
▁knock	-11.0535
▁reddish	-11.0535
▁goatee	-11.0536
▁Number	-11.0539
▁warmly	-11.0539
▁clarinet	-11.0539
▁juggles	-11.054
▁dragon	-11.0541
▁khakis	-11.0553
▁workout	-11.0554
▁cave	-11.0556
▁exiting	-11.0562
▁care	-11.0571
▁stacked	-11.0572
▁seagulls	-11.0574
▁bicycling	-11.0576
▁peak	-11.0593
▁Adults	-11.0609
▁upwards	-11.0611
▁fell	-11.0612
▁barefooted	-11.0612
▁last	-11.0615
▁feathers	-11.0615
▁pillars	-11.062
▁fat	-11.0658
▁stores	-11.0668
▁pillows	-11.0686
▁skaters	-11.0693
▁pro	-11.0719
▁foods	-11.0725
▁necklaces	-11.0729
▁Fire	-11.073
line	-11.0744
▁attack	-11.0744
▁engage	-11.075
▁system	-11.075
▁sweaters	-11.0752
▁demonstrate	-11.0755
▁hurdles	-11.076
▁strik	-11.0761
▁grasp	-11.0761
▁sailor	-11.0762
▁pocket	-11.0764
▁official	-11.0765
▁pig	-11.0771
▁mountaintop	-11.0771
▁column	-11.0772
▁golfer	-11.0782
▁sponsor	-11.0802
▁paintings	-11.0808
▁piles	-11.0811
▁America	-11.0816
▁unique	-11.0824
▁metro	-11.0826
▁Muslim	-11.0826
▁asphalt	-11.0826
▁social	-11.0826
▁vintage	-11.0826
▁accident	-11.0826
▁cafeteria	-11.0826
▁vegetation	-11.0826
enga	-11.0827
▁propped	-11.0827
▁sparring	-11.0827
▁clutter	-11.0829
▁lens	-11.083
▁least	-11.0831
▁sparks	-11.0832
▁convention	-11.0833
▁cries	-11.0834
▁trains	-11.0836
▁Bald	-11.0839
ake	-11.084
▁mus	-11.0842
▁conducting	-11.0844
▁hunche	-11.0845
▁chips	-11.0853
▁bowler	-11.0856
▁incline	-11.0878
▁lie	-11.0887
▁whole	-11.0892
▁waitress	-11.0897
ie	-11.0933
iming	-11.0943
▁wheeler	-11.0954
▁drape	-11.0955
▁flood	-11.0956
▁love	-11.0964
▁special	-11.0987
▁ho	-11.0991
▁hook	-11.1034
▁jog	-11.1046
▁racquet	-11.1052
▁bracelet	-11.1068
▁say	-11.1068
den	-11.1068
▁banana	-11.1068
▁watermelon	-11.1069
▁classic	-11.1073
▁task	-11.1076
▁riot	-11.1085
▁belts	-11.1089
▁Time	-11.109
▁fist	-11.1092
led	-11.1102
I	-11.1112
▁flaming	-11.1121
▁cruise	-11.1122
▁Miami	-11.1129
▁hammock	-11.1129
▁canopy	-11.1129
▁substance	-11.1129
▁pacifier	-11.1129
▁badminton	-11.1129
▁nightclub	-11.1129
▁stance	-11.1131
▁bookstore	-11.1132
▁sundress	-11.1132
▁illuminated	-11.1133
▁caution	-11.1137
▁cattle	-11.1137
▁exercising	-11.1138
▁saddle	-11.1139
▁uphill	-11.114
▁completely	-11.1141
▁mixer	-11.1141
▁paws	-11.1148
▁checkers	-11.1148
▁greenery	-11.1151
▁early	-11.1156
▁scratch	-11.1163
▁age	-11.1168
▁fit	-11.1168
▁wield	-11.1168
▁scale	-11.1172
▁texting	-11.1175
▁tips	-11.1179
▁hips	-11.118
cause	-11.1194
▁Look	-11.1199
▁split	-11.1205
▁nails	-11.1236
▁jockeys	-11.1271
▁change	-11.1278
▁We	-11.1281
ith	-11.1284
▁ribbons	-11.1284
▁snowman	-11.1304
ation	-11.1315
▁picket	-11.1318
▁war	-11.1322
▁strollers	-11.133
▁beams	-11.1346
▁sat	-11.1372
▁strap	-11.1374
▁puppet	-11.1376
▁holiday	-11.1376
coming	-11.1385
▁waiter	-11.1393
▁fog	-11.1398
▁Claus	-11.1404
ball	-11.1418
woman	-11.1421
▁carve	-11.1424
▁potato	-11.1436
▁quiet	-11.1439
▁deli	-11.1441
▁elbow	-11.1441
▁mascot	-11.1441
▁trophy	-11.1441
▁buggy	-11.1442
▁dolphin	-11.1442
▁Spanish	-11.1442
▁excitement	-11.1442
▁visor	-11.1442
▁facility	-11.1442
▁fireplace	-11.1442
▁cheerleading	-11.1442
▁bunny	-11.1443
▁Snowboarder	-11.1444
▁collection	-11.1445
▁Customer	-11.1446
▁bakery	-11.1446
▁braided	-11.1446
▁countryside	-11.1447
ish	-11.1448
▁adolescent	-11.145
▁harp	-11.145
▁dribbles	-11.145
▁fatigues	-11.1451
▁newly	-11.1452
▁ruins	-11.1453
▁mur	-11.1459
▁involved	-11.1465
▁mounted	-11.1468
▁steering	-11.1472
ne	-11.1473
▁served	-11.1473
ack	-11.1476
▁roadside	-11.1486
▁carrier	-11.1496
▁vacuuming	-11.1509
▁travels	-11.1522
▁monitors	-11.1532
tish	-11.1532
▁fold	-11.1539
▁waterfront	-11.1569
filled	-11.1574
▁Close	-11.1581
T	-11.1588
▁doctors	-11.1592
▁attend	-11.1609
▁ties	-11.1616
▁swords	-11.1623
▁yo	-11.1631
▁nearly	-11.1646
▁decide	-11.168
▁cigar	-11.1683
▁pyramid	-11.1688
▁file	-11.1692
▁treadmill	-11.1697
▁archway	-11.1697
▁stair	-11.1713
▁shad	-11.1725
▁toast	-11.1728
▁skin	-11.1731
▁shelter	-11.1747
▁viewer	-11.175
pplies	-11.1756
▁hip	-11.1763
▁Num	-11.1764
▁lobby	-11.1764
▁accept	-11.1764
▁canyon	-11.1764
▁Walmart	-11.1764
▁weird	-11.1764
▁megaphone	-11.1764
▁Sooner	-11.1764
▁radio	-11.1764
▁riverbank	-11.1764
ery	-11.1767
▁terrier	-11.1767
▁Friends	-11.1767
▁press	-11.1769
▁Bull	-11.1775
▁K	-11.1776
▁gardening	-11.1778
▁tow	-11.1786
▁wool	-11.1787
▁harvesting	-11.179
▁inflated	-11.179
▁soup	-11.1791
▁cash	-11.1795
▁slam	-11.1797
▁roadway	-11.1797
▁grand	-11.1816
▁flames	-11.1818
▁mixed	-11.1823
est	-11.1824
▁directing	-11.183
legged	-11.1836
ssing	-11.1852
▁spots	-11.1853
▁touche	-11.1855
▁litter	-11.1856
pong	-11.1868
▁lands	-11.1884
▁congregate	-11.1885
▁horns	-11.1886
▁recent	-11.1889
finished	-11.1902
▁ordering	-11.191
ipping	-11.1922
▁panel	-11.1924
▁rid	-11.1939
uck	-11.1978
▁pa	-11.1978
▁tiles	-11.1981
▁motorbikes	-11.2007
▁powder	-11.2021
▁Nike	-11.2021
▁mist	-11.2022
▁bundle	-11.2025
▁elevator	-11.2033
▁companion	-11.2033
▁toilet	-11.2035
▁monk	-11.2036
▁diner	-11.2037
▁sprays	-11.2048
▁surfers	-11.2055
▁finished	-11.2078
▁baton	-11.208
▁bungee	-11.2097
▁Coca	-11.2097
▁foggy	-11.2097
▁carousel	-11.2097
▁activities	-11.2097
▁lipstick	-11.2097
▁enclosed	-11.2098
▁easel	-11.2098
▁Surfer	-11.2099
▁salon	-11.2099
▁kickboxing	-11.2099
▁vibrant	-11.21
▁Scot	-11.21
▁tomatoes	-11.2102
▁clothesline	-11.2104
▁boogie	-11.2105
▁bored	-11.211
▁shines	-11.2113
▁upset	-11.2115
▁peach	-11.2121
▁bridesmaids	-11.2122
▁sculpting	-11.2123
▁years	-11.213
▁wander	-11.2133
▁dried	-11.2136
land	-11.2149
tending	-11.217
▁relaxe	-11.2177
▁sunhat	-11.219
▁pop	-11.2216
▁soil	-11.2225
▁length	-11.2228
▁jack	-11.2229
▁Player	-11.2232
▁sip	-11.2237
▁ba	-11.224
air	-11.2247
▁accompanie	-11.2257
▁stacks	-11.2272
▁retrieve	-11.2301
tan	-11.2312
ning	-11.2318
▁rails	-11.2366
▁operate	-11.2379
▁groups	-11.2386
sses	-11.2401
▁navigate	-11.2416
headed	-11.2417
▁painter	-11.2424
jump	-11.2435
▁serious	-11.244
▁marsh	-11.2441
▁robot	-11.2442
▁period	-11.2442
▁yawning	-11.2442
▁breakfast	-11.2442
▁cityscape	-11.2443
▁shelves	-11.2443
▁arrow	-11.245
▁baked	-11.2458
▁braids	-11.2464
▁explaining	-11.2465
▁quad	-11.2466
▁torn	-11.2468
▁dozen	-11.2473
▁flame	-11.2475
▁napping	-11.2479
▁folk	-11.2479
b	-11.248
▁smell	-11.2491
▁shaves	-11.2498
▁canoes	-11.2498
▁worn	-11.2499
▁ha	-11.2506
▁sacks	-11.2512
▁opened	-11.2515
▁redhead	-11.2516
▁lanterns	-11.2527
▁nurses	-11.2532
clad	-11.2533
▁admire	-11.254
▁retriev	-11.2555
ilitary	-11.2563
▁blocked	-11.2563
wn	-11.2565
▁sprinklers	-11.2586
▁materials	-11.2588
▁mass	-11.2594
▁cheeks	-11.2599
▁washe	-11.2634
▁strolls	-11.2649
▁hammering	-11.2653
▁may	-11.2654
▁Nin	-11.2655
▁gaze	-11.2658
way	-11.2686
as	-11.269
▁opponents	-11.2692
▁elder	-11.2699
▁register	-11.2729
▁explor	-11.2731
▁turkey	-11.2735
▁kimono	-11.2738
▁sister	-11.2739
▁headset	-11.274
▁border	-11.2744
▁v	-11.2745
▁cookie	-11.2745
▁spring	-11.2747
▁cable	-11.2754
▁stay	-11.2764
▁discuss	-11.2775
▁oranges	-11.2776
▁rag	-11.2778
▁oil	-11.2783
▁flour	-11.2787
niversity	-11.2798
▁complex	-11.2799
wish	-11.2799
▁mouse	-11.2799
▁major	-11.2799
▁maybe	-11.2799
▁piggyback	-11.2799
▁Beautiful	-11.2799
▁sunbathing	-11.28
▁preparation	-11.28
▁slicing	-11.28
▁skydiving	-11.2802
▁prayer	-11.2805
▁pickup	-11.2805
▁gliding	-11.2806
▁parallel	-11.2808
▁nicely	-11.2812
▁barren	-11.2812
▁filmed	-11.2813
▁hoist	-11.2814
▁install	-11.2816
▁Elmo	-11.2817
▁pressure	-11.2817
▁Swimmer	-11.2819
▁ambulance	-11.282
▁parasailing	-11.2827
▁utilit	-11.2828
▁comfort	-11.2834
▁review	-11.2839
▁Cyclists	-11.2841
▁leashes	-11.2857
▁spins	-11.2863
▁monks	-11.2864
▁watermelons	-11.2873
▁microscopes	-11.288
▁picker	-11.2888
▁hear	-11.2913
wheeled	-11.2913
▁handles	-11.2913
ma	-11.2935
▁select	-11.2946
▁solder	-11.2952
▁She	-11.2975
casting	-11.3005
▁bows	-11.303
▁la	-11.3031
▁thought	-11.3044
▁vault	-11.3062
▁medic	-11.3068
ably	-11.3095
▁leader	-11.3099
cart	-11.3101
▁circuit	-11.3102
▁tracksuit	-11.3103
▁automobile	-11.3105
▁sold	-11.3105
▁possession	-11.3107
▁character	-11.3109
▁bagpipe	-11.3111
ohn	-11.3112
▁cooler	-11.3115
▁banners	-11.312
▁grills	-11.3139
▁offering	-11.3152
▁award	-11.3161
▁vertical	-11.3167
▁Father	-11.3169
▁Brunette	-11.317
▁elevated	-11.317
▁political	-11.317
▁scattered	-11.317
▁seafood	-11.317
▁handheld	-11.3171
▁overpass	-11.3173
▁barbecuing	-11.3174
▁coveralls	-11.3174
▁Dancers	-11.3176
▁similarly	-11.3176
▁cobble	-11.3179
▁such	-11.318
▁handlebars	-11.3183
▁ancient	-11.3186
▁muzzled	-11.3187
▁wa	-11.3188
▁patiently	-11.319
▁league	-11.319
▁barking	-11.3204
▁fountains	-11.3219
ary	-11.3224
▁descending	-11.3229
▁War	-11.3236
▁wrapping	-11.3244
▁acrobatic	-11.325
▁bi	-11.3252
▁dolls	-11.3329
▁You	-11.3332
▁weight	-11.3348
▁clap	-11.34
▁helmeted	-11.3415
▁brid	-11.3416
otted	-11.3417
▁wakeboard	-11.3424
▁mats	-11.3436
▁trimming	-11.3477
▁vary	-11.3478
▁posed	-11.3487
▁xylophone	-11.3487
▁partner	-11.3489
▁mime	-11.3493
▁veil	-11.3496
▁Dirt	-11.3501
▁arrang	-11.3503
▁rose	-11.3505
▁kayaker	-11.3511
▁swan	-11.3515
▁ja	-11.3521
▁parent	-11.3529
▁sight	-11.3545
▁dribbl	-11.3545
▁walked	-11.3551
▁favor	-11.3553
▁javelin	-11.3553
▁floppy	-11.3553
▁priest	-11.3553
▁salad	-11.3553
▁campus	-11.3553
▁crazy	-11.3553
▁Picture	-11.3554
▁distant	-11.3554
▁campsite	-11.3554
▁dishwasher	-11.3554
▁sweatpants	-11.3554
▁families	-11.3555
▁abandoned	-11.3556
▁struggl	-11.3557
▁relay	-11.3557
▁headgear	-11.3558
▁crib	-11.3558
▁survey	-11.3559
▁measuring	-11.3559
▁fuzz	-11.356
▁earth	-11.3562
▁thinking	-11.3569
▁str	-11.3578
▁checkout	-11.3579
▁prob	-11.358
▁chased	-11.3588
▁ra	-11.3591
▁citizens	-11.3593
▁High	-11.3597
▁harnesses	-11.3601
▁release	-11.3602
▁cartoon	-11.3603
▁self	-11.3614
yo	-11.3615
▁my	-11.3627
▁packages	-11.3639
▁angry	-11.3647
▁celebrates	-11.3647
hose	-11.3658
▁parts	-11.3658
▁gifts	-11.3686
▁fl	-11.3687
▁forms	-11.3694
▁j	-11.3705
▁dots	-11.3711
▁film	-11.373
▁perch	-11.3733
▁buses	-11.3734
▁note	-11.374
▁remov	-11.3741
▁Rock	-11.3741
▁Race	-11.3749
▁sex	-11.3752
ear	-11.3786
▁parka	-11.3796
▁spend	-11.3803
▁pre	-11.3808
▁sheer	-11.3813
▁walker	-11.3836
ard	-11.384
▁da	-11.3845
▁pedal	-11.3848
▁drift	-11.386
ee	-11.386
▁bo	-11.3863
▁schoolgirl	-11.3863
▁pie	-11.3873
▁sweatshirts	-11.3874
▁blower	-11.3876
▁Ice	-11.3878
▁dropping	-11.3879
▁turtle	-11.3885
▁attendant	-11.3887
▁innertube	-11.3888
▁coconut	-11.3891
▁pigeon	-11.3892
▁scout	-11.3893
▁Worker	-11.3893
▁bodysuit	-11.3894
▁purchas	-11.3897
▁strings	-11.3901
▁Park	-11.3913
▁lo	-11.3917
▁ladders	-11.3927
▁don	-11.3936
▁fields	-11.3937
▁mailbox	-11.3947
▁everywhere	-11.3953
▁enclosure	-11.3953
▁dilapidated	-11.3953
▁unseen	-11.3953
▁technician	-11.3953
▁apparently	-11.3953
▁itself	-11.3954
▁backstroke	-11.3955
▁tulips	-11.3955
▁fleece	-11.3955
▁railway	-11.3956
▁basement	-11.3956
▁collie	-11.396
▁excitedly	-11.396
▁halter	-11.3963
▁lip	-11.3964
▁happening	-11.3965
▁padded	-11.3966
▁somebody	-11.397
▁markings	-11.397
▁drying	-11.397
▁loose	-11.3971
▁floors	-11.3974
▁goof	-11.3974
▁guests	-11.3976
▁hung	-11.3979
▁real	-11.3985
▁crash	-11.399
▁cultural	-11.3993
earing	-11.4003
▁stockings	-11.4011
▁pedals	-11.4014
▁cookies	-11.4021
▁concentrat	-11.4025
▁organiz	-11.4027
▁mail	-11.4035
ist	-11.4036
▁helped	-11.4054
▁attach	-11.4054
▁numer	-11.4063
▁bump	-11.4066
▁dyed	-11.408
▁ceremoni	-11.4093
▁closes	-11.4094
scales	-11.4152
▁pitching	-11.416
▁hitt	-11.4161
▁violins	-11.4162
▁screens	-11.4183
▁quilt	-11.4208
▁cell	-11.4255
▁moon	-11.4255
▁shave	-11.4257
▁assist	-11.4258
no	-11.4267
▁whiteboard	-11.4289
▁Orange	-11.4294
▁Food	-11.4303
▁trainer	-11.4303
▁ornament	-11.4306
▁seagull	-11.4309
▁ar	-11.431
▁steer	-11.431
▁overcoat	-11.4313
▁mule	-11.4314
▁learn	-11.4326
▁stocking	-11.4333
▁hooping	-11.4335
▁height	-11.4338
▁address	-11.4342
▁remove	-11.4348
▁stre	-11.4354
▁puzzle	-11.4358
▁Marathon	-11.4369
▁confetti	-11.4369
▁district	-11.4369
▁earmuffs	-11.4369
▁Yellow	-11.4369
▁remote	-11.4369
▁teddy	-11.4369
▁french	-11.4369
▁cashier	-11.4369
▁equestrian	-11.4369
▁Ladies	-11.4369
▁Korea	-11.4369
▁storage	-11.4369
▁unison	-11.437
▁heavyset	-11.437
▁talent	-11.4371
▁paintbrush	-11.4373
▁wheat	-11.4374
▁Day	-11.4377
▁Market	-11.438
▁windbreaker	-11.4381
▁Legos	-11.4381
▁floaties	-11.4383
▁storm	-11.439
▁English	-11.4391
▁Skier	-11.4397
▁Performer	-11.4398
▁upright	-11.4401
▁reclin	-11.4404
▁sausages	-11.4405
▁rabbits	-11.4415
▁Long	-11.4417
▁singers	-11.4418
▁shack	-11.4423
▁films	-11.4436
▁fully	-11.4455
▁pockets	-11.4456
▁ax	-11.4464
ened	-11.447
▁crest	-11.4477
c	-11.4477
▁curious	-11.4486
▁tuxedos	-11.4486
▁handed	-11.4488
▁signal	-11.4491
capped	-11.4497
▁barn	-11.4498
made	-11.45
▁ca	-11.4534
▁armor	-11.4534
▁skateboarders	-11.4536
▁phones	-11.4542
▁Easter	-11.4549
▁cheers	-11.4564
▁controls	-11.458
ve	-11.4591
▁seve	-11.461
ray	-11.4616
turned	-11.462
▁cling	-11.4621
us	-11.4623
▁spin	-11.4638
ating	-11.4645
blue	-11.465
ry	-11.4679
▁exit	-11.468
ental	-11.4695
striped	-11.4721
▁iPod	-11.4728
▁cannon	-11.4729
▁destination	-11.4733
▁snowboards	-11.4736
scent	-11.4737
▁rollerblader	-11.4737
▁seesaw	-11.4738
piece	-11.4739
▁cabinet	-11.474
▁dessert	-11.4741
▁railings	-11.4742
▁defender	-11.4745
▁mitt	-11.4751
▁tap	-11.4758
▁wonder	-11.4765
▁seeming	-11.4772
▁washer	-11.4778
▁sketch	-11.4798
▁cause	-11.4802
▁corridor	-11.4804
▁hispanic	-11.4804
▁liquor	-11.4804
▁princess	-11.4804
▁French	-11.4804
▁exotic	-11.4804
▁cathedral	-11.4804
▁random	-11.4804
▁Golden	-11.4804
▁simultaneously	-11.4804
▁husband	-11.4804
▁strawberry	-11.4804
▁operation	-11.4804
▁snowstorm	-11.4805
▁architecture	-11.4805
▁metallic	-11.4805
▁woodland	-11.4806
▁pub	-11.4807
▁winning	-11.481
▁ritual	-11.4811
▁solo	-11.4812
▁Cafe	-11.4815
▁Teenagers	-11.482
▁cats	-11.482
▁curling	-11.482
▁roping	-11.4822
▁seeds	-11.4822
▁weeds	-11.4823
▁Texas	-11.4828
serves	-11.4836
▁participants	-11.4838
▁hauling	-11.4839
▁devices	-11.4841
▁soar	-11.4843
▁baking	-11.4844
▁pans	-11.4848
▁grins	-11.4848
▁drain	-11.4849
▁taste	-11.4849
▁wakeboarding	-11.4858
▁formally	-11.4861
▁squa	-11.4865
M	-11.4871
▁found	-11.4871
ty	-11.4877
with	-11.4889
▁weights	-11.4892
▁cooked	-11.4895
▁angle	-11.4896
▁best	-11.4901
▁mount	-11.491
▁muzzles	-11.4911
▁emerge	-11.4914
wheeler	-11.4918
▁eager	-11.4931
▁goats	-11.4935
▁mo	-11.4937
ure	-11.4947
▁carried	-11.4979
drawn	-11.4991
▁took	-11.4999
▁led	-11.4999
▁pain	-11.5032
▁barrels	-11.5035
op	-11.5035
what	-11.5036
D	-11.5037
▁weave	-11.506
▁await	-11.5063
▁cob	-11.5065
▁rounds	-11.507
▁fork	-11.5081
ul	-11.5088
▁dis	-11.5113
▁hover	-11.5138
▁chains	-11.5141
▁Snow	-11.5149
▁thre	-11.5161
▁flash	-11.5174
▁resident	-11.5174
▁tell	-11.5186
▁cubicle	-11.5188
▁unit	-11.5189
▁message	-11.5194
▁boot	-11.521
ro	-11.5214
▁downward	-11.5214
▁slot	-11.5216
▁suite	-11.5233
▁fi	-11.5234
▁Team	-11.5241
lots	-11.5247
▁jar	-11.5248
▁tomato	-11.5253
ssenger	-11.5258
▁Monopoly	-11.5259
▁cardigan	-11.5259
▁lavender	-11.5259
▁spatula	-11.5259
▁memorial	-11.5259
▁reveal	-11.5259
▁sunshine	-11.5259
▁professor	-11.5259
▁Arabic	-11.5259
▁marina	-11.5259
▁headscarves	-11.5259
▁everyone	-11.5259
▁rubble	-11.526
▁submerged	-11.526
▁graphic	-11.526
▁combat	-11.5261
▁guid	-11.5262
ded	-11.5262
▁Amish	-11.5262
▁Rollerblades	-11.5264
▁obscured	-11.5265
▁collide	-11.5266
▁potatoes	-11.5267
▁spandex	-11.527
▁SpongeBob	-11.5271
▁silk	-11.5271
▁rake	-11.5272
▁cartwheel	-11.5273
▁dangerous	-11.5273
▁businessmen	-11.5279
▁hides	-11.5282
▁bee	-11.5295
▁kinds	-11.5296
▁lost	-11.5298
▁Cars	-11.5298
▁NY	-11.5305
▁constructing	-11.5305
▁features	-11.5306
▁zoo	-11.5308
▁assisting	-11.5312
▁gig	-11.5312
▁towed	-11.5316
▁exchange	-11.5325
K	-11.5326
▁culture	-11.5335
▁Onlooker	-11.5337
▁engag	-11.5348
▁seating	-11.5363
▁given	-11.5368
▁tongs	-11.5374
▁buck	-11.5379
▁sp	-11.5387
erry	-11.5402
▁concentrate	-11.5404
▁Lo	-11.5409
▁sailboats	-11.5412
ends	-11.5425
▁shed	-11.5429
road	-11.5436
paved	-11.5449
▁kites	-11.5469
▁ta	-11.5481
▁bug	-11.549
▁exercises	-11.5492
▁chickens	-11.5499
▁respond	-11.5502
▁Do	-11.5502
▁elephants	-11.5508
▁oncoming	-11.5552
▁hopping	-11.556
▁ref	-11.5568
▁patrol	-11.5581
▁lock	-11.5589
▁bell	-11.5592
▁port	-11.5605
ness	-11.5619
▁surroundings	-11.5624
▁legged	-11.5628
▁tip	-11.5659
▁wheelchairs	-11.5669
▁wrist	-11.567
▁newlywed	-11.5671
▁diaper	-11.5671
▁bowtie	-11.5671
▁jogger	-11.5673
▁competitor	-11.5674
▁smock	-11.5675
▁snap	-11.5677
▁backward	-11.5677
▁kneel	-11.5684
▁cabin	-11.5686
▁snowmobile	-11.569
are	-11.5712
▁sari	-11.5725
▁buttons	-11.5727
▁apparatus	-11.5735
▁crystal	-11.5735
▁Disney	-11.5735
▁ensemble	-11.5735
▁janitor	-11.5735
▁agility	-11.5735
▁bronze	-11.5735
▁Mouse	-11.5735
▁sash	-11.5735
▁elementary	-11.5735
▁resort	-11.5735
▁exhibition	-11.5735
▁crutches	-11.5735
▁rooster	-11.5736
▁Speedo	-11.5736
▁retail	-11.5736
▁vast	-11.5738
▁merchant	-11.5738
▁answer	-11.5738
▁overcast	-11.5739
▁wineglasses	-11.5741
▁mingle	-11.5741
▁clos	-11.5741
▁delivery	-11.5743
▁steal	-11.5744
▁Wall	-11.5745
▁tanned	-11.5745
▁gum	-11.5746
▁Motorcycle	-11.5747
▁rising	-11.5747
▁escape	-11.5748
▁Singer	-11.5749
▁pastries	-11.5751
▁except	-11.576
▁write	-11.5765
▁inline	-11.5767
▁lettering	-11.5771
▁noodles	-11.5773
▁stained	-11.5777
▁ditch	-11.5783
▁symbols	-11.5788
▁Gray	-11.5793
▁competitors	-11.5796
▁island	-11.5797
▁Every	-11.58
▁exits	-11.5804
▁positioned	-11.5807
▁Gentlem	-11.581
ose	-11.5823
▁sleds	-11.5825
ur	-11.5828
▁tickets	-11.5849
ugging	-11.5851
▁sculptures	-11.5856
▁comb	-11.5856
typing	-11.5861
▁stride	-11.5865
▁cord	-11.5868
▁limb	-11.589
▁scope	-11.5905
hand	-11.5909
▁sum	-11.5927
iting	-11.5928
▁frolic	-11.595
her	-11.595
▁girlfriend	-11.5957
▁rugs	-11.5967
▁artistic	-11.5976
▁donkeys	-11.5978
he	-11.5979
▁docked	-11.5992
▁Work	-11.5993
high	-11.5995
body	-11.5997
earded	-11.6
▁wo	-11.6035
▁Bicycle	-11.6043
▁gr	-11.6058
litary	-11.6072
▁entertainer	-11.6081
▁cycle	-11.6091
▁stain	-11.6126
▁tubes	-11.613
▁magnif	-11.6139
F	-11.614
▁guitarists	-11.6144
ds	-11.6144
om	-11.615
ch	-11.6165
▁concession	-11.6167
▁attraction	-11.6168
▁kitten	-11.6169
▁caricature	-11.617
▁onlooker	-11.6171
▁teache	-11.6172
▁pancake	-11.6173
▁slab	-11.6178
▁ankle	-11.619
▁recline	-11.6201
▁Water	-11.621
ung	-11.6222
▁Europe	-11.6228
▁flu	-11.623
▁horizontal	-11.6233
▁peaceful	-11.6234
▁Boston	-11.6235
▁Professional	-11.6235
▁apparel	-11.6235
▁cemetery	-11.6235
▁scantily	-11.6235
▁cinder	-11.6235
▁Pizza	-11.6235
▁turtleneck	-11.6235
▁beyond	-11.6235
▁pitbull	-11.6235
▁defensive	-11.6235
▁confused	-11.6235
▁Great	-11.6235
▁dominoes	-11.6236
▁contemplating	-11.6236
▁pinned	-11.6236
▁dangling	-11.6237
▁swimwear	-11.6237
▁knitted	-11.6237
▁lumber	-11.6238
▁skipping	-11.6239
▁article	-11.6239
▁juggler	-11.6241
▁disk	-11.6242
▁parachuting	-11.6243
▁pride	-11.6244
▁skimp	-11.6245
▁tightly	-11.6246
▁drunk	-11.6247
▁starring	-11.6251
▁hooked	-11.6252
▁captain	-11.6252
▁Horse	-11.6252
▁Star	-11.6254
▁tagged	-11.6255
▁interested	-11.6256
▁streamers	-11.6258
▁Obama	-11.626
▁wetsuits	-11.626
▁assembled	-11.6267
▁brownish	-11.6269
▁rises	-11.6272
▁gloved	-11.6279
▁Bicyclists	-11.6284
▁judges	-11.6292
▁browse	-11.6322
▁Light	-11.6325
▁fighters	-11.6326
▁baseman	-11.6328
▁slip	-11.6333
▁straps	-11.6334
▁moss	-11.6344
▁chaps	-11.6354
ped	-11.6366
▁siting	-11.6368
▁list	-11.6376
▁grip	-11.6398
The	-11.6401
▁tricycles	-11.6408
all	-11.6415
▁skill	-11.6427
▁ador	-11.6447
W	-11.6457
▁holes	-11.6473
stride	-11.6482
▁crab	-11.6485
ground	-11.6494
▁electronics	-11.6504
▁sling	-11.6513
ha	-11.6515
▁awaits	-11.6521
▁trays	-11.6524
ity	-11.6531
▁express	-11.6534
teen	-11.654
▁decorate	-11.6546
▁bale	-11.6561
▁need	-11.6618
▁views	-11.6624
te	-11.6629
▁emerg	-11.6632
▁towels	-11.6632
back	-11.6642
cut	-11.6652
ement	-11.6658
▁saxophones	-11.6659
▁rafts	-11.6676
▁tightrope	-11.6684
▁assembl	-11.6694
▁con	-11.6694
▁appearing	-11.6694
▁cushion	-11.6695
▁mallet	-11.6697
▁selection	-11.6698
▁vase	-11.6698
▁slopes	-11.6698
▁dandelion	-11.6699
▁weapon	-11.6699
▁Cyclist	-11.67
some	-11.6702
▁State	-11.6703
▁gymnastic	-11.6705
▁Apple	-11.6717
▁folder	-11.6717
▁protester	-11.6717
▁haul	-11.6732
▁aim	-11.6741
▁plush	-11.6749
tted	-11.6753
▁mattress	-11.6755
▁should	-11.6757
hif	-11.6758
▁intricate	-11.6759
▁Brazil	-11.6761
▁Greyhound	-11.6761
▁Halloween	-11.6761
▁Oklahoma	-11.6761
▁artificial	-11.6761
▁cockpit	-11.6761
▁meditating	-11.6761
▁conveyor	-11.6761
▁stairwell	-11.6761
▁France	-11.6761
▁seaweed	-11.6761
▁knives	-11.6761
▁Subway	-11.6761
▁salmon	-11.6761
▁fishermen	-11.6761
▁powerpoint	-11.6761
▁chubby	-11.6762
▁popcorn	-11.6762
▁fluore	-11.6762
▁Local	-11.6762
▁index	-11.6762
▁backhoe	-11.6762
▁important	-11.6762
▁chip	-11.6762
▁currently	-11.6762
▁anvil	-11.6762
▁rustic	-11.6762
▁Chef	-11.6762
▁battl	-11.6763
▁cutoff	-11.6764
▁patriotic	-11.6764
▁Bride	-11.6765
▁earbuds	-11.6766
▁lantern	-11.6768
▁mesh	-11.6769
▁better	-11.677
▁bagg	-11.6772
▁Bike	-11.6775
▁donations	-11.6776
▁Well	-11.6776
▁Big	-11.6777
▁soaked	-11.6778
head	-11.6779
▁partly	-11.6781
▁welds	-11.6788
esus	-11.6789
ft	-11.6792
▁saris	-11.6797
▁pairs	-11.6801
▁wand	-11.6802
▁Member	-11.6804
▁delivering	-11.6805
day	-11.6805
▁Bikers	-11.681
▁samples	-11.6814
▁struggles	-11.6825
▁beans	-11.6839
▁punk	-11.684
▁non	-11.6847
▁cables	-11.6848
▁hurry	-11.6855
▁kayakers	-11.6856
▁amused	-11.6857
▁wigs	-11.6858
pard	-11.6862
▁tutus	-11.6882
▁goers	-11.6883
ant	-11.6885
▁cluster	-11.6891
▁stopp	-11.6903
five	-11.6908
▁shapes	-11.6909
▁glider	-11.6912
▁synchronize	-11.6931
▁climbed	-11.694
▁brand	-11.6946
painted	-11.6965
▁n	-11.6975
▁sorts	-11.6979
▁parachutes	-11.6979
▁streak	-11.699
▁kilts	-11.6992
▁su	-11.6992
▁gowns	-11.6996
ging	-11.7027
deep	-11.7034
▁ridge	-11.7034
▁dunes	-11.7039
Cola	-11.7042
▁suitcases	-11.7045
▁let	-11.7049
iding	-11.705
▁kiddi	-11.7058
▁sweat	-11.7059
▁bowing	-11.7063
off	-11.7081
dot	-11.7082
eyed	-11.7098
▁brooms	-11.7128
▁raining	-11.7131
▁dome	-11.7136
▁frames	-11.714
son	-11.7149
▁decorat	-11.7151
▁bad	-11.7159
owing	-11.7167
ucking	-11.7208
▁jug	-11.7214
▁fir	-11.7236
▁starts	-11.7238
▁dentist	-11.7246
▁releas	-11.7247
▁pulley	-11.7249
▁zombie	-11.7252
▁sponge	-11.7254
▁symbol	-11.7255
▁violinist	-11.7256
▁rabbit	-11.7256
▁harvest	-11.7257
▁judge	-11.7263
▁vacation	-11.7264
▁health	-11.7267
▁deliver	-11.7269
▁Shop	-11.7288
▁language	-11.7289
▁pail	-11.729
▁meter	-11.7291
▁weigh	-11.7292
▁struggle	-11.7298
▁Fan	-11.7311
▁wineglass	-11.7312
▁squeez	-11.7316
▁Yankee	-11.7317
▁lizard	-11.7317
▁mascara	-11.7317
▁zebra	-11.7317
▁monster	-11.7317
▁College	-11.7317
▁minivan	-11.7317
▁interior	-11.7317
▁kettle	-11.7317
▁vocalist	-11.7317
▁scruffy	-11.7317
▁seashore	-11.7317
▁geese	-11.7317
▁studies	-11.7317
▁Tennis	-11.7317
▁Adult	-11.7318
▁snowbank	-11.7318
▁headfirst	-11.7318
▁slowly	-11.7318
▁junk	-11.7319
▁strong	-11.7319
▁nine	-11.7319
▁rehearsing	-11.732
▁damaged	-11.732
▁platter	-11.7321
▁Ford	-11.7321
▁scary	-11.7322
▁ferry	-11.7323
▁blindfolded	-11.7323
▁ripped	-11.7324
▁skillet	-11.7324
▁Bus	-11.7324
▁scared	-11.7328
▁magic	-11.7328
▁billiards	-11.7329
▁baker	-11.7329
▁contact	-11.733
superman	-11.733
▁Washington	-11.733
▁playhouse	-11.733
▁ginger	-11.7331
▁coverings	-11.7331
▁Multi	-11.7333
▁di	-11.7334
▁greet	-11.7334
▁butter	-11.7335
iling	-11.7338
▁wakeboarder	-11.7339
▁greeting	-11.734
▁tote	-11.7341
▁dim	-11.7342
▁know	-11.7344
▁occupied	-11.7345
free	-11.7349
ture	-11.7349
▁joke	-11.7357
▁grin	-11.7361
▁stock	-11.7366
▁fourth	-11.7372
long	-11.7375
▁hamburgers	-11.7375
▁keys	-11.7378
▁manual	-11.7378
hat	-11.7384
▁snaps	-11.7387
een	-11.7389
▁washed	-11.7391
▁Hell	-11.7391
locked	-11.7393
▁dye	-11.7412
▁arrange	-11.7412
▁kimonos	-11.7414
ssive	-11.7417
▁thread	-11.7418
attered	-11.7421
▁paw	-11.7426
▁winds	-11.7429
rubs	-11.7435
▁tether	-11.7438
▁bats	-11.7439
▁noses	-11.7441
▁wipe	-11.7441
▁garments	-11.7446
▁limbs	-11.7447
▁McDonalds	-11.745
▁grown	-11.7455
▁styled	-11.7456
▁chart	-11.7483
▁capri	-11.7495
▁leotards	-11.7514
▁owners	-11.7515
cuba	-11.7517
z	-11.7523
▁mops	-11.7527
nning	-11.7532
▁huts	-11.7543
do	-11.7561
▁La	-11.7564
▁records	-11.757
▁meats	-11.7578
▁barriers	-11.7596
▁buys	-11.7599
type	-11.76
ets	-11.7604
▁explore	-11.7622
▁Deer	-11.7623
▁flo	-11.7628
▁lamps	-11.7638
foam	-11.7655
▁fa	-11.767
▁cloths	-11.7678
▁aboard	-11.7687
iled	-11.7695
pping	-11.7696
▁state	-11.7706
▁surfboards	-11.7719
▁darker	-11.7723
▁shi	-11.7732
▁bandage	-11.7733
▁trek	-11.7737
▁bears	-11.7739
▁prop	-11.7739
rd	-11.774
▁scrap	-11.7741
▁eyed	-11.7749
▁lanes	-11.775
▁pant	-11.7768
▁question	-11.7772
ke	-11.7783
▁advertise	-11.7792
▁stools	-11.7811
▁pr	-11.7816
▁skeleton	-11.7827
▁pavilion	-11.7827
▁professionals	-11.7829
▁bookbag	-11.7831
▁undershirt	-11.7832
▁procedure	-11.7837
▁beaker	-11.7839
▁Outdoor	-11.784
▁binder	-11.784
▁tambourine	-11.7841
▁blossom	-11.7843
▁hamburger	-11.7843
▁surgeon	-11.7843
▁citizen	-11.7844
▁welder	-11.7851
▁para	-11.7855
▁earring	-11.7859
▁fr	-11.7861
▁season	-11.7876
▁seal	-11.7882
potted	-11.7885
▁leo	-11.7892
▁kit	-11.7892
▁ran	-11.79
▁elegant	-11.7902
▁unidentifi	-11.7904
▁Photo	-11.7905
▁convertible	-11.7905
▁hopscotch	-11.7905
▁stethoscope	-11.7905
▁carpenter	-11.7905
▁pregnant	-11.7905
▁sleigh	-11.7905
▁alligator	-11.7905
▁blowtorch	-11.7905
▁Eleven	-11.7905
▁clipboard	-11.7905
▁sauna	-11.7905
▁grandmother	-11.7905
▁Buddhist	-11.7905
▁newsstand	-11.7905
our	-11.7906
▁entertainment	-11.7906
▁arrive	-11.7906
▁obstacles	-11.7907
▁stoplight	-11.7907
▁nothing	-11.7907
▁swamp	-11.7907
ile	-11.7908
▁shouting	-11.7909
▁playpen	-11.791
▁frowning	-11.791
▁breakdancer	-11.7911
▁determined	-11.7912
▁trousers	-11.7915
▁fighter	-11.7917
▁pastry	-11.7918
▁Starbucks	-11.7918
▁Israel	-11.7919
▁Italian	-11.7919
▁maintain	-11.792
▁soaking	-11.7921
▁pretzels	-11.7922
▁drumsticks	-11.7922
▁punches	-11.7922
▁shined	-11.7924
▁woodworking	-11.7926
▁Sports	-11.7927
▁Hikers	-11.793
▁Walk	-11.7931
▁might	-11.7931
▁chunk	-11.7931
▁gay	-11.7932
▁pastel	-11.7932
▁Happy	-11.7934
▁defense	-11.7935
▁Seattle	-11.7935
▁greenhouse	-11.7941
▁patrons	-11.7943
▁olympics	-11.7945
▁Photographer	-11.7949
tation	-11.795
▁captur	-11.795
▁At	-11.7953
▁Car	-11.7954
▁Teen	-11.7957
▁wallet	-11.7959
▁footballer	-11.7969
▁backpacker	-11.7973
▁oars	-11.7974
▁rakes	-11.7982
▁Tw	-11.7993
▁loud	-11.7993
▁fairy	-11.8002
▁organize	-11.8006
▁eagle	-11.8009
▁count	-11.8014
med	-11.8027
▁bracelets	-11.8027
▁guides	-11.8028
▁shields	-11.8031
▁vaulting	-11.8032
▁grain	-11.8033
raw	-11.8046
▁poodles	-11.8046
▁persons	-11.8047
aving	-11.8051
▁sails	-11.8059
▁circles	-11.806
rry	-11.8064
▁projected	-11.807
▁bins	-11.8091
▁gain	-11.8091
▁curv	-11.8091
▁classical	-11.8092
scending	-11.8102
▁offer	-11.8118
▁Co	-11.8121
▁putt	-11.8124
▁tram	-11.8157
▁prevent	-11.8171
▁arched	-11.8207
wear	-11.8212
▁burn	-11.8226
▁merr	-11.8235
▁orders	-11.8238
▁Ten	-11.8242
▁Mr	-11.8256
▁-	-11.8256
▁strips	-11.8275
▁force	-11.8295
ever	-11.8296
rt	-11.8314
tuck	-11.8337
▁broad	-11.834
▁spar	-11.835
▁chil	-11.8356
ims	-11.8359
mp	-11.8369
▁shots	-11.8373
▁butt	-11.8373
ked	-11.8378
ssed	-11.8401
▁parasail	-11.8401
▁host	-11.8409
▁letter	-11.842
▁canoeing	-11.8446
▁glide	-11.8446
▁Thr	-11.8452
▁trombone	-11.8458
▁gondola	-11.846
▁fiddle	-11.8461
▁breast	-11.8463
nds	-11.8463
▁Bicyclist	-11.8468
▁decoration	-11.8471
▁hairnet	-11.8472
▁tunic	-11.8478
▁sample	-11.848
ter	-11.848
▁study	-11.8492
▁rappel	-11.8492
▁puff	-11.8499
▁seeing	-11.8512
▁Latin	-11.8523
▁our	-11.8523
▁oar	-11.8524
▁Teenage	-11.8524
▁loaf	-11.8529
▁Nintendo	-11.853
▁adjacent	-11.853
▁bonfire	-11.853
▁exterior	-11.853
▁gorilla	-11.853
▁satchel	-11.853
▁Chicago	-11.853
▁Concert	-11.853
▁problem	-11.853
▁shrubbery	-11.853
▁squinting	-11.853
▁vessel	-11.853
▁Segway	-11.853
▁region	-11.853
▁banquet	-11.853
▁entire	-11.853
▁petals	-11.853
▁flashlight	-11.853
▁Patrick	-11.853
▁metropoli	-11.853
▁grinning	-11.8531
▁footbridge	-11.8531
▁windowsill	-11.8531
▁shoeshine	-11.8531
▁limo	-11.8531
▁saluting	-11.8532
▁warning	-11.8532
▁stationary	-11.8533
▁possible	-11.8533
▁poker	-11.8534
iew	-11.8535
▁Spiderman	-11.8535
▁procession	-11.8537
▁scoring	-11.8539
▁workbench	-11.854
▁congregating	-11.8541
▁overhang	-11.8542
▁shrubs	-11.8542
▁maker	-11.8543
▁California	-11.8545
▁Wii	-11.8545
▁volunteer	-11.8545
▁hidden	-11.8545
▁function	-11.8545
▁perfect	-11.8549
▁trie	-11.855
endors	-11.855
um	-11.855
▁physical	-11.8551
▁instructions	-11.8553
apan	-11.8559
▁torches	-11.856
▁constructed	-11.856
▁shingles	-11.8561
▁chops	-11.8563
▁travelers	-11.8564
yro	-11.8565
▁sews	-11.8565
▁breed	-11.8568
▁glowing	-11.8572
▁burgers	-11.8572
▁year	-11.8574
▁supported	-11.8575
▁cowgirl	-11.8583
▁skyscrapers	-11.8584
▁drawings	-11.8585
▁Shoppe	-11.8585
▁secure	-11.8587
▁landed	-11.8605
▁sipp	-11.8624
▁coconuts	-11.8628
▁splits	-11.8629
▁ch	-11.863
▁sisters	-11.864
▁San	-11.8648
▁workmen	-11.8654
▁structures	-11.8662
▁add	-11.8678
▁hawk	-11.8699
▁gated	-11.8701
▁bounces	-11.8702
▁trap	-11.8703
▁Music	-11.8704
▁peaks	-11.8706
▁brothers	-11.8707
▁matches	-11.8712
oven	-11.8774
▁wal	-11.8822
▁dart	-11.8828
ate	-11.885
▁feel	-11.8852
▁Be	-11.8862
▁banks	-11.8871
circle	-11.8878
▁wok	-11.8879
▁taxis	-11.8882
▁Rug	-11.8897
▁mi	-11.89
▁bead	-11.8928
length	-11.8933
B	-11.8938
ge	-11.8976
▁dip	-11.8979
▁en	-11.8985
udio	-11.899
▁ro	-11.9002
▁snorkel	-11.9007
▁rocker	-11.9008
▁li	-11.9025
▁fine	-11.9033
ches	-11.9046
▁provid	-11.9058
rel	-11.906
▁shit	-11.9062
handed	-11.9063
▁squir	-11.9064
boy	-11.9069
▁hammers	-11.9069
▁toes	-11.907
▁fed	-11.9107
▁portion	-11.9119
▁pump	-11.9122
▁handkerchief	-11.9126
▁lollipop	-11.9131
▁pajama	-11.9134
▁Tourist	-11.9135
▁crayon	-11.914
▁Biker	-11.9142
▁sculpt	-11.9143
▁bust	-11.9145
▁shirted	-11.915
▁explain	-11.9152
▁pinstripe	-11.9156
▁ends	-11.9158
▁lid	-11.9159
skier	-11.9168
▁si	-11.9175
car	-11.9176
▁tun	-11.9179
▁prize	-11.918
el	-11.9181
▁proud	-11.9194
▁sweet	-11.9195
KitchenAid	-11.9197
▁cereal	-11.9197
▁diamond	-11.9197
▁somersault	-11.9197
▁wizard	-11.9197
▁typewriter	-11.9197
▁sprawl	-11.9197
▁shrine	-11.9197
▁gazebo	-11.9197
▁marriage	-11.9197
▁profile	-11.9197
▁machete	-11.9197
▁slender	-11.9197
▁queen	-11.9197
▁university	-11.9197
▁passerby	-11.9197
▁dollhouse	-11.9197
▁consult	-11.9197
▁onesie	-11.9197
▁blacksmith	-11.9198
▁attentively	-11.9198
▁spiral	-11.9199
▁proudly	-11.9199
▁suds	-11.9199
▁teeter	-11.9199
▁homework	-11.92
▁windsurfing	-11.92
▁national	-11.9202
▁recreation	-11.9203
▁circus	-11.9204
▁bangs	-11.9204
▁curled	-11.9205
▁growing	-11.9205
▁tilted	-11.9206
▁mittens	-11.9208
ot	-11.9208
enthusiastically	-11.9209
▁assembly	-11.9209
pokes	-11.921
▁bloom	-11.921
▁World	-11.9212
▁Road	-11.9212
▁potter	-11.9212
▁posts	-11.9212
▁begging	-11.9213
▁necktie	-11.9214
▁dorm	-11.9214
▁dressing	-11.9215
▁hippie	-11.9215
▁sweaty	-11.9216
▁page	-11.9216
▁conditions	-11.9216
▁enthusiastic	-11.9218
▁backlit	-11.922
▁marches	-11.9221
▁handful	-11.9225
assengers	-11.9226
▁watercraft	-11.9227
▁master	-11.9232
▁interviewed	-11.9234
▁route	-11.9238
▁states	-11.9238
▁sprints	-11.9239
▁drenche	-11.924
▁yet	-11.9241
▁medals	-11.9242
▁defending	-11.9243
▁Rider	-11.9244
▁coke	-11.9246
▁squares	-11.9247
▁slices	-11.9249
▁fencers	-11.9253
la	-11.9253
▁cupcakes	-11.9255
▁What	-11.9256
▁Over	-11.9258
▁twin	-11.9259
▁trimmed	-11.926
▁East	-11.9263
▁youngsters	-11.9264
ietnam	-11.9267
▁surgeons	-11.927
▁gi	-11.927
bread	-11.9273
▁pedaling	-11.9275
▁bales	-11.9277
tion	-11.9283
ver	-11.9304
ton	-11.9305
▁boa	-11.931
▁fists	-11.9314
sing	-11.9322
▁relaxed	-11.9324
▁tasks	-11.9327
os	-11.9327
▁telescopes	-11.933
ence	-11.9334
▁drap	-11.9335
▁protecting	-11.9336
▁supporting	-11.9346
▁Not	-11.9351
▁crowns	-11.9358
v	-11.9366
▁blade	-11.937
▁trot	-11.9371
▁curtains	-11.9375
▁purchases	-11.9376
elling	-11.9378
▁suck	-11.938
▁pirates	-11.9388
▁drags	-11.9394
lly	-11.9402
▁ne	-11.9406
▁hop	-11.9406
E	-11.9411
▁heat	-11.9412
▁blown	-11.9423
▁traverse	-11.9434
heeled	-11.944
▁attired	-11.9449
▁expressions	-11.9449
apped	-11.948
▁fashionabl	-11.9494
wearing	-11.9495
▁whe	-11.9495
▁walkers	-11.9496
▁wit	-11.95
▁tide	-11.9501
▁Nav	-11.9503
rumming	-11.9506
▁mean	-11.9527
dding	-11.9532
screen	-11.9545
▁skip	-11.9557
▁chested	-11.9569
pipe	-11.9585
▁hearts	-11.9587
▁pl	-11.9594
ut	-11.9594
oking	-11.9615
swing	-11.9617
ountain	-11.9624
ay	-11.9644
ven	-11.9644
cross	-11.9653
ley	-11.9663
▁performed	-11.9665
▁naps	-11.9675
▁De	-11.9676
▁cakes	-11.9677
▁Gymnast	-11.9681
▁fle	-11.9696
▁thing	-11.9705
its	-11.9725
▁videotap	-11.9726
escent	-11.9732
ck	-11.9747
▁laps	-11.9758
▁brave	-11.9758
BA	-11.9762
▁defend	-11.9773
forming	-11.9778
ance	-11.9791
▁gates	-11.9791
we	-11.9793
▁labor	-11.9794
▁partying	-11.9805
▁referees	-11.9814
▁Me	-11.9817
▁hol	-11.9827
mic	-11.983
▁muscle	-11.9833
▁tribe	-11.9833
▁locomotive	-11.984
▁jackhammer	-11.984
▁windsurfer	-11.984
O	-11.9844
▁cylinder	-11.9845
▁technique	-11.9846
▁bun	-11.9847
▁wristband	-11.9848
▁skyscraper	-11.9849
▁sausage	-11.9849
▁cupcake	-11.985
lderly	-11.9854
▁camper	-11.986
▁reporter	-11.9861
▁sta	-11.9863
▁bongo	-11.9863
▁cr	-11.9869
room	-11.9872
▁vine	-11.9876
▁slice	-11.9883
topped	-11.9883
▁ex	-11.9884
house	-11.9901
ess	-11.9903
▁lei	-11.9904
▁roast	-11.9904
▁percussion	-11.9907
R	-11.9907
▁ninja	-11.9911
▁poverty	-11.9911
▁balconies	-11.9911
▁bazaar	-11.9911
▁charcoal	-11.9911
▁monopoly	-11.9911
▁vivid	-11.9911
▁gambling	-11.9911
▁parlor	-11.9911
▁ravine	-11.9911
▁clerk	-11.9911
▁forklift	-11.9911
ons	-11.9911
▁tiara	-11.9911
▁trouble	-11.9911
▁diligently	-11.9911
▁outcropping	-11.9911
▁situation	-11.9911
▁glacier	-11.9911
▁assistance	-11.9911
▁growling	-11.9911
▁tussl	-11.9911
▁mustard	-11.9911
▁Renaissance	-11.9911
▁joust	-11.9911
▁squeeze	-11.9911
▁Doctor	-11.9911
▁quite	-11.9912
▁bathrobe	-11.9912
▁trotting	-11.9912
▁hundred	-11.9912
▁temporary	-11.9912
▁beaut	-11.9912
▁mingling	-11.9912
▁forefront	-11.9912
▁every	-11.9912
Irish	-11.9912
elve	-11.9913
▁sushi	-11.9913
▁tucked	-11.9913
▁eatery	-11.9913
▁sculptor	-11.9913
▁coca	-11.9914
▁aircraft	-11.9914
▁peddling	-11.9914
▁horizontally	-11.9914
▁halfway	-11.9914
▁Youth	-11.9915
▁glances	-11.9915
▁lovers	-11.9916
▁quietly	-11.9916
▁oddly	-11.9918
▁strums	-11.9919
▁Individual	-11.9921
▁bulls	-11.9921
▁lifeguard	-11.9923
▁daylight	-11.9924
▁secur	-11.9925
▁breakdances	-11.9925
▁foil	-11.9925
▁dreads	-11.9926
▁presumably	-11.9927
▁romantic	-11.9927
▁manicure	-11.9928
▁doorstep	-11.9929
▁nuts	-11.9929
▁wreck	-11.9936
▁ga	-11.9938
▁paintball	-11.9938
▁mothers	-11.9939
▁playful	-11.9939
▁instruct	-11.994
▁headdresses	-11.994
▁sandwiches	-11.9941
▁roasting	-11.9945
▁clasp	-11.9948
▁troops	-11.9955
▁gallop	-11.9956
▁coral	-11.9958
▁donuts	-11.996
▁pu	-11.9966
▁darts	-11.9967
▁deal	-11.9968
inted	-11.9971
▁size	-11.9973
ap	-11.9979
▁dispos	-11.9983
▁normal	-11.9985
▁needs	-11.9988
▁actors	-11.9994
▁weapons	-11.9996
▁States	-11.9996
▁Clause	-11.9999
▁cords	-12.0002
▁nud	-12.0009
▁defenders	-12.0016
▁manhole	-12.0026
▁picked	-12.0034
▁taller	-12.0036
▁sl	-12.005
▁rig	-12.0052
▁planks	-12.0056
▁Du	-12.0059
▁east	-12.006
▁cleaned	-12.0067
▁watering	-12.007
▁calling	-12.0077
▁boulders	-12.0077
ey	-12.0109
▁spikes	-12.011
▁lad	-12.0119
▁speakers	-12.0124
▁couches	-12.0125
▁higher	-12.0138
▁spill	-12.0143
▁angels	-12.0147
eagle	-12.0148
ins	-12.0154
▁glanc	-12.0161
aded	-12.0179
MA	-12.0195
powered	-12.0241
▁comic	-12.0261
▁bone	-12.0296
aggy	-12.0303
▁blackboard	-12.0303
▁waterside	-12.0312
mming	-12.0313
▁Con	-12.0324
▁k	-12.0348
▁peruse	-12.035
▁cong	-12.0353
▁Bar	-12.0356
im	-12.0357
▁Ch	-12.0363
▁ramps	-12.0373
american	-12.0389
▁plugg	-12.0389
field	-12.0394
chested	-12.0424
▁blur	-12.0426
▁Dr	-12.0428
▁trade	-12.045
ador	-12.0458
▁sha	-12.047
▁mark	-12.0472
▁spider	-12.0475
▁bu	-12.0477
dy	-12.0526
truck	-12.0537
person	-12.0541
▁puddles	-12.0575
rubbing	-12.0577
▁fro	-12.0581
▁snowboarders	-12.0591
▁crocodile	-12.0602
▁parasol	-12.0609
▁brochure	-12.0614
▁waffle	-12.0616
▁sombrero	-12.0617
sque	-12.0618
▁prints	-12.0619
▁participant	-12.0619
▁fixture	-12.062
▁Artist	-12.0635
▁ollie	-12.064
▁sideline	-12.0651
▁insect	-12.0652
▁hour	-12.0653
▁hairstyle	-12.0654
bout	-12.0657
▁Bank	-12.0662
zz	-12.0665
▁multicolor	-12.0666
▁Spider	-12.0675
▁custom	-12.0676
▁attentive	-12.0678
▁quick	-12.0678
▁rise	-12.0679
▁sauce	-12.0679
▁abstract	-12.068
▁aluminum	-12.068
▁amplifier	-12.068
▁communicating	-12.068
▁fierce	-12.068
▁lobster	-12.068
▁quartet	-12.068
▁sledgehammer	-12.068
▁technology	-12.068
▁tissue	-12.068
▁Rodeo	-12.068
▁plywood	-12.068
▁recipe	-12.068
▁popsicle	-12.068
▁troupe	-12.068
▁ruffle	-12.068
▁chemistry	-12.068
▁occasion	-12.068
▁stylish	-12.068
▁everything	-12.068
▁Christian	-12.068
▁handicapped	-12.068
▁foundation	-12.068
▁potential	-12.068
▁peanut	-12.068
▁baggage	-12.068
▁dustpan	-12.068
▁landmark	-12.068
▁creature	-12.0681
▁gorge	-12.0681
▁napkin	-12.0681
▁enforc	-12.0681
▁BMW	-12.0681
▁Coke	-12.0681
▁shotgun	-12.0682
▁husky	-12.0682
▁confront	-12.0682
▁projection	-12.0683
▁assistant	-12.0685
▁spear	-12.0686
▁spiky	-12.0686
▁Giant	-12.0687
▁velvet	-12.0688
▁sparkly	-12.0688
▁Angeles	-12.0688
▁loving	-12.0689
▁backflip	-12.0689
▁fliers	-12.0693
▁runway	-12.0695
▁expans	-12.0696
▁lunges	-12.0697
▁hunting	-12.0698
▁socialize	-12.0698
▁Train	-12.0698
▁roadwork	-12.0699
▁gently	-12.0701
▁web	-12.0702
▁Scouts	-12.0703
▁thatched	-12.0704
▁lonely	-12.0706
▁professionally	-12.0706
▁expos	-12.0707
▁sprinting	-12.0717
▁western	-12.0718
▁Good	-12.0719
▁aggressive	-12.0722
▁romp	-12.0729
▁ballgame	-12.073
▁navigat	-12.0736
▁sparklers	-12.0738
▁hoses	-12.0739
▁dolly	-12.0739
▁piercings	-12.074
▁badge	-12.0741
▁greenish	-12.0743
▁patches	-12.0744
pped	-12.0747
▁flashing	-12.0748
▁jars	-12.0749
▁leave	-12.0753
▁blossoms	-12.0763
▁Ho	-12.0764
▁pumps	-12.0765
▁ge	-12.0769
▁sites	-12.0771
▁jam	-12.0772
ug	-12.0772
▁blank	-12.0773
▁mountaineer	-12.0775
▁pancakes	-12.0778
▁smear	-12.0779
▁joggers	-12.0782
▁projects	-12.0786
les	-12.0802
▁acrobatics	-12.0811
▁claps	-12.0812
▁spell	-12.0819
▁batons	-12.0823
▁controll	-12.0829
tic	-12.083
▁melt	-12.0831
▁bundles	-12.0834
ki	-12.0835
▁basin	-12.0842
▁worship	-12.0842
▁photography	-12.0845
▁texts	-12.0847
▁save	-12.0848
▁worked	-12.0862
▁treats	-12.0863
N	-12.0874
de	-12.0881
hi	-12.0885
▁flee	-12.0889
▁Thai	-12.09
▁super	-12.0905
▁simpl	-12.0906
▁intimate	-12.0908
▁mannequins	-12.0915
▁crop	-12.0944
▁Re	-12.0955
L	-12.096
testing	-12.0965
ious	-12.0972
▁Super	-12.0981
▁ox	-12.0983
▁slow	-12.1003
▁focuse	-12.1019
▁sees	-12.1025
▁ridd	-12.1052
wheel	-12.1058
olic	-12.1065
▁beater	-12.1072
▁Cola	-12.1084
▁Beach	-12.1091
uffe	-12.1092
▁cheerful	-12.1099
▁per	-12.1108
▁charg	-12.1121
▁storefronts	-12.1128
▁Pe	-12.1144
▁rocket	-12.1146
▁Na	-12.1148
▁Ya	-12.115
▁All	-12.1163
▁positions	-12.1191
ited	-12.1194
ckey	-12.1195
own	-12.1197
sure	-12.1216
story	-12.1253
▁escalators	-12.1298
brown	-12.1299
▁personal	-12.13
cker	-12.1303
dyed	-12.1307
▁roped	-12.1307
▁fo	-12.1311
▁cue	-12.1318
over	-12.1324
▁flow	-12.1328
▁Bo	-12.1339
▁prim	-12.1348
ory	-12.1366
▁keyboards	-12.1414
▁workman	-12.1428
▁measure	-12.1429
▁experience	-12.1433
mo	-12.1435
▁sequin	-12.1438
▁crouch	-12.1441
cola	-12.1442
▁hijab	-12.1442
▁contestant	-12.1449
▁cocktail	-12.1449
▁pamphlet	-12.145
▁civilian	-12.145
▁anchor	-12.1451
▁winner	-12.1452
▁bridesmaid	-12.1452
▁Fisher	-12.1452
▁Mom	-12.1452
omas	-12.1453
▁lesson	-12.1454
▁sparkler	-12.1454
▁price	-12.1454
▁shutter	-12.1458
ive	-12.1458
▁detail	-12.1461
▁hedge	-12.1463
▁penguin	-12.1465
▁Mi	-12.1467
▁youngster	-12.1476
mergency	-12.1493
▁surprise	-12.1502
▁solid	-12.1511
▁Colorful	-12.1511
▁rectang	-12.1512
▁chang	-12.1513
▁refresh	-12.1513
▁Autumn	-12.1513
▁Britain	-12.1513
▁Pokemon	-12.1513
▁Target	-12.1513
▁ceramic	-12.1513
▁doberman	-12.1513
▁spaghetti	-12.1513
▁Berlin	-12.1513
▁Newlywed	-12.1513
▁sibling	-12.1513
▁ukulele	-12.1513
▁amazement	-12.1513
▁prominent	-12.1513
▁congregation	-12.1513
▁Senior	-12.1513
Radio	-12.1513
▁Ocean	-12.1514
▁preschool	-12.1514
▁Clown	-12.1514
▁creme	-12.1514
▁repelling	-12.1514
▁honor	-12.1514
▁occurring	-12.1514
▁Motorcyclist	-12.1514
▁operator	-12.1514
▁passionately	-12.1514
▁globe	-12.1514
▁comfortable	-12.1514
▁anticipation	-12.1514
▁shaft	-12.1514
▁bassist	-12.1515
▁dummy	-12.1515
▁oxen	-12.1515
▁awkwardly	-12.1515
▁rival	-12.1515
▁Batman	-12.1515
▁Flag	-12.1515
▁would	-12.1516
▁bigger	-12.1516
▁cleats	-12.1517
rmed	-12.1517
▁frosting	-12.1518
▁bunk	-12.1518
▁Bird	-12.1518
▁cloak	-12.1518
▁flexing	-12.1518
cy	-12.1519
▁Gate	-12.152
▁competitively	-12.152
▁drumming	-12.1521
▁applied	-12.1524
▁bake	-12.1524
▁grinder	-12.1525
▁reflector	-12.1525
▁pompoms	-12.1527
▁rainstorm	-12.1528
▁candid	-12.1529
▁screams	-12.1529
▁turntable	-12.1531
▁Roller	-12.1531
▁Museum	-12.1532
▁compact	-12.1532
▁forrest	-12.1537
▁fingernails	-12.1538
▁streetlight	-12.1543
▁peppers	-12.1544
▁kabobs	-12.1544
▁refreshments	-12.1544
▁visitors	-12.1544
▁accents	-12.1545
▁fift	-12.1546
▁twisting	-12.1546
▁twirls	-12.1546
▁safe	-12.1548
▁fry	-12.1549
▁rollerskaters	-12.1549
▁countertop	-12.1549
▁herbs	-12.1552
▁amazing	-12.1555
▁available	-12.1558
▁accessories	-12.1558
▁sleepy	-12.1562
▁must	-12.1565
▁barks	-12.1569
▁kept	-12.1576
▁snorkeling	-12.1576
fter	-12.1578
▁populate	-12.1583
▁ascends	-12.1588
▁graduate	-12.1593
▁sizes	-12.1594
▁session	-12.1598
▁props	-12.1604
▁questions	-12.1605
▁observed	-12.1607
nion	-12.1611
▁netting	-12.1613
▁geometric	-12.1614
▁dandelions	-12.1615
eep	-12.1616
▁jugs	-12.1619
▁hid	-12.1622
▁recorder	-12.1633
▁key	-12.1638
▁weathered	-12.1643
eating	-12.1649
▁airline	-12.1651
▁dumps	-12.1653
ol	-12.1654
me	-12.1656
▁york	-12.1659
▁skydiver	-12.1661
▁backpackers	-12.1668
be	-12.1669
▁closer	-12.167
▁herd	-12.1671
▁bulldog	-12.1676
▁started	-12.1679
▁marks	-12.1691
▁barricades	-12.1703
▁videotape	-12.1703
▁maneuvers	-12.1714
▁sticker	-12.1717
▁arches	-12.1718
▁markers	-12.1725
▁manipulat	-12.1742
climbing	-12.1756
▁wraps	-12.1772
ell	-12.1774
▁Summ	-12.1776
▁promot	-12.1783
▁pumpkins	-12.1785
▁portraits	-12.1785
▁topic	-12.1804
▁glow	-12.1809
▁Dad	-12.1814
▁So	-12.1818
▁once	-12.1819
▁active	-12.1828
ottery	-12.1834
▁decid	-12.1842
▁patroll	-12.1849
▁bearer	-12.1864
▁cages	-12.1869
book	-12.1871
▁Bush	-12.1871
▁peel	-12.1876
▁Kit	-12.1887
▁No	-12.1889
▁construct	-12.1925
▁alike	-12.1933
▁sock	-12.1949
il	-12.195
▁awe	-12.1957
not	-12.1957
▁sons	-12.196
▁bl	-12.1963
▁buckle	-12.1977
hoop	-12.1978
other	-12.198
▁cases	-12.1985
them	-12.1999
▁formations	-12.2009
uches	-12.202
▁wake	-12.2035
▁mixe	-12.2041
▁bases	-12.2045
▁flyer	-12.2046
▁emotion	-12.206
▁fires	-12.2079
▁hurt	-12.211
aking	-12.2135
▁straddl	-12.2151
ia	-12.2156
▁squat	-12.217
stone	-12.217
lowered	-12.2188
▁cradle	-12.219
eye	-12.2202
hoops	-12.222
ouches	-12.2221
print	-12.2224
▁Chi	-12.2229
▁cliffs	-12.2232
dded	-12.2233
▁brow	-12.2237
sion	-12.2251
▁pound	-12.2252
east	-12.226
kart	-12.226
▁unwrap	-12.2263
▁pitchers	-12.2266
wing	-12.227
▁hoods	-12.2277
▁theme	-12.2283
uts	-12.2285
bed	-12.2285
▁strand	-12.2331
time	-12.2337
ust	-12.2337
▁sub	-12.2342
▁Game	-12.2348
▁specimen	-12.2352
▁mushroom	-12.2356
▁llama	-12.2357
▁arrangement	-12.2358
▁medal	-12.2359
▁lemon	-12.2359
▁continue	-12.236
ves	-12.236
▁interest	-12.236
▁olympic	-12.2361
▁donut	-12.2361
▁dollar	-12.2362
▁patron	-12.2365
▁quarter	-12.237
▁drawer	-12.2372
▁crochet	-12.2374
▁twist	-12.2378
▁bullet	-12.239
▁auto	-12.24
▁bark	-12.2408
▁embroider	-12.2412
▁stroke	-12.2417
uffy	-12.242
▁Rescue	-12.2423
▁escort	-12.2423
▁Beijing	-12.2423
▁Florida	-12.2423
▁Labrador	-12.2423
▁embankment	-12.2423
▁mariachi	-12.2423
▁oxygen	-12.2423
▁pedestal	-12.2423
▁screwdriver	-12.2423
▁yawns	-12.2423
▁Ikea	-12.2423
▁halloween	-12.2423
▁peacock	-12.2423
▁seminar	-12.2423
▁Celtic	-12.2423
▁slingshot	-12.2423
▁granite	-12.2423
▁lingerie	-12.2423
▁reindeer	-12.2423
▁croquet	-12.2423
▁Italy	-12.2423
▁decals	-12.2423
▁mexic	-12.2423
▁source	-12.2423
▁government	-12.2423
▁desperate	-12.2423
▁neatly	-12.2423
▁Karate	-12.2423
▁strawberries	-12.2423
▁jagged	-12.2423
▁animated	-12.2423
▁Mardi	-12.2423
▁sweatsuit	-12.2423
▁already	-12.2423
▁glitter	-12.2423
▁subject	-12.2423
▁statute	-12.2423
▁paramedic	-12.2423
▁joyfully	-12.2423
▁excavator	-12.2423
▁flatbed	-12.2424
▁ribs	-12.2424
▁mulch	-12.2425
▁Russia	-12.2425
▁swaddl	-12.2425
▁shocked	-12.2426
▁solider	-12.2426
▁wildflowers	-12.2426
▁footprints	-12.2426
▁corral	-12.2427
▁paddy	-12.2428
▁turf	-12.2428
▁sparkl	-12.2429
▁seriously	-12.2429
▁exciting	-12.243
▁Tour	-12.2431
▁poorly	-12.2432
▁lighthouse	-12.2432
▁architectural	-12.2433
▁forearm	-12.2433
▁bodies	-12.2433
egas	-12.2433
▁seaside	-12.2435
▁goose	-12.2436
▁grimaces	-12.2436
▁Island	-12.2437
▁claw	-12.2437
▁desktop	-12.2437
stead	-12.2439
▁pleasant	-12.2442
▁steady	-12.2442
▁shark	-12.2444
▁concerned	-12.2445
▁Station	-12.2445
▁Gras	-12.2446
▁intensely	-12.2446
▁tongues	-12.2447
▁torso	-12.2449
▁sashes	-12.245
▁devil	-12.2451
▁bumper	-12.2452
▁sharpen	-12.2455
▁fairly	-12.2459
niform	-12.246
▁steaks	-12.246
▁pineapples	-12.2462
▁scratche	-12.2463
▁hazard	-12.2467
▁warmers	-12.247
▁planter	-12.2471
▁attendees	-12.2471
▁removed	-12.2472
▁hide	-12.2473
▁lovely	-12.2473
▁law	-12.2474
▁Ba	-12.2475
▁shells	-12.2476
▁adventure	-12.2477
▁lockers	-12.2481
▁Farmers	-12.2482
set	-12.2483
▁lemons	-12.2486
▁came	-12.2487
▁hedges	-12.2489
▁braces	-12.2491
▁creep	-12.2491
▁dropped	-12.2493
▁badges	-12.2493
▁homes	-12.2504
▁defends	-12.2511
▁ranch	-12.2511
▁Guitar	-12.2512
▁streetlights	-12.2513
▁onions	-12.2514
▁controller	-12.2514
▁created	-12.2518
▁brace	-12.2519
▁restaurants	-12.2525
▁campers	-12.2527
▁operated	-12.2528
ned	-12.2534
▁slabs	-12.2534
water	-12.2534
▁taped	-12.2537
▁entertained	-12.2538
▁miss	-12.2542
▁challenge	-12.2544
▁smokey	-12.2552
▁whale	-12.2556
▁bicycler	-12.2557
▁steers	-12.2558
▁signals	-12.2564
▁assists	-12.257
▁crush	-12.2579
▁downwards	-12.2582
▁panels	-12.2585
▁coolers	-12.2588
▁beak	-12.2588
▁diners	-12.2599
▁toilets	-12.26
▁ram	-12.261
▁pensive	-12.2618
▁officials	-12.2622
▁draft	-12.2635
▁slump	-12.2636
▁dug	-12.2653
ride	-12.2658
▁wav	-12.2666
nicef	-12.2674
▁bill	-12.2683
▁Back	-12.2691
ign	-12.2692
▁tumbl	-12.2694
ively	-12.2701
▁canes	-12.2703
▁rifles	-12.2709
SC	-12.2714
ished	-12.2716
icker	-12.2722
▁Bright	-12.2725
▁spik	-12.2729
▁engineer	-12.2731
oe	-12.2736
▁pett	-12.2747
▁Y	-12.2755
gent	-12.2764
▁Ski	-12.2767
▁lighter	-12.2771
▁handler	-12.2774
stand	-12.2774
▁examined	-12.2777
▁turbans	-12.2784
▁br	-12.2794
▁Tall	-12.2797
▁shell	-12.2799
addresses	-12.2803
▁darkly	-12.2808
▁cameramen	-12.2813
▁keeper	-12.2821
black	-12.2824
ank	-12.2827
▁within	-12.2835
ultim	-12.2846
front	-12.2855
▁grate	-12.2868
▁collars	-12.2871
▁fixed	-12.2871
▁copy	-12.2872
▁billboards	-12.2881
▁become	-12.2881
▁lives	-12.2888
pensive	-12.2904
Man	-12.2908
▁yells	-12.2912
ipped	-12.2942
crowded	-12.2944
ered	-12.295
solate	-12.2961
view	-12.2963
ood	-12.2963
▁wor	-12.2973
▁Mick	-12.2977
▁flap	-12.2984
phon	-12.2987
away	-12.299
pproximate	-12.2999
Y	-12.3004
▁Mar	-12.3005
azz	-12.3032
zed	-12.3049
block	-12.3065
▁final	-12.308
▁headbands	-12.3084
▁cuddl	-12.3085
ised	-12.3094
▁synchroniz	-12.3103
▁here	-12.3105
spectacle	-12.3112
flight	-12.3114
▁boarder	-12.3122
▁mine	-12.3124
▁ob	-12.3129
▁trumpets	-12.3134
com	-12.3135
eastern	-12.3139
▁Br	-12.3157
scale	-12.3161
▁fam	-12.3163
▁oversee	-12.3167
enaissance	-12.3176
ike	-12.3199
grown	-12.3201
▁sprinkle	-12.3203
fully	-12.3209
ving	-12.3226
▁sno	-12.323
▁mad	-12.3231
itation	-12.3238
▁sales	-12.3249
▁acrobat	-12.3258
thletes	-12.3267
▁onion	-12.3274
▁fabrics	-12.3275
▁capes	-12.328
▁embe	-12.3286
▁braid	-12.3292
rushes	-12.3294
cal	-12.3295
nna	-12.3295
chief	-12.3311
▁research	-12.3321
keeper	-12.3321
ad	-12.3326
▁notice	-12.3337
old	-12.3341
▁album	-12.3351
▁knight	-12.3353
lack	-12.3354
▁pasture	-12.3354
▁warrior	-12.3356
▁troop	-12.3357
▁bonnet	-12.3357
▁poncho	-12.336
▁burger	-12.3362
▁lamb	-12.3362
▁movement	-12.3362
▁rapid	-12.3363
▁guest	-12.3363
▁pursue	-12.3364
▁locker	-12.3368
▁creation	-12.3368
▁Ro	-12.3372
timate	-12.3375
▁suited	-12.3387
▁Africa	-12.3395
▁spout	-12.3396
▁Barefoot	-12.3406
▁Isla	-12.3406
▁sift	-12.3417
▁Grand	-12.3421
▁dramatic	-12.3422
▁Australia	-12.3423
▁MacBook	-12.3423
▁SquarePants	-12.3423
▁camcorder	-12.3423
▁espresso	-12.3423
▁incense	-12.3423
▁lettuce	-12.3423
▁scientific	-12.3423
▁toboggan	-12.3423
▁trapeze	-12.3423
▁carpentry	-12.3423
▁karaoke	-12.3423
▁pokemon	-12.3423
▁assignment	-12.3423
▁granddaughter	-12.3423
▁transaction	-12.3423
▁martini	-12.3423
olkswagen	-12.3423
▁repel	-12.3423
▁crotch	-12.3423
▁grandfather	-12.3423
▁barbie	-12.3423
▁bookshelf	-12.3423
▁Parade	-12.3423
▁jewelery	-12.3423
▁rebound	-12.3423
▁octopus	-12.3423
▁reunion	-12.3423
▁vista	-12.3423
▁facade	-12.3423
▁enough	-12.3423
▁bullhorn	-12.3423
▁sunrise	-12.3423
▁copper	-12.3423
▁grandson	-12.3423
▁Story	-12.3423
▁swung	-12.3423
▁volcano	-12.3423
▁cancer	-12.3423
▁coastline	-12.3423
▁entry	-12.3424
▁Terrier	-12.3424
▁tinker	-12.3424
▁slanted	-12.3424
▁freeway	-12.3424
▁motorboat	-12.3424
▁notepad	-12.3424
▁canister	-12.3424
▁campground	-12.3425
▁represent	-12.3425
▁nursing	-12.3425
▁Circu	-12.3425
▁broadly	-12.3426
▁restroom	-12.3426
▁dealer	-12.3426
▁graffit	-12.3426
▁noise	-12.3426
▁proper	-12.3426
▁trinkets	-12.3426
ictorian	-12.3427
▁chores	-12.3427
▁speedboat	-12.3427
▁Standing	-12.3428
▁toppings	-12.3429
▁rains	-12.343
▁cookout	-12.343
▁smash	-12.3431
aked	-12.3431
▁comforter	-12.3433
▁contemplates	-12.3433
▁artifacts	-12.3433
▁Hall	-12.3434
▁pullover	-12.3435
▁Latino	-12.3435
▁crime	-12.3435
▁landscaping	-12.3435
▁North	-12.3437
▁clams	-12.3437
▁Parent	-12.3438
▁swoop	-12.3438
▁layup	-12.344
▁exposed	-12.3441
▁strangely	-12.3443
▁NYC	-12.3443
▁equipped	-12.3444
▁mortar	-12.3444
▁utensils	-12.3446
oyota	-12.3446
▁Mexico	-12.3447
▁sewer	-12.3448
▁slight	-12.3452
▁melons	-12.3453
▁padding	-12.3453
▁chopped	-12.3457
▁flor	-12.3457
▁compris	-12.3459
▁eyebrows	-12.3459
▁layer	-12.346
▁Truck	-12.3461
▁parading	-12.3461
▁reeds	-12.3462
MC	-12.3463
ockeys	-12.3466
▁highlight	-12.3469
▁deflat	-12.347
▁treads	-12.347
▁restrain	-12.3471
▁Hotel	-12.3471
▁frog	-12.3472
▁veterans	-12.3473
▁documents	-12.3473
bell	-12.3473
▁safely	-12.3473
▁Lone	-12.3477
istic	-12.3478
▁knead	-12.3478
▁tunes	-12.3478
▁curls	-12.348
▁grains	-12.3481
▁rim	-12.3482
▁ponchos	-12.3486
▁collected	-12.3489
▁Even	-12.349
▁pages	-12.3498
▁cube	-12.3499
▁civilians	-12.35
▁china	-12.35
▁sole	-12.35
▁seasoning	-12.3506
▁sombreros	-12.3506
▁scored	-12.351
▁lace	-12.3511
▁ballroom	-12.3512
care	-12.3513
▁prizes	-12.3517
▁adjustment	-12.3519
▁totter	-12.3527
▁terrace	-12.353
▁beautifully	-12.3531
undred	-12.3535
▁pursu	-12.3537
▁tw	-12.3537
▁pumping	-12.3538
▁folders	-12.3538
▁sponges	-12.3539
▁violinists	-12.3541
▁invert	-12.3543
▁walkie	-12.3543
▁dr	-12.355
▁media	-12.3563
▁attacking	-12.3569
▁arrows	-12.3585
▁mock	-12.3587
▁rode	-12.3588
▁possessions	-12.36
tten	-12.3605
fives	-12.3607
▁mind	-12.3608
▁coal	-12.3614
▁unwrapp	-12.3614
▁bucks	-12.3614
▁caged	-12.3636
▁beachfront	-12.3638
▁wrangl	-12.3647
▁replac	-12.3651
▁ka	-12.3655
ternational	-12.3655
▁fitting	-12.366
▁pops	-12.3661
▁pigs	-12.3665
▁gone	-12.3679
▁completed	-12.368
dog	-12.3688
▁Sun	-12.3696
piderman	-12.3697
PS	-12.3698
vation	-12.3711
uzzled	-12.3734
▁stud	-12.3737
co	-12.3749
▁roam	-12.3762
▁necks	-12.3766
▁Cook	-12.377
▁wrapper	-12.3778
▁gir	-12.3782
ience	-12.3785
lar	-12.3791
▁canon	-12.3799
▁looms	-12.3799
utside	-12.3801
▁notebooks	-12.3803
rounding	-12.3806
▁hound	-12.3813
▁logos	-12.382
▁weed	-12.382
▁cycles	-12.3822
▁motions	-12.3832
orange	-12.3832
H	-12.3835
taught	-12.3836
assive	-12.3867
▁gap	-12.3869
▁jets	-12.3884
▁conven	-12.3892
▁flutes	-12.3895
▁Centr	-12.3909
▁sw	-12.3911
▁inner	-12.3922
▁waterski	-12.3926
▁tune	-12.3935
ould	-12.3963
▁gu	-12.3967
▁zipper	-12.3976
gy	-12.3977
ups	-12.3982
▁console	-12.4011
▁conveni	-12.4021
▁leafs	-12.4024
▁spa	-12.4025
lot	-12.4034
colour	-12.4043
▁feature	-12.4045
ns	-12.4045
▁Go	-12.407
▁ascend	-12.407
ostume	-12.4081
▁sprint	-12.4086
▁pi	-12.409
Free	-12.41
▁cl	-12.4106
▁blacktop	-12.4108
walk	-12.4108
▁meals	-12.4114
ese	-12.412
nding	-12.4121
▁poke	-12.4158
▁Redhead	-12.4184
▁react	-12.4206
▁snowshoe	-12.422
color	-12.4227
▁fixe	-12.4235
▁ju	-12.4242
▁bustl	-12.4263
▁pug	-12.4276
▁wrangle	-12.4289
▁Power	-12.4303
▁boating	-12.4324
▁Arab	-12.4324
G	-12.4327
▁racks	-12.4333
hooping	-12.4337
unk	-12.4348
ware	-12.4366
▁exchang	-12.4371
▁waterfalls	-12.4373
▁trekk	-12.438
▁challeng	-12.4385
▁times	-12.4391
trio	-12.4435
▁won	-12.4436
▁think	-12.4439
▁Tan	-12.4442
▁girder	-12.4459
▁Farm	-12.4461
▁coworker	-12.4463
▁rollerskate	-12.4467
▁beanbag	-12.4468
▁textile	-12.4469
irway	-12.447
▁pearl	-12.447
liding	-12.447
▁noodle	-12.4472
laying	-12.4473
flop	-12.4473
▁Runner	-12.4474
▁golfing	-12.4478
▁evergreen	-12.4478
▁Play	-12.4478
▁backhand	-12.448
▁whist	-12.4486
▁infants	-12.4494
▁bagel	-12.4494
ex	-12.4502
▁hitch	-12.4503
bo	-12.4504
▁tanks	-12.4507
▁Ne	-12.4507
thnic	-12.4516
ct	-12.4519
▁piercing	-12.4519
▁thrill	-12.452
▁choreograph	-12.4523
▁director	-12.4527
▁Business	-12.4528
▁current	-12.4531
▁creative	-12.4532
ynyrd	-12.4534
▁Foreign	-12.4534
▁pistol	-12.4534
▁Ballerina	-12.4534
▁Challenge	-12.4534
▁Commuter	-12.4534
▁Employee	-12.4534
▁Engine	-12.4534
▁Popsicle	-12.4534
▁arrival	-12.4534
▁astronaut	-12.4534
▁certificate	-12.4534
▁chimney	-12.4534
▁colonial	-12.4534
▁eccentric	-12.4534
▁faucet	-12.4534
▁gladiator	-12.4534
▁happiness	-12.4534
▁iPad	-12.4534
▁igloo	-12.4534
▁improvise	-12.4534
▁license	-12.4534
▁limousine	-12.4534
▁regalia	-12.4534
▁saxaphone	-12.4534
▁scrimmage	-12.4534
▁shampoo	-12.4534
▁victim	-12.4534
▁Skynyrd	-12.4534
▁livestock	-12.4534
▁nylon	-12.4534
▁spanish	-12.4534
▁twilight	-12.4534
▁Francisco	-12.4534
▁compartment	-12.4534
▁eyeliner	-12.4534
▁humorous	-12.4534
▁windmill	-12.4534
▁grimacing	-12.4534
▁tassel	-12.4534
▁Revolution	-12.4534
▁Wonder	-12.4534
▁internet	-12.4534
▁lanyard	-12.4534
▁Hollywood	-12.4534
▁twenty	-12.4534
▁charity	-12.4534
▁announcement	-12.4534
▁summit	-12.4534
▁solution	-12.4534
▁lemonade	-12.4534
▁boundary	-12.4534
▁delicious	-12.4534
▁pharmacy	-12.4534
▁checkerboard	-12.4534
▁saxophonist	-12.4534
▁recital	-12.4534
▁uneven	-12.4534
▁mermaid	-12.4534
▁magician	-12.4534
▁smartphone	-12.4534
▁breeze	-12.4534
▁countries	-12.4535
▁refrigerator	-12.4535
▁triangle	-12.4535
▁sym	-12.4535
▁brindle	-12.4535
▁brief	-12.4535
▁situat	-12.4535
▁Bridge	-12.4535
▁fanny	-12.4535
▁bluish	-12.4535
▁jetty	-12.4535
▁amazed	-12.4536
▁keyboardist	-12.4536
▁unpack	-12.4536
▁sedan	-12.4537
▁Teacher	-12.4537
▁chessboard	-12.4537
▁tasty	-12.4537
▁Gentlemen	-12.4537
▁Dressed	-12.4538
▁postcards	-12.4538
▁pursuit	-12.4538
▁classmates	-12.4538
▁peacefully	-12.454
▁upraised	-12.4541
▁joking	-12.4541
▁fishnet	-12.4541
▁attract	-12.4541
▁scrubbing	-12.4541
▁distracted	-12.4542
▁passage	-12.4543
▁misses	-12.4543
itive	-12.4544
▁alert	-12.4544
▁Skateboard	-12.4544
▁flippers	-12.4544
▁Crocs	-12.4545
▁scroll	-12.4545
▁Spain	-12.4545
▁unusually	-12.4545
▁billowing	-12.4547
▁dingy	-12.4548
▁Sal	-12.4548
▁busily	-12.4549
▁extra	-12.4549
▁clasped	-12.4549
▁hipster	-12.455
▁pews	-12.455
▁composed	-12.455
assersby	-12.4551
▁stretcher	-12.4551
▁mis	-12.4552
▁overflowing	-12.4553
▁applauding	-12.4553
▁tasting	-12.4553
▁whispering	-12.4553
▁recliner	-12.4554
▁healthy	-12.4554
▁daughters	-12.4555
▁detector	-12.4557
▁typical	-12.4557
▁Twister	-12.4557
▁grating	-12.4558
▁upstairs	-12.4559
▁assemble	-12.4559
▁Pink	-12.4559
▁twister	-12.4562
▁observers	-12.4562
▁needed	-12.4563
▁hunter	-12.4565
▁cry	-12.4565
▁coals	-12.4569
▁puzzled	-12.457
▁grayish	-12.4573
▁regard	-12.4576
▁zooms	-12.4576
ctively	-12.4579
▁deeply	-12.4581
▁median	-12.4582
▁protectors	-12.4582
▁signage	-12.4582
▁flank	-12.4583
▁owl	-12.4585
▁Center	-12.4588
▁sheepdog	-12.4589
▁cramp	-12.4589
▁apparent	-12.459
▁braiding	-12.4593
▁Skii	-12.4595
▁future	-12.4596
▁Adidas	-12.46
▁investigate	-12.4604
ified	-12.4605
▁movements	-12.4605
▁fasten	-12.4607
▁assembles	-12.4613
▁details	-12.4614
▁whisk	-12.4615
▁desp	-12.4617
▁marking	-12.4622
riding	-12.4625
dye	-12.4627
▁fixtures	-12.4628
▁duty	-12.463
illager	-12.4631
▁strokes	-12.4633
▁require	-12.4634
▁muscles	-12.4635
▁wristbands	-12.4635
ier	-12.4638
▁For	-12.4639
lung	-12.4639
▁bout	-12.4645
tching	-12.4646
▁Fisherm	-12.4658
▁parasails	-12.4659
▁hilltop	-12.4664
ugh	-12.4685
iffe	-12.4691
work	-12.4692
▁bowed	-12.4701
▁desserts	-12.4703
▁describe	-12.4708
▁El	-12.4716
▁le	-12.4717
▁peddle	-12.4718
▁salute	-12.472
▁rags	-12.4723
▁provide	-12.4727
▁hoodies	-12.473
▁seek	-12.4731
▁prepar	-12.4739
▁Cross	-12.4741
ox	-12.4747
▁mike	-12.4747
▁grooms	-12.4748
▁evil	-12.4749
ship	-12.4749
▁blend	-12.4753
▁disco	-12.4758
▁manner	-12.4759
▁backside	-12.4775
robe	-12.4776
▁slop	-12.4777
▁onward	-12.4786
▁mugs	-12.4793
▁trough	-12.4797
▁sprinkl	-12.48
▁nest	-12.4802
▁tar	-12.4813
▁novelt	-12.482
▁dude	-12.4825
▁nuns	-12.4827
▁cigars	-12.4831
▁beats	-12.4844
▁informal	-12.4853
que	-12.4869
nny	-12.4872
▁prey	-12.4876
▁dodge	-12.4887
▁idea	-12.4887
▁supports	-12.4891
▁loop	-12.4892
▁mates	-12.4896
▁boom	-12.491
▁humans	-12.4911
▁presen	-12.4926
rought	-12.4929
▁zipp	-12.4933
▁lightly	-12.4934
▁today	-12.4947
▁sandal	-12.495
ddresses	-12.4968
▁sur	-12.4968
io	-12.4981
▁holder	-12.4985
▁poll	-12.4987
illy	-12.4998
▁mopeds	-12.5004
▁layers	-12.5006
atching	-12.501
ingham	-12.5013
▁indig	-12.5013
ps	-12.5014
▁lego	-12.5015
▁indicat	-12.5016
▁Row	-12.5022
▁extinguish	-12.5023
▁ponder	-12.5064
▁smok	-12.5075
▁DS	-12.5078
▁cuddle	-12.5087
▁menus	-12.5094
sty	-12.5097
ips	-12.5104
▁trend	-12.5106
▁south	-12.5109
hanging	-12.5114
▁witness	-12.5115
ome	-12.5121
▁shine	-12.5123
▁charge	-12.5133
▁pep	-12.515
▁pluck	-12.5154
▁prun	-12.5156
let	-12.5186
rash	-12.519
▁europe	-12.519
▁knits	-12.5193
raffiti	-12.5201
▁frolick	-12.5219
▁beds	-12.5221
▁execute	-12.5227
▁accompani	-12.5233
▁spectate	-12.5235
▁trans	-12.5258
neck	-12.526
▁crowds	-12.5264
▁Hu	-12.5276
▁spreads	-12.5282
▁jobs	-12.5293
▁separat	-12.5296
▁resemble	-12.5296
▁edges	-12.5298
▁gang	-12.5317
sian	-12.534
while	-12.5351
▁scrambl	-12.5352
▁routines	-12.5371
▁hu	-12.5387
skating	-12.5388
▁specialize	-12.5397
golf	-12.5414
▁coin	-12.5414
illing	-12.5428
▁barb	-12.5436
▁dash	-12.5442
bese	-12.5447
▁tubs	-12.5452
▁chop	-12.5454
▁pol	-12.5461
aying	-12.5461
▁buff	-12.5466
▁conversations	-12.5482
ny	-12.5482
ine	-12.5489
▁pitche	-12.5495
▁send	-12.5498
▁drummers	-12.55
ummer	-12.5534
▁launche	-12.5535
col	-12.555
door	-12.555
▁exam	-12.5553
nous	-12.556
▁grasses	-12.557
▁shut	-12.5597
▁chests	-12.5599
▁packs	-12.5604
▁planes	-12.5607
▁kill	-12.5609
mber	-12.5618
▁shap	-12.5627
ama	-12.5628
▁pasta	-12.5633
▁fort	-12.5634
▁hugg	-12.5658
itten	-12.5668
▁lung	-12.5671
dur	-12.5673
ide	-12.5686
dical	-12.5688
▁weld	-12.569
▁crow	-12.5691
▁diagram	-12.5705
▁buoy	-12.5705
zens	-12.5709
▁enthusiast	-12.571
▁dragster	-12.5713
▁spectator	-12.5713
▁Garden	-12.5716
▁fairground	-12.5717
▁pelican	-12.5717
▁nation	-12.5719
▁chemical	-12.5719
▁document	-12.5721
▁veteran	-12.5721
▁santa	-12.5724
▁pies	-12.573
▁midriff	-12.5731
▁ladle	-12.5731
▁outward	-12.5735
▁cutout	-12.5735
▁traveler	-12.5742
Asian	-12.575
▁tailgat	-12.5754
▁airplanes	-12.5757
▁stem	-12.5771
▁sto	-12.5772
panel	-12.5773
ming	-12.5774
▁til	-12.5775
▁Boat	-12.5777
gging	-12.5778
▁suspens	-12.5778
gar	-12.5783
▁sparse	-12.5783
olunteer	-12.5783
uarterback	-12.5784
▁Extreme	-12.5784
▁slalom	-12.5784
▁Michael	-12.5784
▁Pitcher	-12.5784
▁appropriate	-12.5784
▁atmosphere	-12.5784
▁buffalo	-12.5784
▁envelope	-12.5784
▁frustrated	-12.5784
▁fuchsia	-12.5784
▁geyser	-12.5784
▁loudspeaker	-12.5784
▁nervous	-12.5784
▁pantyhose	-12.5784
▁perspective	-12.5784
▁shrimp	-12.5784
▁stencil	-12.5784
▁stewardess	-12.5784
▁swiftly	-12.5784
▁trophies	-12.5784
▁twenties	-12.5784
▁Iowa	-12.5784
▁chorus	-12.5784
▁crevice	-12.5784
▁parrot	-12.5784
▁shuffl	-12.5784
▁crisp	-12.5784
▁benefit	-12.5784
▁opposition	-12.5784
▁Corp	-12.5784
▁Birmingham	-12.5784
▁intercept	-12.5784
▁droplets	-12.5784
▁eyeshadow	-12.5784
▁extravagant	-12.5784
▁briskly	-12.5784
▁version	-12.5784
▁joyous	-12.5784
▁timber	-12.5784
▁Festival	-12.5784
▁garter	-12.5784
▁worried	-12.5784
▁property	-12.5784
▁entryway	-12.5784
▁dramatically	-12.5784
hats	-12.5784
▁proceed	-12.5784
▁consider	-12.5784
▁dugout	-12.5784
▁cellist	-12.5784
▁palace	-12.5784
▁leisurely	-12.5784
quaint	-12.5785
▁Louis	-12.5785
▁frightened	-12.5785
▁production	-12.5785
▁choice	-12.5785
▁sunbathers	-12.5785
▁gnaw	-12.5785
▁Dior	-12.5785
▁disinterested	-12.5785
▁preteen	-12.5785
▁earpiece	-12.5785
▁Collie	-12.5786
▁headlamp	-12.5786
▁Grouch	-12.5786
▁alter	-12.5787
▁sightseeing	-12.5787
▁handgun	-12.5787
▁barbell	-12.5787
▁snuggling	-12.5788
▁cornfield	-12.5788
▁access	-12.5788
▁daycare	-12.5789
▁exhausted	-12.5789
▁concentration	-12.579
Paul	-12.5791
▁salesman	-12.5791
▁ethnicity	-12.5792
▁vertically	-12.5792
▁archery	-12.5792
▁vie	-12.5793
▁grownup	-12.5793
▁spool	-12.5795
▁latter	-12.5796
▁camo	-12.5797
▁dozes	-12.5797
▁remodel	-12.5798
▁Pigeon	-12.58
hoppers	-12.58
▁dueling	-12.5801
▁shipping	-12.5804
▁Racing	-12.5805
▁grapes	-12.5805
▁hello	-12.5806
▁ornately	-12.5806
▁Penn	-12.5807
otocross	-12.5807
▁opportunity	-12.581
▁crossbones	-12.581
▁Palestinian	-12.581
▁waste	-12.581
▁God	-12.5811
▁identify	-12.5812
▁union	-12.5812
▁Paris	-12.5814
▁stories	-12.5815
▁rafters	-12.5816
▁tech	-12.5817
▁roots	-12.5821
▁boyfriend	-12.5822
▁remains	-12.5823
Miller	-12.5823
▁instruction	-12.5826
▁passer	-12.5826
▁sli	-12.5826
▁sunbathes	-12.5831
▁steadie	-12.5833
▁boss	-12.5833
▁sac	-12.5833
▁carrots	-12.5837
▁Officer	-12.5837
Two	-12.584
▁sucks	-12.5841
▁crashed	-12.5841
▁bloody	-12.5841
▁feeling	-12.5845
▁Canada	-12.5845
▁adobe	-12.5849
▁twins	-12.585
▁dj	-12.5851
▁trudg	-12.5851
▁conducts	-12.5851
oyal	-12.5851
aredevil	-12.5852
two	-12.5855
▁bones	-12.5857
▁bagels	-12.5857
ossing	-12.586
▁Traveler	-12.586
▁crank	-12.586
▁prays	-12.5867
▁rays	-12.5868
▁hours	-12.587
▁House	-12.5873
▁gender	-12.5877
▁relative	-12.5877
rong	-12.5882
▁pamphlets	-12.5882
▁sweets	-12.5883
▁hops	-12.5884
▁waffles	-12.5891
ecker	-12.5904
▁grim	-12.5906
lets	-12.5907
▁waterskis	-12.591
▁vines	-12.5911
▁hurl	-12.5911
▁rackets	-12.5917
▁pulp	-12.592
▁tambourines	-12.5925
standing	-12.5926
▁received	-12.5926
▁tangle	-12.5933
▁crabs	-12.5934
▁jaw	-12.5935
▁root	-12.5935
▁Ferr	-12.5942
▁ston	-12.5944
ested	-12.5945
▁fringe	-12.5945
▁spare	-12.5947
▁Welcome	-12.5955
▁newlyweds	-12.596
▁bowties	-12.596
▁wrists	-12.5966
▁printe	-12.5969
ors	-12.5974
▁ornaments	-12.5985
▁sweats	-12.5994
▁bodysuits	-12.5998
▁plan	-12.6008
affe	-12.6011
ump	-12.6012
▁shadowed	-12.6016
da	-12.602
▁advance	-12.602
▁Heavy	-12.6023
ropped	-12.6023
▁fiddl	-12.6025
shirted	-12.6026
ashes	-12.6035
ette	-12.6039
▁server	-12.6041
▁washers	-12.6042
opy	-12.6043
▁Rod	-12.6043
▁Wait	-12.6053
▁roman	-12.6063
coat	-12.6067
ri	-12.6072
▁goth	-12.6076
▁kart	-12.6081
▁painters	-12.6082
▁thigh	-12.6083
▁hooks	-12.6085
▁onlooking	-12.609
tem	-12.6102
▁experiments	-12.6107
lementary	-12.6108
▁talkie	-12.611
▁pounc	-12.6112
uniform	-12.6113
▁va	-12.6123
lway	-12.6129
avan	-12.613
▁Line	-12.6144
▁lassos	-12.615
▁showering	-12.6151
▁End	-12.6162
dem	-12.6195
goers	-12.6199
▁Le	-12.6208
▁briefcases	-12.622
tops	-12.623
ista	-12.6235
▁scramble	-12.6235
▁links	-12.624
▁again	-12.6242
▁Wi	-12.6246
▁hatch	-12.625
▁correct	-12.6252
▁spe	-12.6257
▁Dis	-12.6262
ward	-12.6263
▁feat	-12.6264
▁fathers	-12.627
light	-12.6272
▁rea	-12.6286
▁em	-12.6289
▁staying	-12.6301
▁resembl	-12.6303
un	-12.6307
▁straddle	-12.6313
▁seren	-12.6321
▁mold	-12.6353
workers	-12.6356
▁popula	-12.6381
▁hous	-12.6381
▁snapp	-12.6381
era	-12.6394
▁carri	-12.6399
▁spoons	-12.6404
▁overall	-12.6415
▁Sled	-12.6417
icking	-12.6418
▁pierce	-12.6418
▁sodas	-12.6419
▁sn	-12.6419
▁trails	-12.642
▁loves	-12.6423
ron	-12.6426
roughly	-12.6436
▁Firem	-12.6441
res	-12.6445
formed	-12.6454
▁isle	-12.6455
▁squatt	-12.6462
▁unicycles	-12.6462
▁viole	-12.6465
▁toned	-12.6471
▁outline	-12.6476
mate	-12.6478
▁pizzas	-12.649
▁Las	-12.65
icated	-12.6503
▁rods	-12.6503
▁whi	-12.6504
painting	-12.6518
▁bot	-12.6523
▁finishe	-12.6527
▁tubing	-12.6535
▁To	-12.6536
▁bouquets	-12.6537
ld	-12.6546
race	-12.6547
ON	-12.6557
loseup	-12.6561
pti	-12.6575
unning	-12.6579
ars	-12.6586
▁modeling	-12.6588
▁Out	-12.6601
▁drills	-12.6602
▁daring	-12.6603
ndy	-12.6607
▁fail	-12.6623
▁col	-12.6632
ntry	-12.6637
▁tooth	-12.6649
▁mos	-12.6655
▁discover	-12.6656
bike	-12.6662
bar	-12.6665
same	-12.6677
▁dove	-12.6692
▁wicke	-12.67
▁bal	-12.6702
▁teach	-12.6702
▁travers	-12.6708
hopping	-12.6714
▁Love	-12.6718
▁san	-12.6722
▁energ	-12.6731
mer	-12.6734
▁impress	-12.6755
▁ponytails	-12.6769
ants	-12.677
▁grid	-12.6783
▁pout	-12.6788
▁num	-12.6788
▁scar	-12.6808
hawk	-12.6821
▁arid	-12.6823
▁heel	-12.6827
hole	-12.6834
▁vaca	-12.6836
lling	-12.6844
▁choos	-12.685
yellow	-12.6867
pattern	-12.6874
▁Side	-12.6877
racial	-12.6879
▁pouch	-12.6886
lo	-12.6886
weather	-12.6888
▁sol	-12.6891
▁Met	-12.6896
▁author	-12.6897
corn	-12.6899
▁relat	-12.6907
thumbs	-12.6907
▁pastor	-12.6908
ong	-12.6928
ora	-12.693
▁anticipat	-12.693
▁presse	-12.6933
leap	-12.6934
ction	-12.6934
size	-12.694
▁comp	-12.6942
▁hope	-12.6946
Ex	-12.6955
level	-12.6992
▁whitewater	-12.6994
We	-12.7003
itness	-12.7005
cking	-12.7021
rom	-12.7036
▁gla	-12.7038
uve	-12.7045
der	-12.7057
▁vi	-12.7057
▁beards	-12.7058
▁conduct	-12.7062
▁mustach	-12.7067
▁typ	-12.7069
▁happen	-12.7069
▁locals	-12.7071
▁te	-12.7073
umping	-12.7075
tal	-12.7086
ka	-12.7096
▁posting	-12.7098
▁skydive	-12.7103
▁Rid	-12.7109
▁crashe	-12.7116
▁blindfold	-12.7126
▁pray	-12.7134
▁grandchild	-12.7137
▁mob	-12.7138
▁bandannas	-12.7139
▁syringe	-12.7141
▁dachshund	-12.7142
▁Run	-12.7146
▁kickboxer	-12.7146
▁archer	-12.7147
▁skewer	-12.7148
▁commuter	-12.7148
▁booklet	-12.7148
▁pineapple	-12.7149
▁horseshoe	-12.715
▁Stone	-12.7152
▁Hiker	-12.7152
▁sneaker	-12.7153
▁steak	-12.7154
▁Farmer	-12.7154
▁carrot	-12.7155
▁blind	-12.7156
▁protector	-12.7156
▁slipper	-12.7159
▁rollerskater	-12.7159
ushing	-12.7162
▁cracker	-12.7162
▁loiter	-12.7166
▁accent	-12.7168
▁Kayak	-12.7169
▁Cal	-12.7171
▁Roman	-12.7179
arching	-12.7191
▁zoom	-12.7197
▁Si	-12.7199
▁commut	-12.7206
▁reel	-12.7207
▁origin	-12.7207
▁respective	-12.721
▁awkward	-12.721
▁diploma	-12.7212
▁Doberman	-12.7212
▁England	-12.7212
▁Factory	-12.7212
▁Mariach	-12.7212
▁Scientist	-12.7212
▁Tibetan	-12.7212
▁arguing	-12.7212
▁bratwurst	-12.7212
▁broccoli	-12.7212
▁cactus	-12.7212
▁detergent	-12.7212
▁flamboyant	-12.7212
▁flexible	-12.7212
▁iMac	-12.7212
▁iPhone	-12.7212
▁perplexed	-12.7212
▁pitchfork	-12.7212
▁poultry	-12.7212
▁replica	-12.7212
▁strength	-12.7212
▁tobacco	-12.7212
▁viewfinder	-12.7212
▁vigorous	-12.7212
▁Canyon	-12.7212
▁Memorial	-12.7212
▁Monster	-12.7212
▁moustache	-12.7212
▁vigil	-12.7212
▁yacht	-12.7212
▁Tinker	-12.7212
▁falcon	-12.7212
▁lattice	-12.7212
▁obliv	-12.7212
▁windshield	-12.7212
▁mechanism	-12.7212
▁Restaurant	-12.7212
▁burlap	-12.7212
▁particular	-12.7212
▁squints	-12.7212
▁faux	-12.7212
▁fortune	-12.7212
▁supervision	-12.7212
▁sync	-12.7212
▁chinatown	-12.7212
▁private	-12.7212
▁Image	-12.7212
▁Mercedes	-12.7212
▁Coffee	-12.7212
▁milkshake	-12.7212
▁emblem	-12.7212
▁violence	-12.7212
▁banister	-12.7212
▁nipple	-12.7212
▁advantage	-12.7212
▁carcass	-12.7212
▁arriving	-12.7213
▁Georg	-12.7213
▁Tech	-12.7213
▁reenactment	-12.7213
▁Cricket	-12.7213
▁easy	-12.7213
▁passageway	-12.7213
▁rottweiler	-12.7213
▁comfortably	-12.7213
▁organization	-12.7213
▁freezer	-12.7213
▁knoll	-12.7213
▁compound	-12.7213
▁hatchet	-12.7213
▁smart	-12.7213
▁ferret	-12.7213
▁gypsy	-12.7213
▁shuttle	-12.7213
▁dojo	-12.7213
▁starfish	-12.7213
xford	-12.7213
▁gurney	-12.7213
▁calligraphy	-12.7213
▁explosion	-12.7213
▁rigging	-12.7213
▁kitty	-12.7213
antic	-12.7213
▁installation	-12.7213
▁habit	-12.7213
erizon	-12.7213
▁divided	-12.7214
▁liberty	-12.7214
▁moored	-12.7214
▁burrito	-12.7214
▁bluff	-12.7214
▁goalkeeper	-12.7214
▁stu	-12.7214
▁Heineken	-12.7214
▁farmland	-12.7214
▁maze	-12.7214
▁vandali	-12.7214
▁duties	-12.7214
▁Egy	-12.7214
▁excavation	-12.7214
▁grandma	-12.7214
▁clenched	-12.7215
▁bookcase	-12.7215
▁client	-12.7216
▁propeller	-12.7216
▁dripping	-12.7216
▁contort	-12.7216
▁buzz	-12.7216
▁sandpit	-12.7216
▁household	-12.7217
▁Marine	-12.7217
▁clover	-12.7217
▁beetle	-12.7218
▁Tower	-12.7218
▁result	-12.7218
▁Hard	-12.7218
▁Fair	-12.7218
▁PC	-12.7218
▁startled	-12.7218
▁Walgreens	-12.7218
▁arrested	-12.7218
▁Cure	-12.7218
▁midday	-12.7218
▁snail	-12.7218
▁supervising	-12.7218
▁portly	-12.7219
▁lodge	-12.7219
▁Businessman	-12.722
▁plugs	-12.722
▁Climber	-12.7221
▁windsurfs	-12.7222
▁foul	-12.7224
▁West	-12.7225
▁touchdown	-12.7225
▁massage	-12.7225
tically	-12.7226
▁wildly	-12.7226
▁mosque	-12.7227
▁toenails	-12.7228
▁mattresses	-12.7229
▁handsaw	-12.723
▁brandish	-12.723
▁frowns	-12.7232
▁spokes	-12.7235
my	-12.7235
▁darkness	-12.7236
▁throat	-12.7236
▁Series	-12.7237
▁rugged	-12.7239
▁effort	-12.7241
▁moose	-12.7244
▁crumb	-12.7244
▁align	-12.7245
▁outfielder	-12.7246
▁defended	-12.7247
▁Athletic	-12.7249
▁stalks	-12.7253
▁occupy	-12.7254
▁autographs	-12.7255
ans	-12.7255
▁sunflowers	-12.7261
▁urinat	-12.7262
ditional	-12.7265
▁condoms	-12.7266
ending	-12.7267
▁marshmallows	-12.7267
chipper	-12.7268
▁supervise	-12.7268
▁Excit	-12.7271
▁fla	-12.7271
carts	-12.7274
▁emptie	-12.7275
▁glue	-12.7278
▁gleeful	-12.728
▁Pre	-12.7283
▁rotat	-12.7284
▁chemicals	-12.7287
▁hairdo	-12.7288
▁horseshoes	-12.729
▁bulbs	-12.7293
▁lambs	-12.7301
▁lakeside	-12.7314
▁continues	-12.7314
BS	-12.7315
▁Fat	-12.7323
▁Cam	-12.7326
▁lessons	-12.7327
▁cocktails	-12.7327
▁Hang	-12.7328
▁splatter	-12.7331
▁Buy	-12.7332
ade	-12.7335
▁armchair	-12.7338
▁via	-12.7341
▁steeple	-12.7342
ss	-12.7344
▁bongos	-12.7345
▁welcome	-12.7346
▁techniques	-12.7347
▁outfield	-12.7352
▁raging	-12.7352
▁leis	-12.7353
▁researcher	-12.7363
▁setup	-12.7371
▁cruiser	-12.7375
banging	-12.7384
▁plaster	-12.7387
playing	-12.7391
▁fil	-12.7395
▁basketballs	-12.7395
▁excavat	-12.7402
▁swans	-12.7408
▁poolside	-12.7411
▁graze	-12.7415
▁diapers	-12.7416
▁promote	-12.7416
▁kicker	-12.7419
ching	-12.743
▁skim	-12.7431
▁haz	-12.7436
▁spit	-12.7446
aid	-12.7452
▁laborer	-12.7453
fro	-12.7455
▁innertubes	-12.7458
inning	-12.7459
▁bells	-12.746
▁ru	-12.7461
per	-12.7462
▁cha	-12.7468
▁partners	-12.7468
▁stays	-12.7472
▁lade	-12.7472
▁offerings	-12.7476
ricket	-12.7482
▁wakeboards	-12.7485
▁turkeys	-12.7488
▁stickers	-12.7489
▁ping	-12.749
structing	-12.7496
▁companions	-12.7508
▁disab	-12.7509
▁caus	-12.7513
▁dine	-12.7515
▁searche	-12.7517
▁Indi	-12.7517
ushes	-12.7521
ought	-12.7522
▁arab	-12.7526
▁lassoing	-12.7531
ixture	-12.7539
▁dominate	-12.7545
▁collid	-12.7553
▁spirit	-12.7563
▁awnings	-12.757
▁vat	-12.7574
▁mansion	-12.7578
enty	-12.7578
ti	-12.7579
school	-12.758
▁cath	-12.7581
▁golfers	-12.7589
illa	-12.7589
AR	-12.7592
▁el	-12.7595
▁tye	-12.7596
street	-12.76
▁awards	-12.7602
▁sweating	-12.7603
▁viewers	-12.7607
▁sweeper	-12.7612
▁handbags	-12.7613
going	-12.7613
▁Nurse	-12.7628
wi	-12.7639
▁spotlights	-12.764
▁injur	-12.7642
jacket	-12.7647
gers	-12.7651
▁stapl	-12.7665
▁gra	-12.7668
▁trips	-12.7686
▁Ri	-12.7688
leaned	-12.7695
▁cabs	-12.7695
▁services	-12.7696
▁chute	-12.7698
▁shawls	-12.77
▁yell	-12.773
▁cells	-12.7736
spects	-12.775
▁Bra	-12.7751
▁throughout	-12.7756
idden	-12.7757
ble	-12.7759
cade	-12.7772
▁ups	-12.7778
ound	-12.779
▁wip	-12.7795
▁buttoned	-12.7802
▁demolish	-12.7824
▁sho	-12.7825
▁Can	-12.7855
▁shout	-12.7861
floor	-12.7862
▁bury	-12.7866
▁maid	-12.7873
▁trashcans	-12.7876
vest	-12.788
▁rubb	-12.7919
oney	-12.7929
▁did	-12.7934
▁lu	-12.7936
eing	-12.7943
people	-12.7948
ber	-12.7953
▁waited	-12.7959
ailing	-12.7963
shes	-12.7964
ou	-12.7979
▁Mount	-12.7984
▁Pi	-12.7984
▁sa	-12.7986
abst	-12.7987
▁tilt	-12.7992
formal	-12.7995
▁bullfight	-12.8
ow	-12.8004
▁cata	-12.8012
rade	-12.8012
▁cork	-12.8022
iously	-12.8023
ff	-12.8025
▁Home	-12.8037
nder	-12.8044
▁Ra	-12.8054
cks	-12.8056
ather	-12.8059
▁stoo	-12.8071
ttractive	-12.8084
▁My	-12.8086
zag	-12.8087
▁gui	-12.8087
ican	-12.8091
▁En	-12.8097
▁cou	-12.8103
▁Monk	-12.8108
▁respirat	-12.8115
▁atv	-12.8124
▁carvings	-12.8126
▁pee	-12.8129
run	-12.8133
▁cann	-12.8147
▁res	-12.8158
od	-12.8163
rew	-12.8165
▁retai	-12.8178
vin	-12.818
▁sinks	-12.8183
ks	-12.8193
▁ver	-12.82
bility	-12.8201
airie	-12.8204
▁maps	-12.822
uslim	-12.8222
▁Racer	-12.8236
▁jo	-12.8239
▁mounds	-12.8241
box	-12.8245
agged	-12.8247
▁Shirt	-12.8259
pressing	-12.826
his	-12.8268
▁saws	-12.8296
▁cobblestones	-12.8304
▁firetrucks	-12.8304
ta	-12.8314
Do	-12.8315
▁Mo	-12.8322
lowers	-12.8323
using	-12.8349
women	-12.8373
▁grounds	-12.8374
▁Ha	-12.8376
▁carv	-12.8381
action	-12.8382
▁seller	-12.8384
▁mar	-12.8384
▁ripple	-12.8384
kick	-12.8399
bearded	-12.8416
▁thr	-12.8418
▁scare	-12.842
ue	-12.8421
▁novel	-12.8454
▁Cho	-12.8461
armed	-12.8469
▁teachers	-12.8481
ute	-12.8481
li	-12.8491
art	-12.8497
▁palms	-12.8498
wall	-12.8499
wards	-12.8506
▁overturn	-12.8516
hood	-12.8521
▁skillful	-12.8528
nned	-12.8533
▁latin	-12.8534
ility	-12.8534
peace	-12.8541
here	-12.8542
▁Deli	-12.8542
walled	-12.8552
evil	-12.8558
load	-12.8559
▁Pro	-12.8565
▁tackler	-12.857
▁rins	-12.8571
▁cal	-12.8571
▁Color	-12.8573
▁Tattoo	-12.8585
potty	-12.8592
▁Lin	-12.8592
▁Spark	-12.8596
▁mu	-12.8604
iz	-12.8612
▁describ	-12.8616
tex	-12.8636
large	-12.8643
zoo	-12.8644
dense	-12.8657
▁Labor	-12.8658
▁journal	-12.866
▁oversize	-12.8669
hit	-12.8672
▁propel	-12.8673
▁soak	-12.8676
girl	-12.868
▁due	-12.8682
ba	-12.8687
through	-12.8688
organ	-12.8689
▁ad	-12.8697
▁mate	-12.8699
▁swirl	-12.87
▁observ	-12.8717
▁grade	-12.872
ubby	-12.8724
▁bean	-12.8731
band	-12.8734
▁pic	-12.8743
face	-12.8747
▁Pop	-12.8751
▁header	-12.8767
▁Bud	-12.8786
▁colleague	-12.88
▁geisha	-12.88
▁miniskirt	-12.8801
▁bea	-12.8806
▁rollerblade	-12.8809
▁divider	-12.8809
▁met	-12.8809
▁placard	-12.881
▁souvenir	-12.8811
ave	-12.8811
▁program	-12.8811
▁sucker	-12.8812
▁chandelier	-12.8812
▁plaque	-12.8812
▁pallet	-12.8813
▁reason	-12.8814
▁sunbathe	-12.8814
▁marshmallow	-12.8814
▁eyebrow	-12.8816
▁kabob	-12.8816
▁refreshment	-12.8816
▁bystander	-12.8816
▁handlebar	-12.8817
▁bulb	-12.8819
▁snowfall	-12.8823
▁grave	-12.8824
▁visitor	-12.8826
▁hunt	-12.8827
▁firework	-12.8829
▁shopper	-12.8831
▁Teenager	-12.8831
tri	-12.8832
▁decor	-12.8837
▁twirl	-12.8838
▁please	-12.8841
▁judg	-12.8849
▁pepper	-12.885
▁Toy	-12.885
▁hoe	-12.8851
end	-12.8852
▁headlight	-12.8855
▁brim	-12.8856
▁Hous	-12.8864
▁gentle	-12.8873
▁Domino	-12.8874
▁tux	-12.8875
▁affection	-12.8878
▁euro	-12.8879
▁delicate	-12.8879
olleyball	-12.8879
▁neighbor	-12.8879
Hollister	-12.8879
uiznos	-12.8879
▁Amsterdam	-12.8879
▁Carnival	-12.8879
▁Carolina	-12.8879
▁Citizen	-12.8879
▁Company	-12.8879
▁Cruz	-12.8879
▁Dalmatian	-12.8879
▁Michigan	-12.8879
▁Silhouette	-12.8879
▁Special	-12.8879
▁aerodynamic	-12.8879
▁amphitheater	-12.8879
▁boutique	-12.8879
▁custodian	-12.8879
▁description	-12.8879
▁didgeridoo	-12.8879
▁eclectic	-12.8879
▁festivities	-12.8879
▁flexibility	-12.8879
▁furnace	-12.8879
▁kangaroo	-12.8879
▁lagoon	-12.8879
▁muffin	-12.8879
▁outstreached	-12.8879
▁pharmacist	-12.8879
▁prosthetic	-12.8879
▁quintet	-12.8879
▁roulette	-12.8879
▁scrabble	-12.8879
▁sungalsses	-12.8879
▁synthesizer	-12.8879
▁triathlon	-12.8879
▁Club	-12.8879
▁Haiti	-12.8879
▁Needle	-12.8879
▁Pacific	-12.8879
▁Toronto	-12.8879
▁ashtray	-12.8879
▁cucumber	-12.8879
▁dumbbell	-12.8879
▁freedom	-12.8879
▁hookah	-12.8879
▁proclaim	-12.8879
▁queue	-12.8879
▁tapestry	-12.8879
▁celery	-12.8879
▁foosball	-12.8879
▁shroud	-12.8879
▁sideburns	-12.8879
▁tinsel	-12.8879
▁Dalmation	-12.8879
▁Pretty	-12.8879
▁marquee	-12.8879
▁Trader	-12.8879
▁minute	-12.8879
▁garish	-12.8879
▁teepee	-12.8879
▁wharf	-12.8879
▁literature	-12.8879
▁rhythm	-12.8879
▁disaster	-12.8879
▁partition	-12.8879
▁oboe	-12.8879
▁encounter	-12.8879
▁bookshelves	-12.8879
▁Metro	-12.8879
▁Winnie	-12.8879
▁corgi	-12.8879
▁affectionately	-12.8879
▁general	-12.8879
▁lampshade	-12.8879
▁Chinatown	-12.8879
▁ruler	-12.8879
▁bleeding	-12.8879
▁pizzeria	-12.8879
▁perfume	-12.8879
▁collage	-12.8879
▁signify	-12.8879
▁crude	-12.8879
▁aloft	-12.8879
▁Tiger	-12.8879
▁improvement	-12.8879
▁cherries	-12.8879
▁Wedding	-12.888
▁altar	-12.888
▁championship	-12.888
▁venture	-12.888
▁slinky	-12.888
▁contemporary	-12.888
▁strainer	-12.888
▁silverware	-12.888
▁judo	-12.888
▁treatment	-12.888
▁gracefully	-12.888
▁slush	-12.888
▁retro	-12.888
pposing	-12.888
▁wrinkle	-12.888
▁prisoner	-12.888
▁corporat	-12.8881
▁analyz	-12.8881
▁conceal	-12.8881
▁Guard	-12.8881
▁contently	-12.8881
▁obstruct	-12.8881
▁digger	-12.8881
▁Basket	-12.8881
▁smartly	-12.8881
▁response	-12.8881
▁qualit	-12.8881
▁florist	-12.8882
▁footpath	-12.8882
▁alien	-12.8882
▁excess	-12.8882
▁sparsely	-12.8882
▁reaction	-12.8882
▁fowl	-12.8882
▁triang	-12.8882
▁texas	-12.8882
▁Camel	-12.8883
▁felt	-12.8883
▁properly	-12.8883
▁Lab	-12.8883
▁waders	-12.8884
▁filter	-12.8884
▁underpass	-12.8884
▁electricity	-12.8886
▁anxiously	-12.8886
▁packaging	-12.8886
▁Lakers	-12.8886
▁saucer	-12.8887
▁investigating	-12.8887
▁Hero	-12.8888
▁percussionist	-12.8888
▁lapel	-12.8888
▁sunshade	-12.8889
▁modifie	-12.8889
kwon	-12.8889
▁jester	-12.889
▁snarling	-12.889
▁exist	-12.8891
dominant	-12.8892
▁placid	-12.8892
nual	-12.8892
▁paragliding	-12.8893
▁showroom	-12.8893
▁uniquely	-12.8893
▁pegs	-12.8894
▁Saint	-12.8895
▁partial	-12.8895
▁Capit	-12.8895
▁polar	-12.8896
▁Sister	-12.8896
▁demolished	-12.8896
▁Wine	-12.8896
▁equ	-12.8896
▁hitter	-12.8898
▁meander	-12.8898
▁salt	-12.8899
▁Cu	-12.89
▁flatten	-12.89
▁bushel	-12.89
play	-12.89
hungry	-12.8904
▁Olympian	-12.8904
▁mailboxes	-12.8905
▁Rollerblader	-12.8909
▁preservers	-12.8909
▁accompanying	-12.891
ackson	-12.8911
▁lenses	-12.8913
▁tango	-12.8913
▁pagoda	-12.8913
▁pristine	-12.8913
▁David	-12.8914
maran	-12.8916
▁Beatle	-12.8917
▁Life	-12.8917
▁supporters	-12.892
▁plushie	-12.8921
▁spectating	-12.8922
▁oval	-12.8923
▁mood	-12.8925
▁Yong	-12.8928
▁harvested	-12.8929
▁hollow	-12.8932
▁figurines	-12.8932
▁kerchief	-12.8934
▁loitering	-12.8935
▁marine	-12.8935
game	-12.8937
▁beef	-12.8937
▁pebbles	-12.894
irgin	-12.894
▁clips	-12.8942
▁teller	-12.8944
▁inspector	-12.8944
▁Monks	-12.8945
▁blinds	-12.8948
▁snowfalls	-12.8948
▁harle	-12.8949
ea	-12.8949
ehind	-12.895
▁twine	-12.8952
▁idly	-12.8952
▁headlights	-12.8953
▁skewers	-12.8955
▁tickl	-12.8955
ast	-12.8958
2"	-12.896
▁sidecar	-12.896
▁Guin	-12.8961
▁May	-12.8963
▁Art	-12.8966
▁gallon	-12.8969
▁cutouts	-12.897
▁crocheting	-12.8972
▁tipping	-12.8973
▁Hot	-12.8979
▁beanbags	-12.898
▁filed	-12.8985
▁reclined	-12.8987
▁Rob	-12.8988
▁burst	-12.899
▁blender	-12.899
▁spouts	-12.8991
▁bonnets	-12.8992
cap	-12.8995
▁polished	-12.8997
▁His	-12.9
▁date	-12.9001
▁battery	-12.9002
▁arrangements	-12.9005
▁plum	-12.9006
▁graduates	-12.9009
▁regular	-12.9011
▁styl	-12.9012
▁faint	-12.9013
▁smith	-12.9015
▁contestants	-12.9018
▁later	-12.9018
▁liner	-12.9018
each	-12.9018
▁pails	-12.9019
▁lin	-12.9019
▁fool	-12.9022
▁rehearse	-12.9023
▁22	-12.9028
▁Camera	-12.9028
▁Sport	-12.9035
▁sphere	-12.9035
olv	-12.9042
ain	-12.9043
▁burns	-12.9048
▁lollipops	-12.9052
bbing	-12.9053
▁headpiece	-12.9058
LE	-12.9059
▁glare	-12.9062
▁known	-12.9066
▁collaps	-12.907
ckab	-12.9071
▁wondering	-12.9076
▁Outdoors	-12.9077
▁comm	-12.908
▁dec	-12.9083
▁tears	-12.9085
▁zombies	-12.9088
▁beakers	-12.9092
▁bras	-12.9094
▁Hind	-12.9095
▁lease	-12.9098
▁vases	-12.9099
▁unfold	-12.9102
▁nibbl	-12.9107
▁Theater	-12.9109
▁caricatures	-12.9113
▁smocks	-12.9116
▁snowmobiles	-12.9117
▁wreath	-12.9118
▁idle	-12.9121
▁click	-12.9126
▁era	-12.9127
▁sparing	-12.9128
working	-12.913
▁messages	-12.9136
writ	-12.9141
plane	-12.9142
▁coached	-12.9146
▁cabinets	-12.9149
tie	-12.9151
▁attic	-12.9165
rching	-12.9168
necked	-12.9186
▁engrav	-12.9187
▁businesses	-12.9188
▁piling	-12.9194
▁automobiles	-12.9197
▁Spa	-12.9198
quin	-12.9202
rolling	-12.9206
▁plains	-12.9206
thy	-12.9212
▁eras	-12.9225
Skater	-12.9227
boat	-12.9229
ice	-12.9229
ern	-12.9229
▁Sleep	-12.923
▁blueish	-12.9232
▁elevators	-12.9233
ra	-12.9238
▁pla	-12.9242
▁assess	-12.9249
▁keg	-12.9254
ough	-12.9261
shi	-12.9263
▁grappl	-12.9266
▁Bear	-12.9273
▁actor	-12.9274
▁buns	-12.9279
▁sew	-12.9284
▁sailors	-12.9284
▁distribut	-12.9288
▁pencils	-12.9294
▁rickshaws	-12.9294
▁average	-12.9314
▁wands	-12.9318
▁je	-12.9322
training	-12.9338
resses	-12.9339
▁primar	-12.9341
ives	-12.9343
MP	-12.9344
▁Runn	-12.9352
▁vac	-12.9354
▁tablecloths	-12.9355
▁Fo	-12.9366
▁Shelt	-12.9373
▁scribbl	-12.9375
RO	-12.9376
▁rat	-12.9379
for	-12.9382
unny	-12.9388
▁distor	-12.9402
▁strain	-12.9402
▁bibs	-12.9403
▁stating	-12.9412
▁Minne	-12.9432
▁aloud	-12.9434
rock	-12.9437
▁highchairs	-12.9438
met	-12.9438
▁now	-12.9443
▁spectacle	-12.9445
sign	-12.9447
berry	-12.947
amper	-12.9478
EN	-12.9478
▁Bunch	-12.9493
▁dice	-12.9496
shing	-12.95
▁rad	-12.9508
proof	-12.9523
dance	-12.9524
oise	-12.9535
▁calls	-12.9547
▁elders	-12.9551
▁woodwork	-12.9555
▁obscure	-12.9555
▁avenue	-12.9567
▁imp	-12.9582
olate	-12.9584
▁tablet	-12.9586
dancing	-12.9588
stern	-12.9591
match	-12.9603
▁hate	-12.9609
▁dispens	-12.961
▁flats	-12.9611
▁stalls	-12.9615
▁till	-12.9626
▁wheelbarrows	-12.9627
scene	-12.963
ged	-12.9635
▁Mor	-12.9643
▁plume	-12.9647
▁reflections	-12.965
▁panting	-12.9658
▁exhibits	-12.9659
▁Sub	-12.966
boarder	-12.9688
ok	-12.9699
RE	-12.971
▁dam	-12.9713
▁skit	-12.9714
sitting	-12.9722
ude	-12.9725
▁mirrors	-12.9738
▁Tree	-12.9742
▁Gr	-12.9748
▁tails	-12.9771
▁dangle	-12.9774
▁trained	-12.9784
▁scann	-12.9792
▁wax	-12.9793
▁compl	-12.9797
▁sick	-12.9799
▁songs	-12.9822
▁thoughtful	-12.9824
▁patients	-12.9824
▁execut	-12.9828
▁choke	-12.983
▁bro	-12.986
▁Mac	-12.9866
ntly	-12.9879
▁Gree	-12.9879
▁min	-12.9887
▁blast	-12.9896
▁Pupp	-12.99
ler	-12.9901
▁rained	-12.9905
▁thro	-12.9905
▁glo	-12.991
bag	-12.9912
▁Bicycler	-12.9914
▁carton	-12.9917
▁Bru	-12.9929
▁pew	-12.9931
anned	-12.9932
thing	-12.9934
▁Fi	-12.9936
▁fran	-12.9937
▁ways	-12.9947
▁manager	-12.996
▁scarfs	-12.9965
carves	-12.9974
▁aid	-12.9981
▁tugg	-12.9982
ger	-12.9991
▁castles	-12.9999
▁automat	-12.9999
icken	-13.0002
hio	-13.0005
cked	-13.0009
tended	-13.0015
oo	-13.0018
▁impressi	-13.0022
▁wr	-13.0024
▁afro	-13.0025
mps	-13.0027
bet	-13.0036
afari	-13.0041
▁canno	-13.0045
athered	-13.0064
nished	-13.0072
▁u	-13.0072
rest	-13.0073
▁Is	-13.0073
▁unto	-13.0079
▁obscur	-13.0084
scar	-13.009
▁Mu	-13.0107
▁ignor	-13.011
▁hail	-13.0113
▁comical	-13.0119
gray	-13.0122
cuffs	-13.0124
▁Athlete	-13.0126
▁chi	-13.0139
▁nav	-13.0142
▁pea	-13.0144
▁propell	-13.0145
atches	-13.0147
ci	-13.0152
young	-13.0156
table	-13.0158
parent	-13.0166
ik	-13.0167
▁bucke	-13.0176
▁mac	-13.0182
paint	-13.0186
eeps	-13.0192
▁fare	-13.0196
holding	-13.0197
▁spun	-13.0204
▁bands	-13.0205
swallowing	-13.0222
pe	-13.0222
▁bodyboard	-13.0229
▁names	-13.0231
sm	-13.0236
▁rummag	-13.0251
tches	-13.0257
▁Live	-13.0264
▁actions	-13.0264
▁exp	-13.0278
▁sty	-13.0284
town	-13.0295
▁dodg	-13.0309
cake	-13.0319
▁manipulate	-13.032
▁wagons	-13.0321
bull	-13.0324
stre	-13.0336
rate	-13.0351
▁pou	-13.0354
cat	-13.0356
▁bared	-13.036
▁command	-13.0361
▁arrest	-13.0362
lift	-13.0363
grass	-13.0365
▁barbecues	-13.0367
lled	-13.0372
▁flights	-13.038
▁vari	-13.0392
eeling	-13.0394
▁utiliz	-13.0397
▁punt	-13.0411
throw	-13.0412
gym	-13.0413
▁prep	-13.0423
shir	-13.0423
verhead	-13.0424
itter	-13.0433
▁encourag	-13.0444
cafe	-13.0445
▁clubs	-13.045
▁Ka	-13.0459
rough	-13.0469
rical	-13.0488
rid	-13.0498
New	-13.0498
visible	-13.0504
frame	-13.0505
▁fu	-13.0506
▁ethnicit	-13.051
▁sm	-13.0512
lea	-13.0519
▁bathe	-13.0521
Shirt	-13.0522
oy	-13.053
ski	-13.0533
ES	-13.0537
lantern	-13.0541
beater	-13.0542
boxing	-13.0558
▁seed	-13.0562
lated	-13.0571
lt	-13.0572
naked	-13.0577
pie	-13.0578
▁boarded	-13.0579
▁volley	-13.0586
picker	-13.059
Welcome	-13.06
clothed	-13.0607
completed	-13.0611
buttoned	-13.0621
▁illuminat	-13.0636
▁mustaches	-13.0641
lanterns	-13.0653
▁Homel	-13.0656
ick	-13.0661
enice	-13.0666
viewed	-13.0667
ill	-13.0667
glider	-13.0678
iberty	-13.0683
▁cruis	-13.0698
oofy	-13.0724
inated	-13.0725
▁prom	-13.0737
▁soon	-13.0742
▁pace	-13.075
▁Mus	-13.0759
▁remain	-13.0763
▁inter	-13.0764
bound	-13.0766
ibbon	-13.0769
▁produc	-13.0771
suited	-13.0775
ddy	-13.0775
▁Ga	-13.0776
ockey	-13.0795
▁goggle	-13.0799
▁giggl	-13.0805
▁brake	-13.0808
▁biscuit	-13.0808
▁corset	-13.0808
usks	-13.0809
▁figurine	-13.0814
▁binocular	-13.0815
▁content	-13.0815
▁gam	-13.0815
▁Student	-13.0815
▁pretzel	-13.0816
▁condition	-13.0816
▁Scout	-13.0816
▁fingernail	-13.0816
▁fatigue	-13.0817
▁sunflower	-13.0817
▁donation	-13.0817
▁autograph	-13.0818
▁Lego	-13.082
▁drumstick	-13.0822
chi	-13.0822
▁report	-13.0831
▁bei	-13.0835
▁trial	-13.0838
▁sampl	-13.0838
▁fac	-13.0844
▁fram	-13.0852
atively	-13.0858
▁distract	-13.0864
▁delight	-13.0864
▁damage	-13.0869
▁Tab	-13.087
▁shingle	-13.0871
▁Speed	-13.0872
urgeons	-13.0872
▁anxious	-13.0877
uddhist	-13.0878
▁handicap	-13.0879
▁civil	-13.0879
▁engulf	-13.0879
▁President	-13.0879
▁prescription	-13.0879
Bienvenu	-13.0879
proxim	-13.0879
▁Atlanta	-13.0879
▁Baltimore	-13.0879
▁Barcelona	-13.0879
▁Butcher	-13.0879
▁Express	-13.0879
▁Illinois	-13.0879
▁Liverpool	-13.0879
▁Mustang	-13.0879
▁Oregon	-13.0879
▁Pepsi	-13.0879
▁Phoenix	-13.0879
▁Samsung	-13.0879
▁Wrestler	-13.0879
▁asparagus	-13.0879
▁casserole	-13.0879
▁cosmetics	-13.0879
▁crucifix	-13.0879
▁custody	-13.0879
▁decrepit	-13.0879
▁harpsichord	-13.0879
▁hawaii	-13.0879
▁inquisitive	-13.0879
▁majestic	-13.0879
▁maracas	-13.0879
▁opinion	-13.0879
▁paraphernalia	-13.0879
▁promenade	-13.0879
▁provocative	-13.0879
▁relationship	-13.0879
▁seamstress	-13.0879
▁sophisticated	-13.0879
▁spaniel	-13.0879
amurai	-13.0879
▁Derby	-13.0879
▁Hebrew	-13.0879
▁appreciat	-13.0879
▁depart	-13.0879
▁destroy	-13.0879
▁financial	-13.0879
▁secret	-13.0879
▁stucco	-13.0879
▁tranquil	-13.0879
▁Department	-13.0879
▁Odeon	-13.0879
▁Harley	-13.0879
▁breaststroke	-13.0879
▁president	-13.0879
▁shanty	-13.0879
▁Bronco	-13.0879
▁Grandfather	-13.0879
▁atrium	-13.0879
▁scythe	-13.0879
▁seductive	-13.0879
▁yarmulke	-13.0879
▁Arizona	-13.0879
▁butterflies	-13.0879
isitors	-13.0879
▁Pepper	-13.0879
▁elevation	-13.0879
▁goodbye	-13.0879
potties	-13.0879
▁Stitch	-13.0879
▁masonry	-13.0879
▁Golf	-13.0879
▁dealership	-13.0879
▁superior	-13.0879
▁Goalie	-13.0879
▁Western	-13.0879
▁conifer	-13.0879
▁request	-13.0879
▁heritage	-13.0879
▁bistro	-13.0879
HL	-13.0879
▁contortionist	-13.0879
uitton	-13.0879
▁Drummer	-13.0879
▁degree	-13.0879
▁stubble	-13.0879
▁expansive	-13.0879
▁zig	-13.0879
▁Cream	-13.0879
▁depot	-13.0879
▁futon	-13.0879
▁graveyard	-13.0879
▁funnel	-13.0879
▁icicle	-13.0879
▁stylist	-13.0879
▁Twenty	-13.0879
▁climate	-13.0879
▁saber	-13.0879
▁wrench	-13.0879
▁entangle	-13.0879
▁everybody	-13.0879
▁Smoke	-13.0879
▁masterpiece	-13.0879
▁portfolio	-13.0879
▁wristwatch	-13.0879
▁sleek	-13.0879
▁Winter	-13.0879
▁Kenya	-13.0879
▁peasant	-13.0879
▁aviator	-13.088
▁Keep	-13.088
▁sweatband	-13.088
▁gesticulates	-13.088
▁jelly	-13.088
▁jesus	-13.088
▁careful	-13.088
▁Priest	-13.088
▁remember	-13.088
▁murder	-13.088
▁successfully	-13.088
▁stereo	-13.088
▁vows	-13.088
▁eyelashes	-13.088
nderground	-13.088
ystanders	-13.088
▁bedspread	-13.088
▁urinal	-13.088
▁penalt	-13.088
▁headbutt	-13.088
▁biology	-13.088
▁wiener	-13.088
Barney	-13.088
▁Sailor	-13.088
▁freckled	-13.0881
▁Third	-13.0881
▁wrought	-13.0881
▁refuse	-13.0881
▁whizz	-13.0881
▁glassware	-13.0881
▁flapping	-13.0881
aneous	-13.0881
▁pillowcase	-13.0882
▁loaves	-13.0882
▁chestnut	-13.0882
▁curry	-13.0882
▁residence	-13.0882
▁dalmatian	-13.0882
▁furiously	-13.0882
▁Odd	-13.0882
▁Gaza	-13.0882
▁corndogs	-13.0883
empt	-13.0883
▁Dame	-13.0883
▁Merry	-13.0884
▁adventurous	-13.0884
▁soloist	-13.0884
▁brook	-13.0884
▁Belly	-13.0884
▁measurement	-13.0884
▁skyward	-13.0885
▁Colorfully	-13.0885
▁medicine	-13.0885
▁knob	-13.0885
▁Barbie	-13.0885
▁Surround	-13.0885
▁batteries	-13.0885
▁moderate	-13.0885
▁cannonball	-13.0886
▁dollies	-13.0886
▁Welder	-13.0886
▁Christ	-13.0887
▁crocs	-13.0887
▁viking	-13.0887
▁oxford	-13.0887
▁clippers	-13.0888
▁elegantly	-13.0888
▁ivy	-13.0888
▁distressed	-13.0888
▁chairlift	-13.0888
▁lecturing	-13.0888
▁gauges	-13.0888
▁Angels	-13.0889
▁squid	-13.089
▁schoolwork	-13.089
▁tabby	-13.089
▁erect	-13.0891
▁feast	-13.0891
▁midway	-13.0892
FL	-13.0892
▁strait	-13.0893
▁sandbox	-13.0893
▁Field	-13.0894
▁Sam	-13.0894
▁claim	-13.0894
▁Chase	-13.0894
▁saver	-13.0895
▁enjoyment	-13.0896
orah	-13.0896
▁contemplative	-13.0896
▁supervised	-13.0897
zy	-13.0897
blond	-13.0898
▁regrets	-13.0898
▁waterproof	-13.0898
▁prepp	-13.0901
▁insert	-13.0901
▁communications	-13.0901
▁effects	-13.0902
▁condiments	-13.0902
▁illustrat	-13.0902
▁happened	-13.0903
▁sketches	-13.0906
▁smirking	-13.0907
▁technic	-13.0907
▁breastfeeding	-13.0908
fiving	-13.0908
▁reef	-13.0909
▁inflating	-13.0909
▁election	-13.0909
▁bonding	-13.091
▁Year	-13.091
▁deaths	-13.091
▁north	-13.091
▁sledge	-13.0911
▁eyepiece	-13.0911
▁whips	-13.0911
▁insurance	-13.0912
▁wolf	-13.0913
tual	-13.0914
▁spindle	-13.0914
mous	-13.0915
▁Capris	-13.0916
▁Donald	-13.0918
▁develop	-13.0919
▁Pooh	-13.092
▁syrup	-13.092
▁rodent	-13.092
▁Russel	-13.092
▁immigration	-13.092
▁National	-13.0921
▁twigs	-13.0923
▁Face	-13.0923
▁Bill	-13.0924
mpact	-13.0924
▁pork	-13.0925
issan	-13.0927
▁history	-13.0928
▁incomplete	-13.0929
▁Shake	-13.093
▁slim	-13.0933
▁Ru	-13.0935
▁Beer	-13.0935
▁checker	-13.0936
▁Actors	-13.0936
▁Our	-13.0936
▁Spring	-13.0937
▁tumbles	-13.0939
▁handcuffs	-13.0939
eague	-13.0942
▁spinner	-13.0943
▁instructed	-13.0944
▁inspir	-13.0944
▁Dora	-13.0945
▁CDs	-13.0946
▁blaz	-13.0948
▁duct	-13.095
clear	-13.0952
▁swarm	-13.0954
▁com	-13.0955
▁pausing	-13.0956
▁discovers	-13.0956
▁receiver	-13.0959
▁videotaped	-13.096
▁chandeliers	-13.0961
▁Diner	-13.0961
▁Grandm	-13.0962
▁underway	-13.0967
▁raceway	-13.0969
▁shredd	-13.097
▁stew	-13.0971
▁snooze	-13.0972
▁huddling	-13.0972
ghett	-13.0973
▁Toys	-13.0975
▁CD	-13.0975
▁kickboxers	-13.0976
▁Sing	-13.0978
▁dapple	-13.0978
▁role	-13.098
▁Boats	-13.098
▁promotion	-13.0981
▁loader	-13.0982
▁mission	-13.0983
▁spills	-13.0985
▁crook	-13.0986
▁involve	-13.0987
▁centr	-13.0987
▁pelicans	-13.099
▁incredibl	-13.0997
▁motorist	-13.0999
OR	-13.1
▁pearls	-13.1001
▁duet	-13.1002
▁cutter	-13.1004
▁textiles	-13.1005
▁linens	-13.1005
▁cubes	-13.1006
▁pierc	-13.101
▁paraglide	-13.1012
▁thinks	-13.1013
▁celebrated	-13.1013
▁Kill	-13.1013
elf	-13.1015
▁Top	-13.1018
▁glows	-13.1019
▁warriors	-13.102
titled	-13.1021
▁mint	-13.1025
▁nations	-13.1028
▁llamas	-13.1034
▁mushrooms	-13.1035
▁voic	-13.1035
▁airfield	-13.1038
▁acrobats	-13.1039
▁tatoo	-13.1044
▁thong	-13.1044
▁winners	-13.1045
yant	-13.1046
▁quarters	-13.1046
▁penguins	-13.105
▁uni	-13.1052
indow	-13.1056
arch	-13.1063
▁Com	-13.1063
▁fumble	-13.1063
rmen	-13.1064
▁brochures	-13.1065
▁fern	-13.1077
▁cylinders	-13.1081
▁reporters	-13.1081
year	-13.1089
ax	-13.109
▁designe	-13.1092
▁captiv	-13.1095
▁Ca	-13.1096
▁welders	-13.1096
yard	-13.1099
▁Bare	-13.1099
▁illuminate	-13.1101
stage	-13.1103
suzu	-13.1108
ja	-13.1109
▁pebble	-13.111
▁hairnets	-13.1111
▁cough	-13.1116
▁binders	-13.1122
▁Dodge	-13.1132
toned	-13.1132
▁recorded	-13.1136
▁fri	-13.1137
▁signaling	-13.1138
▁Hood	-13.1141
▁inflate	-13.1143
▁slate	-13.1145
▁AID	-13.1148
▁coil	-13.115
▁grove	-13.1151
▁selections	-13.1154
▁THE	-13.116
▁negotiate	-13.116
▁Rail	-13.1168
▁kittens	-13.1168
rapper	-13.117
ied	-13.1171
▁Pum	-13.1174
ering	-13.1178
▁archaeologist	-13.1184
▁linger	-13.1191
▁holders	-13.1192
▁barbe	-13.1195
vi	-13.1198
▁billow	-13.1198
azon	-13.1211
▁roofs	-13.1212
▁Husk	-13.1213
▁mules	-13.1214
▁seesaws	-13.1215
▁sco	-13.1216
attooed	-13.1224
▁creamer	-13.1227
▁lava	-13.1233
▁mimes	-13.1235
▁attendants	-13.1246
▁potty	-13.1252
latino	-13.1253
▁turtles	-13.1255
▁joint	-13.1263
NA	-13.1264
▁ask	-13.1266
▁explorer	-13.1267
▁lump	-13.1269
▁graz	-13.1274
▁Rica	-13.1274
▁wea	-13.1277
▁Pen	-13.1278
▁gro	-13.1279
▁linked	-13.128
mmel	-13.1287
hihuahua	-13.1287
try	-13.1295
oles	-13.13
▁lose	-13.131
▁furnish	-13.1313
▁afar	-13.133
▁parasurf	-13.1334
ING	-13.1339
▁Sh	-13.1342
▁LA	-13.1347
▁puppets	-13.135
▁holidays	-13.1351
▁skins	-13.136
▁King	-13.1366
low	-13.1369
▁Statu	-13.1376
hous	-13.1387
▁bobb	-13.1389
▁utilize	-13.139
▁Scen	-13.1398
use	-13.1403
ces	-13.1412
▁cent	-13.1415
▁fins	-13.1416
▁planted	-13.1417
▁snuggle	-13.1418
▁Only	-13.1419
▁suburbs	-13.1422
▁kn	-13.1435
▁choose	-13.1439
▁pav	-13.1444
▁cor	-13.1446
rries	-13.145
ompetitive	-13.1463
▁Again	-13.1467
▁slu	-13.1469
▁recreate	-13.1471
ritish	-13.1483
▁ranger	-13.1485
▁Steve	-13.1495
ced	-13.1503
▁dri	-13.1504
▁battles	-13.1504
ond	-13.1506
▁giggle	-13.151
▁Levi	-13.1512
aisle	-13.1529
ease	-13.1548
who	-13.1551
▁shove	-13.1551
▁patti	-13.1554
abby	-13.1559
▁tread	-13.1559
▁marbles	-13.1583
▁parachuti	-13.1586
▁targets	-13.1593
▁frost	-13.1597
▁poi	-13.1602
▁ly	-13.1603
▁scrub	-13.1614
▁Phil	-13.1616
cious	-13.162
next	-13.1623
▁churn	-13.1629
▁angles	-13.1632
▁mechanics	-13.1633
▁cit	-13.1635
▁donate	-13.1643
▁cam	-13.1649
vid	-13.1653
dress	-13.1655
▁renovat	-13.166
▁controlle	-13.1666
aura	-13.1666
ari	-13.1667
andom	-13.1668
▁handrails	-13.1674
mat	-13.1689
ham	-13.169
ext	-13.1695
pets	-13.1698
▁grace	-13.17
▁Hands	-13.1701
ane	-13.1708
▁ignore	-13.1712
ible	-13.1714
▁Fed	-13.1714
▁rower	-13.1719
ripping	-13.172
▁Shep	-13.1729
▁unk	-13.1731
▁grou	-13.1739
▁expose	-13.1743
▁pian	-13.1753
culi	-13.1768
olding	-13.1769
▁movies	-13.1784
tter	-13.1785
arm	-13.1798
▁rub	-13.1804
▁cellos	-13.1809
opless	-13.1809
aught	-13.1821
unches	-13.1832
une	-13.1838
▁Inter	-13.1847
▁screened	-13.185
▁televisions	-13.1859
▁ki	-13.1862
watch	-13.1874
pack	-13.1911
▁readi	-13.1922
▁elev	-13.1926
ecurity	-13.193
▁curl	-13.1943
▁Bi	-13.1961
▁ledges	-13.1962
rts	-13.1987
cific	-13.1991
▁showers	-13.2
▁crim	-13.2015
▁Dan	-13.2019
cons	-13.2022
postal	-13.203
loved	-13.2033
▁Kite	-13.205
▁swallow	-13.2051
em	-13.2052
▁Ta	-13.2057
ggling	-13.207
dden	-13.2076
▁fences	-13.2077
ordina	-13.2078
oth	-13.208
ugby	-13.2081
▁platforms	-13.2083
▁stein	-13.209
scribe	-13.2093
▁bas	-13.2098
ridge	-13.2099
▁Care	-13.2114
team	-13.213
▁Hand	-13.2132
▁cra	-13.2136
▁snowmen	-13.215
▁Papa	-13.2152
▁chipp	-13.216
roof	-13.2162
▁colo	-13.2163
▁siding	-13.2167
elly	-13.2174
▁Fly	-13.2181
Th	-13.2192
▁Swi	-13.2195
za	-13.2196
▁seconds	-13.2199
lected	-13.2201
cing	-13.2205
▁rescuer	-13.2207
ER	-13.2224
▁waists	-13.2226
group	-13.2235
▁celebrat	-13.2244
ows	-13.2266
skirt	-13.2268
▁beg	-13.2279
▁par	-13.228
▁stri	-13.2288
▁singlet	-13.229
▁pats	-13.2307
unt	-13.2314
▁Dal	-13.2325
▁han	-13.2329
bb	-13.2335
▁sk	-13.234
well	-13.2344
▁Rocks	-13.2351
▁tagg	-13.2357
anda	-13.236
cast	-13.2362
ptu	-13.2364
▁gl	-13.2364
▁Nu	-13.2366
▁actress	-13.2369
▁Po	-13.2372
bu	-13.2381
am	-13.2384
▁showgirl	-13.2401
decorated	-13.2411
▁Perform	-13.2423
rick	-13.2424
▁Chan	-13.2426
▁Bur	-13.2441
hockey	-13.2444
both	-13.2445
▁ally	-13.2453
▁Da	-13.2461
▁cascad	-13.2461
izing	-13.2461
aps	-13.2478
▁Cat	-13.2499
corner	-13.2503
rider	-13.2516
gear	-13.2533
tch	-13.254
▁hos	-13.2545
▁pear	-13.2546
▁carriages	-13.2552
▁bask	-13.2563
▁oppose	-13.2574
pads	-13.2582
shake	-13.2584
▁congratulat	-13.2589
▁kne	-13.2592
crobatic	-13.2593
nce	-13.2603
born	-13.2606
PD	-13.2614
cated	-13.2618
▁fre	-13.2631
▁Stev	-13.2646
ac	-13.2648
▁fillet	-13.2648
endar	-13.2649
ock	-13.2654
dropped	-13.2657
▁capped	-13.2672
▁fore	-13.2682
ched	-13.2684
skiing	-13.2684
orning	-13.2686
▁circl	-13.2697
▁stru	-13.27
cent	-13.2701
special	-13.2716
ader	-13.2722
▁mouthed	-13.2734
▁attache	-13.2745
▁tre	-13.2747
▁signed	-13.276
▁snowing	-13.2769
vested	-13.2771
bins	-13.2774
▁corr	-13.2785
▁pollut	-13.2787
▁referenc	-13.2789
NE	-13.2792
oggers	-13.2798
▁styles	-13.2809
traffic	-13.2817
▁knot	-13.2825
blowing	-13.2837
▁crews	-13.2848
▁Wh	-13.2855
cock	-13.286
building	-13.2869
▁sc	-13.288
▁packe	-13.2887
▁Die	-13.2891
stomp	-13.2901
▁Bat	-13.2913
ngry	-13.2917
shaven	-13.2919
▁withdraw	-13.2926
▁cola	-13.2932
ab	-13.2955
key	-13.2959
▁perus	-13.2969
▁longer	-13.2982
CE	-13.2982
▁forth	-13.2989
gg	-13.3001
▁slum	-13.3003
aw	-13.3017
boards	-13.3022
mark	-13.3027
▁Fir	-13.3032
lue	-13.3037
world	-13.3042
punk	-13.3047
Work	-13.3056
▁News	-13.3057
▁eject	-13.3057
urance	-13.3061
maker	-13.3063
historic	-13.3064
▁introduc	-13.3066
▁Who	-13.307
clock	-13.3073
▁orang	-13.3078
marked	-13.3088
Love	-13.3088
▁scan	-13.309
riders	-13.3097
vaulting	-13.3097
▁suspen	-13.3103
East	-13.3104
loses	-13.3105
doors	-13.3105
NY	-13.311
rows	-13.3112
linked	-13.3114
cultural	-13.3116
ord	-13.3118
ho	-13.312
▁intrigue	-13.3121
something	-13.3123
▁swe	-13.3125
▁trike	-13.3128
▁Bol	-13.3133
lks	-13.3148
tender	-13.315
▁somewh	-13.3151
opened	-13.3158
lock	-13.3158
ak	-13.3159
innie	-13.3162
SS	-13.3169
Cub	-13.317
drive	-13.318
▁Camp	-13.3181
ise	-13.3184
▁Fu	-13.32
bal	-13.3201
▁plot	-13.3206
▁discus	-13.3213
eight	-13.3219
formally	-13.3219
suit	-13.3221
▁Ori	-13.3224
▁varie	-13.3229
▁futur	-13.323
opped	-13.3235
hol	-13.3237
string	-13.3243
ancy	-13.3252
ssy	-13.3258
▁Pan	-13.3258
▁code	-13.3264
▁overtake	-13.3266
styled	-13.3271
fitting	-13.3272
iolinist	-13.3275
city	-13.3275
▁Office	-13.3278
park	-13.3283
▁less	-13.3294
▁busk	-13.3295
▁juggle	-13.3299
▁pendant	-13.3301
▁respect	-13.3303
▁embl	-13.3305
▁Short	-13.3307
▁gutter	-13.3311
▁Cr	-13.3312
▁handcuff	-13.3312
▁Pedestrian	-13.3314
▁preserve	-13.3315
▁posses	-13.3315
▁utensil	-13.3315
▁Starbuck	-13.3316
▁billiard	-13.3316
▁poem	-13.3317
▁consumer	-13.332
▁mono	-13.3324
pane	-13.3325
▁twig	-13.3326
▁specta	-13.3327
▁accompany	-13.333
▁whisper	-13.3332
but	-13.3332
▁applaud	-13.3333
▁hydra	-13.3336
▁demoli	-13.3343
ears	-13.3349
▁grape	-13.335
raffic	-13.3358
enta	-13.3361
▁grassland	-13.3364
ripe	-13.3367
▁danger	-13.3367
▁archaeologi	-13.3369
▁accordi	-13.3373
▁cylind	-13.3374
▁refrigerat	-13.3377
▁crayo	-13.3377
▁passionate	-13.3377
▁graceful	-13.3377
▁Prince	-13.3378
▁brunet	-13.3378
▁difficult	-13.3378
▁ecstatic	-13.3379
▁Euro	-13.3379
▁Kawasaki	-13.3379
▁luxur	-13.3379
▁reluctant	-13.3379
HSBC	-13.3379
Maritim	-13.3379
▁AstroTurf	-13.3379
▁Cadillac	-13.3379
▁Church	-13.3379
▁Corona	-13.3379
▁Dolphin	-13.3379
▁Einstein	-13.3379
▁Helmeted	-13.3379
▁Kingdom	-13.3379
▁Magazine	-13.3379
▁Major	-13.3379
▁McCain	-13.3379
▁Nesquik	-13.3379
▁Reporter	-13.3379
▁Seahawks	-13.3379
▁Springsteen	-13.3379
▁Warrior	-13.3379
▁alcove	-13.3379
▁bunnies	-13.3379
▁centipede	-13.3379
▁clergy	-13.3379
▁companies	-13.3379
▁crevasse	-13.3379
▁culvert	-13.3379
▁determination	-13.3379
▁elliptical	-13.3379
▁enthusiasm	-13.3379
▁equations	-13.3379
▁galoshes	-13.3379
▁hummingbird	-13.3379
▁indeterminate	-13.3379
▁interpret	-13.3379
▁jacuzzi	-13.3379
▁journey	-13.3379
▁librarian	-13.3379
▁marionette	-13.3379
▁memorabilia	-13.3379
▁perpendicular	-13.3379
▁quantit	-13.3379
▁restaraunt	-13.3379
▁rotisserie	-13.3379
▁rucksack	-13.3379
▁schedule	-13.3379
▁thoroughfare	-13.3379
▁velodrome	-13.3379
▁Madrid	-13.3379
▁Orchestra	-13.3379
▁Parkinson	-13.3379
▁accomplish	-13.3379
▁inscription	-13.3379
▁mysterious	-13.3379
▁pheasant	-13.3379
▁submarine	-13.3379
▁ventilat	-13.3379
descript	-13.3379
▁disgust	-13.3379
▁frizzy	-13.3379
▁grungy	-13.3379
▁spigot	-13.3379
▁thoroughly	-13.3379
▁whimsical	-13.3379
▁Portland	-13.3379
▁Sallie	-13.3379
▁cabbage	-13.3379
▁collision	-13.3379
▁anorak	-13.3379
▁auburn	-13.3379
▁nuzzling	-13.3379
▁segment	-13.3379
▁lavish	-13.3379
▁trampled	-13.3379
▁website	-13.3379
▁charades	-13.3379
▁Country	-13.3379
▁cottage	-13.3379
▁messaging	-13.3379
▁significant	-13.3379
▁Cheese	-13.3379
▁shoelaces	-13.3379
▁visual	-13.3379
▁psych	-13.3379
▁sarong	-13.3379
▁Hopper	-13.3379
▁Orphans	-13.3379
▁exhaustion	-13.3379
▁genie	-13.3379
▁burka	-13.3379
▁suspect	-13.3379
▁generator	-13.3379
▁Carmel	-13.3379
▁abdomen	-13.3379
▁buttocks	-13.3379
▁Castro	-13.3379
▁depth	-13.3379
▁fingertips	-13.3379
▁vineyard	-13.3379
▁terrorist	-13.3379
▁development	-13.3379
▁concourse	-13.3379
▁scuffle	-13.3379
▁ecstatically	-13.3379
▁london	-13.3379
▁dreary	-13.3379
▁Sunday	-13.3379
▁terra	-13.3379
asmine	-13.3379
▁Demonstrator	-13.3379
▁lumberjack	-13.3379
▁satisf	-13.3379
▁executive	-13.3379
▁Pakistani	-13.3379
▁grandpa	-13.3379
▁violently	-13.3379
▁confrontation	-13.3379
▁jaywalk	-13.3379
▁Classic	-13.3379
▁Smart	-13.338
▁occurred	-13.338
▁Goofy	-13.338
▁grandparents	-13.338
▁wreckage	-13.338
▁script	-13.338
▁cosplayers	-13.338
▁Pipe	-13.338
▁cacti	-13.338
▁meditation	-13.338
▁cleaver	-13.338
▁apex	-13.338
▁Phone	-13.338
▁swordfish	-13.338
▁checkpoint	-13.338
▁Shack	-13.338
▁eviden	-13.338
▁cavern	-13.338
▁adopt	-13.338
▁Front	-13.338
▁instrumentalist	-13.338
▁crossword	-13.338
▁authority	-13.3381
▁erupt	-13.3381
▁cautious	-13.3381
▁pestle	-13.3381
▁newscaster	-13.3381
▁Maker	-13.3381
▁candlelight	-13.3381
▁gavel	-13.3381
▁unidentifiable	-13.3381
▁lunchbox	-13.3381
HELL	-13.3381
▁tavern	-13.3381
▁toolbox	-13.3381
▁International	-13.3381
▁forehand	-13.3381
▁gnarl	-13.3381
Frog	-13.3381
▁affixed	-13.3381
▁soundboard	-13.3381
▁daddy	-13.3382
▁County	-13.3382
▁voting	-13.3382
▁zipline	-13.3382
▁nursery	-13.3382
▁bicep	-13.3382
▁mussel	-13.3382
▁german	-13.3382
▁email	-13.3382
▁squash	-13.3382
▁recoil	-13.3383
▁juke	-13.3383
▁Reflection	-13.3383
▁chanting	-13.3383
DAY	-13.3383
▁framework	-13.3383
▁unitard	-13.3383
▁beech	-13.3384
▁breezeway	-13.3384
▁Force	-13.3384
▁Argentina	-13.3384
▁Bob	-13.3384
▁bareback	-13.3384
▁panties	-13.3384
▁Lounge	-13.3384
▁uncomfortable	-13.3384
▁travelling	-13.3384
▁seahorse	-13.3384
▁rectangle	-13.3384
▁loafers	-13.3384
▁vanity	-13.3385
▁Trash	-13.3385
▁amusing	-13.3385
▁trowel	-13.3385
▁Dead	-13.3385
▁posture	-13.3386
▁micro	-13.3386
▁dwelling	-13.3386
▁feild	-13.3386
▁boiled	-13.3386
▁interaction	-13.3387
▁fryer	-13.3387
▁astonish	-13.3387
▁bleache	-13.3388
▁fanned	-13.3388
▁dawn	-13.3388
▁cloudless	-13.3388
▁overloaded	-13.3388
▁Lex	-13.3389
▁suv	-13.3389
▁gateway	-13.3389
▁videographer	-13.3389
▁Swan	-13.339
▁footrace	-13.339
▁snowflakes	-13.339
▁nostrils	-13.339
▁tortillas	-13.339
▁Packers	-13.339
▁Crafts	-13.339
▁skatepark	-13.3391
▁bolts	-13.3391
▁freckles	-13.3391
▁Climbing	-13.3391
▁risers	-13.3391
▁kiln	-13.3391
▁fanning	-13.3392
▁intricately	-13.3392
▁winks	-13.3392
▁Tired	-13.3393
▁porc	-13.3393
IF	-13.3393
▁goodies	-13.3394
▁erected	-13.3394
Cyclone	-13.3394
▁passion	-13.3394
▁scowls	-13.3394
▁worshipers	-13.3395
▁headphone	-13.3395
▁data	-13.3396
sault	-13.3396
▁drug	-13.3397
▁loft	-13.3398
▁contorted	-13.3399
▁Human	-13.34
▁reenact	-13.34
▁sideshow	-13.34
▁asia	-13.34
▁fronds	-13.34
▁wounds	-13.34
▁representative	-13.3401
▁howling	-13.3402
▁smashed	-13.3404
▁original	-13.3405
▁parties	-13.3405
▁explode	-13.3405
▁sharply	-13.3407
▁stitching	-13.3407
▁embroidery	-13.341
▁debat	-13.3411
▁melon	-13.3411
▁skywalk	-13.3411
▁throne	-13.3412
▁Shadow	-13.3413
▁thousands	-13.3413
▁Barber	-13.3414
▁forestry	-13.3414
▁conducted	-13.3415
▁broadcast	-13.3415
▁faith	-13.3416
▁burrow	-13.3417
▁numeral	-13.3419
▁Cubs	-13.342
▁piping	-13.3421
▁smoothies	-13.3421
hur	-13.3421
▁Crouch	-13.3422
▁Barefooted	-13.3423
▁Sari	-13.3424
njoying	-13.3425
▁ID	-13.3427
▁shrugs	-13.3427
▁amputee	-13.3427
▁smirks	-13.3428
aguar	-13.3428
▁pinwheels	-13.3428
▁gadgets	-13.3428
▁appliances	-13.3428
▁Participants	-13.3428
▁clump	-13.3429
▁Wow	-13.3429
▁suites	-13.3429
▁Tye	-13.343
▁vial	-13.343
▁comedian	-13.343
▁Hugs	-13.3431
▁Mongol	-13.3432
▁depressed	-13.3432
▁mandolin	-13.3432
▁thrust	-13.3432
▁Aladdin	-13.3432
▁orthodo	-13.3433
▁swirls	-13.3433
▁unfolds	-13.3433
▁wicket	-13.3434
▁Cold	-13.3435
▁Bubble	-13.3435
▁Mary	-13.3436
▁respectively	-13.3437
acial	-13.3437
▁combed	-13.3438
▁mache	-13.3439
IL	-13.3439
Playboy	-13.3439
▁phrase	-13.344
▁shaver	-13.3441
▁trooper	-13.3442
▁Hart	-13.3442
▁allowed	-13.3442
▁vocals	-13.3443
▁purpose	-13.3444
▁reptile	-13.3444
▁timeout	-13.3444
▁barrette	-13.3445
▁remaining	-13.3446
▁consumers	-13.3446
▁enth	-13.3447
▁Room	-13.3447
▁kickball	-13.3448
▁preserves	-13.345
▁Politic	-13.345
▁interlock	-13.3451
▁shear	-13.3452
▁cosplay	-13.3452
▁Dar	-13.3453
NG	-13.3456
▁possess	-13.3459
▁Dave	-13.3459
▁concern	-13.346
alking	-13.3462
can	-13.3464
▁sledder	-13.3466
talian	-13.3467
▁advertised	-13.3469
▁detain	-13.3469
▁def	-13.3471
▁cordon	-13.3473
▁Newly	-13.3478
▁pok	-13.3479
very	-13.3479
▁compress	-13.3482
▁yolk	-13.3483
▁pallets	-13.3484
▁plaques	-13.3486
▁programs	-13.3486
▁souvenirs	-13.3487
▁Airplane	-13.3487
▁tailgating	-13.3487
▁Cup	-13.3488
▁submissi	-13.3488
▁cu	-13.349
creaming	-13.3494
▁intent	-13.3496
▁Painter	-13.3496
▁stems	-13.3497
▁slippers	-13.35
▁ideas	-13.3501
▁inspiration	-13.3503
▁funeral	-13.3506
▁fireball	-13.3506
llowing	-13.3507
▁cartons	-13.3507
▁commuters	-13.3508
▁booklets	-13.351
▁blindfolds	-13.3512
▁Alaska	-13.3514
▁Che	-13.3514
▁finals	-13.3514
▁crackers	-13.3516
specifi	-13.3519
▁Peter	-13.3522
▁retire	-13.3524
▁magnet	-13.3524
▁tomb	-13.3525
ium	-13.3525
▁Gardens	-13.3525
▁menacing	-13.3525
errible	-13.3526
trum	-13.3528
▁packet	-13.3531
occe	-13.3532
berg	-13.3532
▁bouncer	-13.3532
blading	-13.3533
▁enthusiasts	-13.3535
▁sloth	-13.3535
▁oak	-13.3536
▁streamer	-13.3538
▁Mime	-13.3538
link	-13.3538
▁Gas	-13.354
tree	-13.354
▁saucers	-13.3542
▁eaten	-13.3545
▁canine	-13.3548
▁playroom	-13.3549
▁ri	-13.3552
ledge	-13.3553
▁gears	-13.3553
▁Tea	-13.3553
▁Grill	-13.3553
▁huddl	-13.3557
▁creations	-13.3559
▁consoles	-13.356
wis	-13.3562
stop	-13.3563
▁sprayer	-13.3563
▁coworkers	-13.3566
tilts	-13.3567
▁riverside	-13.3571
▁screw	-13.3573
▁Kick	-13.3577
▁whip	-13.3582
cell	-13.3589
ame	-13.3594
strate	-13.3595
▁prices	-13.3599
▁Tube	-13.36
▁sights	-13.3605
▁thank	-13.3609
▁insects	-13.3609
▁Hug	-13.3618
▁sax	-13.362
reading	-13.3624
▁hairstyles	-13.3625
▁ollies	-13.3626
▁arra	-13.3634
▁Cher	-13.3639
▁purchased	-13.3645
llen	-13.3649
▁titled	-13.365
▁residents	-13.3659
▁na	-13.366
▁vers	-13.366
▁mason	-13.367
▁sid	-13.3673
▁Fam	-13.3676
▁jew	-13.3676
▁tunics	-13.3677
▁suspend	-13.3686
▁days	-13.3687
orm	-13.3688
▁anchors	-13.3691
unky	-13.3691
▁tender	-13.3695
▁procedures	-13.3704
▁pane	-13.3711
▁meters	-13.3712
▁questioning	-13.3714
▁doghouse	-13.3715
ses	-13.3716
▁Paint	-13.3716
▁provider	-13.3717
▁swa	-13.3717
rocks	-13.372
▁headless	-13.3723
▁Kl	-13.3732
▁cushions	-13.3736
razy	-13.3737
▁app	-13.374
▁mallets	-13.3744
▁sponsors	-13.3749
▁reform	-13.3749
▁clamp	-13.376
▁Germany	-13.3761
▁attractions	-13.3762
▁concessions	-13.3763
▁mart	-13.3765
vial	-13.3765
▁barge	-13.3773
▁week	-13.3778
▁dra	-13.378
▁stout	-13.3786
▁paneling	-13.3789
▁Photograph	-13.3791
ohns	-13.3798
▁Audience	-13.3798
▁Schoolgirl	-13.38
▁Fashion	-13.38
▁Frisbees	-13.3802
bs	-13.3803
beam	-13.3805
▁imitate	-13.381
▁tabletop	-13.3816
▁tonight	-13.3822
▁rollerbladers	-13.3827
▁Afro	-13.3832
▁petition	-13.3836
gue	-13.3838
▁Foods	-13.384
rod	-13.384
▁heights	-13.384
▁veils	-13.3841
▁aside	-13.3853
▁fas	-13.3861
▁Machin	-13.3871
fender	-13.3872
▁cli	-13.3874
onnie	-13.3875
ncle	-13.3883
▁xylophones	-13.3885
▁Action	-13.3887
icing	-13.3894
ism	-13.3898
▁groin	-13.3902
▁circuits	-13.3902
▁docks	-13.3909
sks	-13.3919
▁showcase	-13.3921
▁inspected	-13.3929
▁drapes	-13.393
▁expo	-13.393
fighting	-13.3938
▁flare	-13.3941
oid	-13.3941
▁lama	-13.3942
children	-13.3944
worker	-13.3947
▁sanit	-13.3952
▁Mix	-13.3957
▁Pr	-13.3957
▁hooker	-13.396
▁batch	-13.3966
▁conclu	-13.3968
▁spotter	-13.3968
▁untangle	-13.3969
inner	-13.3969
trical	-13.3975
▁ven	-13.3976
▁vocal	-13.3978
▁snorkeler	-13.3982
▁brownies	-13.3982
▁archways	-13.3984
▁treadmills	-13.3984
moving	-13.3984
IG	-13.3991
lurry	-13.3992
come	-13.3995
▁bac	-13.4001
▁allow	-13.4001
▁admi	-13.4004
pool	-13.4007
▁daff	-13.401
▁chev	-13.401
▁busker	-13.4012
▁des	-13.4018
▁burner	-13.4019
fest	-13.4023
now	-13.4025
ken	-13.4028
eaded	-13.4035
▁Balle	-13.4043
▁mag	-13.4044
▁Fast	-13.4048
ume	-13.4058
▁Ind	-13.4063
from	-13.4065
▁Arabi	-13.4069
naissance	-13.4073
glo	-13.4074
uk	-13.4095
ney	-13.4108
amin	-13.4112
▁leak	-13.4118
▁cradl	-13.4119
▁ATMs	-13.4121
ates	-13.4121
efore	-13.4137
▁Gi	-13.4138
llow	-13.4139
▁Ful	-13.4143
sters	-13.415
lad	-13.4162
▁cure	-13.4164
▁Hik	-13.417
row	-13.4171
ved	-13.4173
▁nam	-13.4178
ids	-13.4179
▁moved	-13.4182
▁announc	-13.4183
▁instructors	-13.4189
▁putts	-13.4191
▁pranc	-13.4192
nts	-13.4193
▁Hal	-13.4195
▁Cast	-13.4196
atch	-13.4196
▁anticipate	-13.4197
vers	-13.4198
▁bridle	-13.4209
▁gree	-13.4211
▁Doll	-13.4213
itty	-13.4221
▁ham	-13.4223
▁Ben	-13.4227
kids	-13.4234
iel	-13.4235
▁viol	-13.4239
▁cot	-13.4244
▁rummage	-13.4246
▁camps	-13.4247
An	-13.4248
IS	-13.4252
▁sprinter	-13.4257
phone	-13.4258
idewalk	-13.4263
▁fli	-13.4263
tage	-13.4266
espa	-13.4268
▁bulk	-13.4271
culin	-13.4278
▁cheeses	-13.4281
▁stitch	-13.4283
▁often	-13.4284
zes	-13.4285
ook	-13.4288
▁emotional	-13.4298
▁limes	-13.4299
▁forks	-13.43
▁audi	-13.4301
▁cram	-13.4306
lin	-13.431
▁wheelers	-13.431
▁slouch	-13.431
ske	-13.431
nk	-13.4313
uld	-13.4318
▁shak	-13.4327
▁anthem	-13.4329
▁sunli	-13.4331
▁snowsuits	-13.4333
ettes	-13.4337
ress	-13.4354
▁pucker	-13.4356
acrosse	-13.4376
▁Kni	-13.4376
▁reign	-13.4378
akes	-13.4381
oma	-13.4383
▁arc	-13.4387
▁ensu	-13.4401
▁wedge	-13.4405
ilot	-13.4415
▁tanker	-13.4416
▁Pal	-13.4437
atrons	-13.4445
iers	-13.445
▁discs	-13.4453
▁nu	-13.4464
▁anti	-13.4469
ackle	-13.4469
▁celebrit	-13.4486
▁brunettes	-13.4487
ont	-13.4495
▁ban	-13.4502
▁concoct	-13.4504
tails	-13.4509
▁born	-13.451
how	-13.4511
▁actual	-13.4512
▁Ko	-13.4517
▁topple	-13.4525
▁stumbl	-13.4531
gainst	-13.4532
sed	-13.4542
NC	-13.4546
▁consol	-13.4564
▁leaders	-13.457
vel	-13.4574
ady	-13.4585
▁scaffolds	-13.4585
▁Pa	-13.4591
▁Pota	-13.4594
▁lectures	-13.4595
ressed	-13.4596
▁Fa	-13.4605
thon	-13.4611
store	-13.462
▁spur	-13.4629
eaching	-13.4629
urly	-13.4635
▁hel	-13.4637
EE	-13.4652
fe	-13.4677
mong	-13.4678
ator	-13.4683
phones	-13.4691
llows	-13.4693
▁threa	-13.4699
▁curler	-13.4705
▁Su	-13.4719
▁Grocer	-13.4731
lor	-13.4733
ffle	-13.4733
▁batt	-13.4736
▁youthful	-13.4744
mar	-13.4747
▁Prof	-13.4768
▁associate	-13.4769
▁prow	-13.4779
▁cul	-13.4787
tar	-13.4787
ICE	-13.479
▁stumps	-13.4794
lipping	-13.4796
▁Patro	-13.4832
▁Kil	-13.4836
▁Ste	-13.4845
▁asians	-13.4848
bi	-13.4851
night	-13.4857
burn	-13.4865
nda	-13.4867
tening	-13.4869
▁sands	-13.4872
rie	-13.4877
▁charm	-13.4878
▁shooter	-13.4883
upe	-13.4883
▁Marti	-13.4884
▁walkways	-13.4886
▁Free	-13.4887
kah	-13.4909
▁That	-13.4918
▁areas	-13.4918
▁gri	-13.492
▁corks	-13.4931
ely	-13.4947
▁dent	-13.4966
▁remind	-13.4968
ister	-13.498
venue	-13.499
▁am	-13.4999
ems	-13.5003
older	-13.5003
clud	-13.5006
locking	-13.5007
yle	-13.501
▁tin	-13.5022
▁helm	-13.5023
eop	-13.5023
gauge	-13.5033
▁doz	-13.5036
walking	-13.5043
full	-13.5048
▁Ira	-13.507
brick	-13.5079
rail	-13.5086
▁Ki	-13.5094
lding	-13.5097
looks	-13.5129
acks	-13.5135
▁lunge	-13.5136
ously	-13.514
▁hoes	-13.5159
▁shuck	-13.5166
▁Class	-13.5166
▁furthe	-13.5172
oftball	-13.5172
▁Sta	-13.5174
ays	-13.518
▁ceilings	-13.518
▁shov	-13.5189
▁mover	-13.5193
▁sidewalks	-13.52
▁bathrooms	-13.5205
▁cade	-13.5211
ames	-13.5212
eak	-13.5215
▁breathe	-13.522
▁Head	-13.5225
point	-13.5233
has	-13.5233
lines	-13.5253
iving	-13.5258
glass	-13.5259
artial	-13.526
▁Cab	-13.5262
toy	-13.5263
▁Sheep	-13.5273
▁Twin	-13.5279
▁popp	-13.5282
▁Or	-13.5284
urban	-13.5285
▁cost	-13.529
ways	-13.5294
evel	-13.5296
▁indicate	-13.5297
mates	-13.5298
▁whack	-13.5302
aster	-13.5305
ters	-13.5305
▁liquids	-13.5307
log	-13.5328
▁shock	-13.5329
ctical	-13.5332
▁toe	-13.535
▁urn	-13.5354
TE	-13.5363
acked	-13.5366
hero	-13.5373
▁Females	-13.5373
▁icon	-13.5373
dir	-13.5384
metal	-13.5385
▁cranes	-13.5386
velers	-13.5393
▁wri	-13.5411
▁halo	-13.5413
▁rescu	-13.5418
itz	-13.5422
hy	-13.5425
overs	-13.5441
▁Am	-13.5451
caster	-13.5453
so	-13.5454
lay	-13.5456
▁earn	-13.5473
▁fear	-13.5477
zing	-13.5478
ello	-13.5483
▁added	-13.5485
KE	-13.549
aves	-13.5493
▁roofing	-13.5493
▁foo	-13.5501
nit	-13.5505
▁Fr	-13.5505
▁gasp	-13.5514
umming	-13.5516
▁cultivate	-13.5522
▁slat	-13.5553
lessly	-13.5561
raditional	-13.557
▁tumble	-13.5578
▁mes	-13.5578
lder	-13.5579
ctive	-13.558
fire	-13.5583
▁Son	-13.5593
pra	-13.5594
▁forwards	-13.5597
cycle	-13.5597
▁gull	-13.5605
Pray	-13.5608
plaid	-13.5612
▁Fre	-13.5618
▁turb	-13.5624
▁bail	-13.5625
istant	-13.5637
▁prec	-13.5639
dling	-13.5639
pink	-13.5651
left	-13.5653
cher	-13.566
rm	-13.5661
▁refill	-13.5671
distance	-13.5677
▁triumpha	-13.5701
▁sil	-13.5705
sary	-13.5711
▁char	-13.5713
gle	-13.5727
fish	-13.5742
▁Sp	-13.5747
▁saf	-13.575
ash	-13.5751
ynchronize	-13.5751
▁Fin	-13.5756
MT	-13.5765
tly	-13.5779
▁paste	-13.5791
cloth	-13.5791
▁tort	-13.5795
ended	-13.5804
irport	-13.5805
gains	-13.582
Salva	-13.5828
bottomed	-13.5829
sus	-13.5836
tis	-13.5838
washing	-13.5843
rink	-13.5845
others	-13.5846
open	-13.5849
friend	-13.5851
▁pai	-13.5864
erial	-13.5868
▁abse	-13.5874
hin	-13.5875
▁lathe	-13.5881
rtwork	-13.5891
child	-13.5897
ony	-13.5899
▁advert	-13.5908
mask	-13.591
▁Dist	-13.591
foot	-13.5918
speaking	-13.5924
▁Minn	-13.5925
▁patterns	-13.5934
empty	-13.5935
NO	-13.5935
love	-13.5945
surfing	-13.5951
▁recreat	-13.5953
boarding	-13.5955
▁mot	-13.5955
ative	-13.5958
▁any	-13.596
▁encircl	-13.5965
▁Bl	-13.5974
▁comment	-13.5983
▁tra	-13.5984
argo	-13.5996
▁plat	-13.5998
▁Ol	-13.6001
ht	-13.6004
cover	-13.6006
vention	-13.6006
gold	-13.6009
itted	-13.6011
turn	-13.6012
saw	-13.6017
scooter	-13.6018
mes	-13.6025
river	-13.6027
▁showcas	-13.6028
wrappe	-13.6032
▁rec	-13.6039
ster	-13.6039
bikes	-13.6046
life	-13.6048
▁Sy	-13.6056
court	-13.6059
climb	-13.6064
dly	-13.6066
bodie	-13.6068
▁Ku	-13.6072
▁americans	-13.6076
▁wrest	-13.6085
▁Far	-13.6087
annel	-13.6093
▁DI	-13.6094
eated	-13.6116
ga	-13.6118
stuff	-13.6122
hold	-13.6127
including	-13.6132
▁blo	-13.6135
seball	-13.6137
▁shrug	-13.6143
nto	-13.6145
ounces	-13.6147
blades	-13.615
▁Pit	-13.6151
combs	-13.6152
divers	-13.616
▁Di	-13.6166
▁quir	-13.6172
▁bandag	-13.6174
lowing	-13.618
▁pebbl	-13.6187
hooded	-13.6195
▁backg	-13.6199
pad	-13.6202
▁hurdl	-13.6203
cloudy	-13.6231
ests	-13.6234
law	-13.6237
iron	-13.6238
Bron	-13.6241
obs	-13.6244
pitch	-13.6248
money	-13.6253
▁frie	-13.6254
slide	-13.6255
gen	-13.6257
Adobe	-13.6263
▁Cameram	-13.6269
polo	-13.627
amm	-13.6271
▁japan	-13.6278
bil	-13.6286
pit	-13.6293
horn	-13.6298
wash	-13.63
▁Tri	-13.6303
player	-13.6305
step	-13.6307
chase	-13.6308
Real	-13.6311
terrain	-13.6313
▁tabl	-13.6319
dor	-13.6323
lie	-13.6328
tip	-13.6335
q	-13.6335
wire	-13.6336
▁spl	-13.6342
though	-13.6352
service	-13.6357
pillar	-13.6363
WI	-13.6368
▁breads	-13.6369
craft	-13.6371
nail	-13.6374
lade	-13.6378
sentence	-13.638
Guitar	-13.6386
bearer	-13.6388
▁welcom	-13.6398
Long	-13.6407
illage	-13.6407
lic	-13.6408
hot	-13.6411
Tube	-13.6413
language	-13.6418
peaking	-13.6419
bee	-13.6423
▁wiring	-13.6423
▁Hol	-13.6424
cotta	-13.6427
operated	-13.6431
▁memo	-13.6434
regular	-13.6434
▁spec	-13.6434
kept	-13.6434
CD	-13.6434
What	-13.6435
duty	-13.6435
meter	-13.6439
stained	-13.644
▁mode	-13.6442
▁spher	-13.6445
works	-13.6447
fensive	-13.6448
▁consum	-13.6454
dried	-13.6454
range	-13.6458
Bot	-13.6469
▁op	-13.6472
elicopter	-13.6472
mused	-13.6473
▁clam	-13.6474
▁drip	-13.6475
▁Cheeri	-13.6477
upper	-13.6483
▁Oh	-13.6484
talkie	-13.6485
Doo	-13.6489
rise	-13.649
brand	-13.6491
▁bubbl	-13.6499
blown	-13.6503
lpha	-13.6505
stered	-13.6509
▁unti	-13.6509
bow	-13.6514
ties	-13.6531
sk	-13.6534
▁suggest	-13.6537
▁bomb	-13.6547
▁imitat	-13.6559
▁Religio	-13.6559
skirts	-13.6566
▁silent	-13.6572
seat	-13.6576
liter	-13.6577
▁Sky	-13.6578
spotted	-13.658
rtists	-13.6592
▁smirk	-13.6595
ensive	-13.6602
▁Show	-13.6603
ripple	-13.6605
ole	-13.6607
▁polos	-13.6609
zzle	-13.6612
▁usual	-13.6615
▁scream	-13.6616
▁hors	-13.6616
acket	-13.6617
urned	-13.6619
AD	-13.662
endor	-13.662
▁NF	-13.6623
▁escap	-13.6625
▁rent	-13.6628
▁patt	-13.6632
▁Interior	-13.6634
▁seashell	-13.6634
▁Airline	-13.6636
▁communicate	-13.6636
▁transformer	-13.6637
▁Har	-13.6638
▁concentr	-13.6639
uvre	-13.664
▁breakdance	-13.6641
eteran	-13.6641
▁Service	-13.6641
▁Border	-13.6642
▁Ranger	-13.6643
▁Participant	-13.6644
▁gadget	-13.6644
▁appliance	-13.6644
▁dispenser	-13.6644
▁Capri	-13.6646
wa	-13.6647
star	-13.6647
▁shrub	-13.6647
▁pinwheel	-13.6647
▁condom	-13.6649
▁trouser	-13.6649
▁pompom	-13.6649
▁Dancer	-13.6651
▁needle	-13.6652
▁preserver	-13.6655
AT	-13.6657
▁verbal	-13.6658
▁Cath	-13.666
▁breastfeed	-13.6663
▁grimace	-13.6663
▁antiqu	-13.6665
▁overflow	-13.6665
▁surviv	-13.6666
pins	-13.6667
▁Will	-13.6668
▁trombon	-13.667
mouthed	-13.6672
▁flier	-13.6676
▁belonging	-13.6676
▁Planet	-13.6679
▁tele	-13.6679
▁Moto	-13.6679
ink	-13.668
hound	-13.6684
▁frown	-13.6686
right	-13.6688
ternal	-13.6688
▁africa	-13.669
▁siz	-13.6691
▁notic	-13.6691
▁mosqu	-13.6691
▁Cir	-13.6692
sale	-13.6693
ictoria	-13.6694
▁interrupt	-13.6695
ransport	-13.6696
▁distress	-13.6697
▁exhaust	-13.6697
▁Stop	-13.6697
pers	-13.6699
▁submerge	-13.6701
▁tradition	-13.6701
▁grocer	-13.6702
uinn	-13.6703
▁abandon	-13.6703
▁burro	-13.6704
▁backgrou	-13.6706
▁crutch	-13.6707
ridesmaids	-13.6707
tent	-13.6708
ifferent	-13.6708
atriotic	-13.6709
▁duel	-13.6709
▁prison	-13.6709
▁leisure	-13.671
▁eyeglass	-13.6711
egret	-13.6711
questrian	-13.6711
bservers	-13.6711
▁latte	-13.6711
▁domino	-13.6712
▁religio	-13.6712
obili	-13.6712
▁establish	-13.6712
▁Kitchen	-13.6712
▁intertwin	-13.6712
Blockbuster	-13.6712
Gigolo	-13.6712
HERE	-13.6712
NICEF	-13.6712
Repent	-13.6712
ShoeGasm	-13.6712
labradoodle	-13.6712
stitute	-13.6712
▁Aberdeen	-13.6712
▁Adolescent	-13.6712
▁Citroen	-13.6712
▁Clydesdale	-13.6712
▁Electronics	-13.6712
▁Entertain	-13.6712
▁Explorer	-13.6712
▁Foosball	-13.6712
▁Genocide	-13.6712
▁Giorgio	-13.6712
▁Hendrix	-13.6712
▁Hyatt	-13.6712
▁Industries	-13.6712
▁Lassie	-13.6712
▁Netherlands	-13.6712
▁Official	-13.6712
▁Polaris	-13.6712
▁Portuguese	-13.6712
▁Retriever	-13.6712
▁Saturday	-13.6712
▁Scooby	-13.6712
▁Sugarland	-13.6712
▁Sydney	-13.6712
▁Taiwan	-13.6712
▁Transformer	-13.6712
▁Whistle	-13.6712
▁Wizard	-13.6712
▁afghan	-13.6712
▁afraid	-13.6712
▁agricultur	-13.6712
▁allegiance	-13.6712
▁alpaca	-13.6712
▁armadillo	-13.6712
▁artichokes	-13.6712
▁budweiser	-13.6712
▁burqa	-13.6712
▁caboose	-13.6712
▁camisole	-13.6712
▁century	-13.6712
▁chapel	-13.6712
▁chaperone	-13.6712
▁cinema	-13.6712
▁cleavage	-13.6712
▁crucified	-13.6712
▁currency	-13.6712
▁daschund	-13.6712
▁dialogue	-13.6712
▁disapprov	-13.6712
▁edifice	-13.6712
▁empanada	-13.6712
▁excellent	-13.6712
▁firecracker	-13.6712
▁fossil	-13.6712
▁gasoline	-13.6712
▁genocide	-13.6712
▁glimpse	-13.6712
▁grotesque	-13.6712
▁identity	-13.6712
▁immediate	-13.6712
▁impersonator	-13.6712
▁interfere	-13.6712
▁irritated	-13.6712
▁knuckle	-13.6712
▁leapfrog	-13.6712
▁lesbian	-13.6712
▁mischievous	-13.6712
▁multitasking	-13.6712
▁necessary	-13.6712
▁obvious	-13.6712
▁olympian	-13.6712
▁pedicure	-13.6712
▁perimeter	-13.6712
▁pilgrim	-13.6712
▁rejoicing	-13.6712
▁rendition	-13.6712
▁sanctuary	-13.6712
▁shamrocks	-13.6712
▁society	-13.6712
▁solitude	-13.6712
▁sousaphone	-13.6712
▁tarmac	-13.6712
▁undergarments	-13.6712
▁weimaraner	-13.6712
▁yankee	-13.6712
▁Corgi	-13.6712
▁Drayton	-13.6712
▁apprehend	-13.6712
▁bungalow	-13.6712
▁cuisine	-13.6712
▁easily	-13.6712
▁exuberan	-13.6712
▁lightsaber	-13.6712
▁locksmith	-13.6712
▁receipt	-13.6712
▁reciev	-13.6712
▁restrict	-13.6712
▁sapling	-13.6712
▁beijing	-13.6712
▁cavort	-13.6712
▁headquarters	-13.6712
▁oatmeal	-13.6712
▁pedicab	-13.6712
▁pyrotechnic	-13.6712
▁shelving	-13.6712
▁Beetle	-13.6712
▁Mormon	-13.6712
▁dwarf	-13.6712
▁grenade	-13.6712
▁turret	-13.6712
Radeo	-13.6712
▁Caution	-13.6712
▁Chevrolet	-13.6712
▁Sightsee	-13.6712
▁Trolley	-13.6712
▁flavor	-13.6712
▁heartbeat	-13.6712
▁hitchhiking	-13.6712
▁imagination	-13.6712
▁registration	-13.6712
▁skeptical	-13.6712
MENT	-13.6712
▁Turkey	-13.6712
▁drooling	-13.6712
▁loincloth	-13.6712
▁vampire	-13.6712
▁Manhattan	-13.6712
▁bassinet	-13.6712
▁brawl	-13.6712
▁veggies	-13.6712
▁Formula	-13.6712
▁Hungry	-13.6712
▁Negro	-13.6712
▁beggar	-13.6712
anitor	-13.6712
▁Saxophone	-13.6712
▁account	-13.6712
▁antenna	-13.6712
▁snooker	-13.6712
▁nationalities	-13.6712
▁Internet	-13.6712
▁obtain	-13.6712
▁convoy	-13.6712
▁disembark	-13.6712
▁jostle	-13.6712
▁pepsi	-13.6712
▁caterer	-13.6712
▁muffl	-13.6712
▁panoram	-13.6712
▁DSLR	-13.6712
▁ridiculous	-13.6712
▁Gothic	-13.6712
▁SWAT	-13.6712
▁Facebook	-13.6712
▁Mockingbird	-13.6712
▁Komo	-13.6712
▁excla	-13.6712
▁solicit	-13.6712
▁Chicken	-13.6712
▁departure	-13.6712
▁Blacksmith	-13.6712
▁stupid	-13.6712
▁Sharpie	-13.6712
▁Silk	-13.6712
▁Temple	-13.6712
▁Palace	-13.6712
▁copilot	-13.6712
▁unamused	-13.6712
▁Democra	-13.6712
▁Eddie	-13.6712
▁Republic	-13.6712
▁ashore	-13.6713
hostbuster	-13.6713
▁antlers	-13.6713
▁canopies	-13.6713
▁growls	-13.6713
▁panhandling	-13.6713
▁Forever	-13.6713
▁composition	-13.6713
▁clause	-13.6713
▁declare	-13.6713
▁bayonet	-13.6713
Rouleur	-13.6713
conscious	-13.6713
▁eerie	-13.6713
ilver	-13.6713
▁Edward	-13.6713
▁contractor	-13.6713
▁korn	-13.6713
▁Married	-13.6713
elicatessen	-13.6713
▁Buzz	-13.6713
▁Hippie	-13.6713
▁elongat	-13.6713
▁wildlife	-13.6713
▁anything	-13.6713
▁hobby	-13.6713
▁Broadway	-13.6713
▁switch	-13.6713
▁purplish	-13.6713
ustere	-13.6713
▁difficulties	-13.6713
▁accompaniment	-13.6713
▁battleship	-13.6713
▁foothills	-13.6713
▁Bagel	-13.6713
▁marvel	-13.6713
Deleon	-13.6713
▁fundraiser	-13.6713
▁scrum	-13.6713
▁arctic	-13.6713
▁Premier	-13.6713
▁Princess	-13.6713
▁crepe	-13.6713
▁snapshot	-13.6713
▁pharaoh	-13.6713
▁griddle	-13.6713
▁Confe	-13.6713
▁abundan	-13.6713
▁beckon	-13.6713
▁fingerpaints	-13.6713
▁illustration	-13.6713
CLA	-13.6713
▁buddies	-13.6713
▁agape	-13.6713
▁Fitness	-13.6713
▁compass	-13.6714
▁Booth	-13.6714
▁cabana	-13.6714
▁foyer	-13.6714
▁eyelid	-13.6714
▁sheriff	-13.6714
▁Dinner	-13.6714
▁bizarre	-13.6714
▁Library	-13.6714
▁luncheon	-13.6714
▁Health	-13.6714
▁affair	-13.6714
▁textbook	-13.6714
▁gawk	-13.6714
▁joyful	-13.6714
Aloha	-13.6714
▁Tigger	-13.6714
▁extension	-13.6714
▁cgt	-13.6714
▁Knits	-13.6714
▁shepard	-13.6714
▁dagger	-13.6714
▁attachment	-13.6714
▁slumber	-13.6714
Thank	-13.6714
▁Torch	-13.6714
▁texture	-13.6714
▁ferr	-13.6714
▁River	-13.6714
▁biplane	-13.6714
ritos	-13.6715
▁messily	-13.6715
▁Natha	-13.6715
▁Dancing	-13.6715
lbert	-13.6715
▁Pyr	-13.6715
▁Lifeguard	-13.6715
▁flurry	-13.6715
PN	-13.6715
▁lilac	-13.6715
▁Leak	-13.6715
▁peeler	-13.6715
▁Sweet	-13.6715
▁flustered	-13.6715
▁mimick	-13.6715
▁bohemian	-13.6716
▁Fox	-13.6716
NCE	-13.6716
lliance	-13.6716
▁Gump	-13.6716
▁swanky	-13.6716
▁summertime	-13.6716
▁confer	-13.6716
visib	-13.6716
▁stepladder	-13.6716
▁stiff	-13.6716
▁pyr	-13.6717
▁Dragon	-13.6717
▁plateau	-13.6717
▁Oak	-13.6717
nglish	-13.6717
▁signature	-13.6718
▁bullpen	-13.6718
▁snowscape	-13.6718
▁Hawk	-13.6718
▁supervisor	-13.6718
▁nowhere	-13.6718
▁death	-13.6719
▁eighteen	-13.6719
▁decision	-13.6719
▁smudge	-13.6719
▁Donut	-13.6719
▁Sharp	-13.6719
Frank	-13.672
▁shredder	-13.672
utist	-13.672
▁acid	-13.672
▁tugboat	-13.672
▁joyously	-13.672
▁hardware	-13.6721
▁Cool	-13.6721
▁dreaming	-13.6721
▁snowdrift	-13.6721
▁Guns	-13.6722
▁supporter	-13.6722
▁plantation	-13.6722
▁Nice	-13.6722
▁sifter	-13.6722
▁levit	-13.6722
▁sneeze	-13.6722
▁schools	-13.6722
▁Fruit	-13.6722
▁midget	-13.6722
▁slimy	-13.6722
▁bundl	-13.6722
▁alternati	-13.6723
imi	-13.6723
▁coffin	-13.6723
▁snowmobiling	-13.6723
derate	-13.6723
▁pensively	-13.6723
▁signpost	-13.6723
na	-13.6723
▁groove	-13.6724
▁clogs	-13.6724
▁Pier	-13.6724
▁Opening	-13.6724
▁disturbing	-13.6724
▁demanding	-13.6725
▁fiber	-13.6725
▁offense	-13.6725
▁blankly	-13.6725
▁flagpole	-13.6725
▁Texan	-13.6725
▁Pike	-13.6725
staff	-13.6725
▁guidebook	-13.6725
▁dowel	-13.6726
Mambo	-13.6726
▁Wiggle	-13.6726
warves	-13.6726
▁Dominoes	-13.6726
▁employe	-13.6726
▁spices	-13.6726
▁weightlifting	-13.6726
▁imagery	-13.6727
▁stallion	-13.6727
▁seawall	-13.6727
▁Guest	-13.6727
ffe	-13.6727
▁fantas	-13.6727
▁militants	-13.6727
▁farther	-13.6728
▁armbands	-13.6728
▁bunker	-13.6728
▁kebabs	-13.6728
▁haystack	-13.6728
▁Goal	-13.6728
▁renovations	-13.6729
▁tuxes	-13.6729
▁BO	-13.6729
▁calves	-13.6729
▁Right	-13.6729
▁flamingos	-13.6729
krain	-13.6729
▁fangs	-13.6729
▁interrupted	-13.6729
▁portray	-13.6729
▁Drink	-13.6729
▁vol	-13.6729
▁Polo	-13.6729
▁recycling	-13.673
▁temperat	-13.673
Anderson	-13.673
▁begun	-13.6731
▁elements	-13.6732
▁refugees	-13.6732
ummy	-13.6732
▁adornment	-13.6733
▁previous	-13.6734
ersey	-13.6734
▁lilies	-13.6734
▁Billy	-13.6734
El	-13.6734
▁Snowboard	-13.6734
polis	-13.6734
▁clipping	-13.6735
▁outcrop	-13.6736
▁primary	-13.6737
▁processor	-13.6737
▁glassblower	-13.6738
dvice	-13.6738
▁riverbed	-13.6739
▁Gator	-13.6739
Ozzy	-13.6739
arian	-13.674
▁tailor	-13.674
▁expectant	-13.6741
▁delighted	-13.6742
▁Bowling	-13.6742
▁clenche	-13.6742
▁rich	-13.6742
▁lifestyle	-13.6743
▁taco	-13.6744
▁Hair	-13.6744
nhappy	-13.6744
▁dials	-13.6744
▁SL	-13.6745
▁Reg	-13.6745
▁bingo	-13.6745
▁Why	-13.6746
▁examination	-13.6746
▁grappling	-13.6746
▁refer	-13.6746
▁diag	-13.6748
annister	-13.6748
▁Raider	-13.6748
▁migra	-13.6748
pants	-13.6749
▁choreography	-13.6749
▁soul	-13.675
▁susp	-13.675
soccer	-13.675
cou	-13.6751
▁knick	-13.6751
▁crag	-13.6751
▁chopper	-13.6751
▁downpour	-13.6752
cer	-13.6752
AL	-13.6752
▁meditates	-13.6754
▁converge	-13.6754
▁budget	-13.6755
▁Oreos	-13.6755
▁musher	-13.6755
orate	-13.6755
▁guardian	-13.6755
▁pylons	-13.6755
▁beachgoers	-13.6756
▁headwraps	-13.6756
▁fishbowl	-13.6757
ots	-13.6758
▁massag	-13.6759
ehicles	-13.6759
▁Cater	-13.676
▁etchings	-13.676
▁slats	-13.676
▁Mc	-13.6761
▁exer	-13.6761
▁ringlet	-13.6762
vespa	-13.6762
▁caulk	-13.6763
tude	-13.6763
▁justice	-13.6763
▁listeners	-13.6765
▁bombard	-13.6767
▁Altima	-13.6767
▁Chev	-13.6768
▁Willi	-13.6768
▁downstream	-13.6769
SHO	-13.677
▁stressed	-13.677
▁snarl	-13.6771
▁Pale	-13.6771
▁Chris	-13.6771
▁scowl	-13.6773
▁cock	-13.6774
gged	-13.6774
▁Chevro	-13.6774
▁replaced	-13.6776
▁cupboard	-13.6776
coated	-13.6776
aramedic	-13.6777
▁seperate	-13.6777
▁huskie	-13.6777
▁sigh	-13.6778
▁yield	-13.6779
▁Takes	-13.6779
racy	-13.678
▁chose	-13.6781
▁mongo	-13.6782
▁deco	-13.6783
▁sliced	-13.6784
▁Rangers	-13.6784
▁husks	-13.6784
▁Borders	-13.6784
amel	-13.6784
▁Services	-13.6784
▁pill	-13.6784
▁strangers	-13.6785
▁Dolls	-13.6785
▁fuel	-13.6785
▁relief	-13.6786
▁launcher	-13.6787
▁blackjack	-13.6787
▁altitude	-13.6787
▁Hulk	-13.6788
▁Royal	-13.6788
▁November	-13.6788
▁parasailor	-13.6788
▁Birthday	-13.6788
▁prediction	-13.6789
▁Gar	-13.6789
▁cities	-13.6789
du	-13.679
▁warmth	-13.679
▁swordsman	-13.6793
▁Earth	-13.6794
▁mushing	-13.6796
▁Model	-13.6797
▁flora	-13.6797
▁complexion	-13.6797
▁Mark	-13.6798
▁packets	-13.6798
▁Wood	-13.68
▁Baker	-13.6801
▁Luc	-13.6802
immers	-13.6803
torted	-13.6804
ore	-13.6806
▁purs	-13.6807
▁risk	-13.6807
▁husk	-13.6808
▁lungs	-13.6808
▁crust	-13.6808
▁gutters	-13.6809
▁Pol	-13.681
▁john	-13.6811
▁Fame	-13.6812
affected	-13.6812
▁straighten	-13.6812
▁underpants	-13.6812
▁users	-13.6813
IA	-13.6814
▁luck	-13.6814
site	-13.6814
▁grasslands	-13.6815
▁Shorts	-13.6818
▁grater	-13.6819
shorts	-13.6821
▁Taxi	-13.6822
▁Cooki	-13.6823
▁plowed	-13.6824
avy	-13.6825
▁issues	-13.6826
▁Heal	-13.6826
▁publication	-13.6826
ews	-13.6827
ional	-13.6828
rus	-13.683
sta	-13.6832
▁Fall	-13.6832
▁warmer	-13.6833
▁sti	-13.6833
bay	-13.6838
▁Ok	-13.6838
▁Kris	-13.6838
▁ST	-13.6838
▁winking	-13.6839
▁steadi	-13.684
▁corsets	-13.684
▁biscuits	-13.6841
asually	-13.6844
▁collided	-13.6844
▁realize	-13.6845
dge	-13.6845
▁blockers	-13.6846
ndage	-13.6846
▁heroes	-13.685
▁manually	-13.685
▁pushers	-13.6851
▁pomp	-13.6852
▁mitten	-13.6858
olitician	-13.686
▁vents	-13.686
▁observer	-13.6861
▁spools	-13.6861
▁waterskies	-13.6861
▁downstairs	-13.6862
ollywood	-13.6863
▁Lite	-13.6863
▁reasons	-13.6863
▁occur	-13.6864
bone	-13.6866
lens	-13.6867
▁offstage	-13.6868
▁dividers	-13.6868
▁placards	-13.687
▁suckers	-13.6872
▁Romania	-13.6876
si	-13.6876
▁Pug	-13.6877
lico	-13.6878
haki	-13.688
▁treeline	-13.6881
▁nec	-13.6884
tail	-13.6884
pt	-13.6886
▁Check	-13.6888
zzy	-13.689
▁pat	-13.6891
ownspeople	-13.6892
▁ladles	-13.6895
▁santas	-13.6896
▁Stones	-13.6896
▁syringes	-13.6898
▁dachshunds	-13.6898
▁Bis	-13.6899
ED	-13.6906
urt	-13.6909
▁Rabbit	-13.6912
▁dipp	-13.6913
ELL	-13.6918
▁happens	-13.6918
▁Raft	-13.692
▁sheltered	-13.692
▁Swed	-13.6921
ela	-13.6923
▁peep	-13.6926
ls	-13.6927
▁dragsters	-13.6928
wind	-13.6929
▁archers	-13.693
umb	-13.6934
▁recogni	-13.6936
gra	-13.6941
▁porta	-13.6942
▁divid	-13.6951
esque	-13.6954
▁Swimm	-13.6962
▁swi	-13.6964
ost	-13.6964
▁bowel	-13.6968
▁noticed	-13.6968
lice	-13.6968
▁loo	-13.6969
▁Farms	-13.697
mustang	-13.6972
▁wisp	-13.6973
▁peddler	-13.6978
▁knights	-13.698
▁alarm	-13.6983
▁albums	-13.6984
▁dread	-13.6985
▁bobs	-13.6991
▁Humor	-13.6991
▁expert	-13.6993
▁headstand	-13.6996
possibly	-13.6998
▁simulate	-13.7001
mmering	-13.7001
▁dollars	-13.7007
▁resurfac	-13.7007
▁shutters	-13.7008
dant	-13.7008
▁Form	-13.7009
▁outwards	-13.7009
▁specimens	-13.7013
▁rims	-13.7014
▁pri	-13.7019
▁emotions	-13.7026
▁Bang	-13.7031
▁treated	-13.7035
▁Ken	-13.7035
▁Bell	-13.7039
▁pos	-13.7041
eammates	-13.7041
▁hijabs	-13.7042
▁ease	-13.7042
ils	-13.7044
▁GI	-13.7046
▁Wheel	-13.705
bracing	-13.7051
▁Camper	-13.7051
▁drawers	-13.7053
▁linen	-13.7053
▁nerd	-13.7054
▁Glas	-13.7061
▁artis	-13.7063
▁parasols	-13.707
▁speck	-13.7072
▁lids	-13.7073
rish	-13.7074
ckled	-13.7075
▁writer	-13.7075
▁swerv	-13.7078
▁rights	-13.7078
▁Port	-13.708
▁intrigu	-13.7082
▁experienc	-13.7087
▁vacationing	-13.7088
▁prance	-13.7096
▁Kenn	-13.7097
▁kel	-13.7098
▁jackhammers	-13.7099
▁locomotives	-13.7101
▁windsurfers	-13.7102
▁scraps	-13.7111
▁ke	-13.7113
▁troll	-13.7117
▁snowfield	-13.7117
▁shir	-13.712
▁Mad	-13.7121
▁oceanside	-13.7122
▁coup	-13.713
rms	-13.713
▁handkerchiefs	-13.713
icy	-13.7132
▁Cub	-13.714
airdresser	-13.7142
▁breasts	-13.7144
▁bills	-13.7147
splayed	-13.7151
▁gallops	-13.7154
▁gondolas	-13.7157
riously	-13.7159
nother	-13.7162
▁vision	-13.7162
mpire	-13.7162
atory	-13.7164
eaves	-13.7168
▁blaze	-13.7168
otica	-13.7169
together	-13.717
rape	-13.7177
wilder	-13.7182
nish	-13.7182
bing	-13.7183
weeping	-13.7188
▁mod	-13.7189
▁capris	-13.7197
sburg	-13.7199
▁coron	-13.7204
cc	-13.7208
▁bangle	-13.7208
▁stake	-13.7211
▁pulleys	-13.7212
▁mitts	-13.7215
▁RO	-13.7215
▁opp	-13.7216
▁languages	-13.7218
▁dentists	-13.7219
▁commit	-13.7221
berries	-13.7223
ual	-13.7229
▁unlock	-13.723
▁publicly	-13.7237
▁litera	-13.7237
▁thatch	-13.7238
▁Parking	-13.7238
▁seeker	-13.7244
▁NO	-13.7245
cancel	-13.7245
▁stocks	-13.7253
▁god	-13.7257
osing	-13.7264
▁ankles	-13.7271
tro	-13.7272
▁Board	-13.7276
cts	-13.7294
▁bible	-13.7295
▁prais	-13.7295
lady	-13.7296
▁Bug	-13.7296
▁Whe	-13.7308
▁Cop	-13.7316
nic	-13.7323
▁clim	-13.7324
▁commute	-13.7327
tary	-13.7327
▁cubicles	-13.7334
▁Cost	-13.7354
▁Cav	-13.7355
▁Solei	-13.7356
▁evad	-13.7356
▁vans	-13.7365
▁destinations	-13.7365
▁warms	-13.7366
▁Mag	-13.7367
▁rioting	-13.7371
gic	-13.7373
▁Burn	-13.7375
▁Stretch	-13.7384
rates	-13.7395
asting	-13.7396
oon	-13.7403
▁protrude	-13.7405
▁vote	-13.7409
hing	-13.7419
▁demonstrat	-13.7419
▁Ex	-13.7422
▁radia	-13.7423
nnel	-13.7423
▁slots	-13.7427
▁masses	-13.7432
▁Fort	-13.7432
▁DE	-13.7444
che	-13.7445
▁springs	-13.7447
▁Nes	-13.7448
▁Rop	-13.7452
luffy	-13.7452
udge	-13.7456
hang	-13.7456
▁victori	-13.7461
des	-13.7472
▁overview	-13.7473
ruga	-13.7473
tes	-13.7474
▁populat	-13.749
into	-13.7493
▁tracksuits	-13.7501
▁registers	-13.751
rilli	-13.7512
▁cy	-13.7516
▁Peace	-13.7517
▁pawn	-13.7518
ense	-13.752
▁compare	-13.7523
▁encourage	-13.7537
opcorn	-13.7538
▁fling	-13.7541
▁headsets	-13.7542
▁floaty	-13.7544
▁true	-13.7547
▁bandmate	-13.7554
base	-13.7555
▁sailboard	-13.7559
hubby	-13.7559
▁sometime	-13.7561
▁rips	-13.7579
illed	-13.7586
▁stances	-13.7587
▁adjusted	-13.7589
▁begs	-13.7589
ments	-13.7592
ifting	-13.7592
▁Carn	-13.7592
raids	-13.7593
girls	-13.7605
▁peas	-13.7612
▁fade	-13.7612
▁sneer	-13.7616
▁accordions	-13.7617
hampionship	-13.7627
▁ste	-13.7638
▁wound	-13.7654
ark	-13.7658
ecked	-13.7674
▁al	-13.7681
▁mourn	-13.7692
zily	-13.7695
mination	-13.7701
entine	-13.7707
acky	-13.7714
skin	-13.7716
▁courage	-13.7718
tacked	-13.7721
▁mountaintops	-13.7722
▁firearm	-13.774
▁vis	-13.7752
mble	-13.7761
▁antiques	-13.7766
▁taps	-13.7772
▁Bask	-13.7773
azy	-13.7785
espec	-13.779
▁infield	-13.7795
iki	-13.7797
▁speci	-13.7801
▁inhal	-13.7804
jects	-13.7804
▁razors	-13.7808
AND	-13.7811
pace	-13.7821
ially	-13.7823
▁events	-13.7827
tled	-13.7832
▁belays	-13.7833
▁hurrie	-13.7838
▁triumph	-13.7841
▁Tai	-13.7847
▁cro	-13.7869
▁sna	-13.7869
▁scrape	-13.7874
▁mary	-13.788
▁info	-13.7887
▁berry	-13.7916
▁hum	-13.7923
▁trad	-13.7923
▁thatching	-13.793
ner	-13.7939
▁wedd	-13.7939
▁waiters	-13.7941
▁racehorse	-13.7947
crew	-13.7947
irty	-13.7948
▁explo	-13.7957
▁unroll	-13.7958
▁plumb	-13.7958
tt	-13.7963
▁dumpsters	-13.7964
▁Pelo	-13.7967
shed	-13.7974
tention	-13.7982
▁sous	-13.7992
▁Pair	-13.7994
umble	-13.7996
▁edit	-13.8013
▁etching	-13.8024
▁Mon	-13.8029
▁blowers	-13.803
laced	-13.8032
▁qu	-13.8035
▁brain	-13.8036
onal	-13.8038
mouth	-13.804
▁hell	-13.804
ifesavers	-13.8044
▁includ	-13.8051
▁impr	-13.8052
▁dresser	-13.8056
Help	-13.8064
uc	-13.8065
▁die	-13.8067
▁cors	-13.807
▁total	-13.8072
▁logger	-13.8074
▁berets	-13.8075
▁jeeps	-13.8076
▁spark	-13.8079
cial	-13.8079
tioning	-13.808
par	-13.8082
tally	-13.8087
rian	-13.8092
credibl	-13.8093
▁Hul	-13.8097
rack	-13.8099
▁commo	-13.8107
quire	-13.8108
▁coordinate	-13.8111
▁Ray	-13.8113
omele	-13.8119
▁surfboarding	-13.8121
▁cascade	-13.8146
▁urg	-13.8147
▁onwards	-13.8161
▁med	-13.8164
cumbe	-13.8165
▁Bag	-13.8166
fit	-13.8168
▁fitt	-13.8185
bul	-13.8197
lings	-13.8202
female	-13.8207
sol	-13.8209
▁hero	-13.8212
▁fal	-13.8214
count	-13.8222
ool	-13.8227
oni	-13.8236
ig	-13.8236
xes	-13.8247
▁hump	-13.8249
ag	-13.8254
purple	-13.8262
cepts	-13.8264
▁wish	-13.8265
clude	-13.8271
seum	-13.8272
▁invit	-13.8275
uss	-13.8277
drape	-13.8286
LI	-13.8289
ppy	-13.8296
adidas	-13.8301
cro	-13.8317
lotte	-13.8318
small	-13.8323
▁clutche	-13.8329
vo	-13.8329
▁cuff	-13.8335
▁thermo	-13.834
▁neat	-13.8341
horse	-13.8355
▁glob	-13.836
tory	-13.8367
▁sal	-13.8372
▁perfo	-13.8373
▁pens	-13.8375
▁Str	-13.8376
get	-13.8382
▁deserts	-13.8385
chair	-13.8401
kes	-13.8407
▁wro	-13.8408
ings	-13.8414
ril	-13.8419
▁tosse	-13.842
tech	-13.8431
▁locks	-13.8435
west	-13.8442
▁staging	-13.8447
dience	-13.8449
aga	-13.8459
▁Ber	-13.8466
eva	-13.8472
tte	-13.8481
j	-13.8482
ni	-13.8486
▁hurtl	-13.8489
▁Dee	-13.849
ommy	-13.8497
another	-13.8502
ooking	-13.851
iv	-13.8527
▁Tim	-13.8529
ostal	-13.8534
enna	-13.8542
▁mal	-13.8552
▁gent	-13.8554
▁Heat	-13.8563
ran	-13.8565
▁ongoing	-13.8573
ighttime	-13.8582
▁Watch	-13.86
▁ill	-13.8602
▁revers	-13.8605
ev	-13.8608
pi	-13.8615
weed	-13.8617
ounded	-13.8624
▁Plac	-13.8639
▁carol	-13.8644
▁foreheads	-13.8647
▁rai	-13.8649
▁collective	-13.8652
lley	-13.8664
verage	-13.8666
▁Ship	-13.8681
essing	-13.8696
rea	-13.8712
hop	-13.8713
▁accu	-13.8723
▁precis	-13.8738
eaceful	-13.8749
inky	-13.8749
ungle	-13.8768
▁dinn	-13.8768
omino	-13.8773
▁parachuter	-13.8779
▁pac	-13.878
bend	-13.8784
fron	-13.8786
wo	-13.8789
▁classes	-13.8821
OS	-13.8823
▁GRA	-13.8826
▁automati	-13.8828
mi	-13.8835
▁retreiv	-13.8836
han	-13.8842
scape	-13.8845
▁chins	-13.8849
▁Cand	-13.8851
illian	-13.8852
▁Dep	-13.8852
ropes	-13.8856
three	-13.8859
ipes	-13.8872
rch	-13.8884
▁obe	-13.8894
▁reced	-13.8896
iretrucks	-13.8897
▁compli	-13.8897
▁suntan	-13.89
esting	-13.8909
▁Ador	-13.8922
▁dial	-13.8936
▁prune	-13.8936
ecision	-13.8941
rily	-13.8953
ody	-13.8955
▁balanc	-13.8974
▁retreive	-13.8982
▁HO	-13.8986
▁emit	-13.8989
nches	-13.9001
▁Bras	-13.9008
gly	-13.9009
▁suppl	-13.9028
▁Batt	-13.9031
▁Pu	-13.9034
pa	-13.9048
▁toddle	-13.9056
izz	-13.9059
stick	-13.9069
Shirts	-13.907
▁Em	-13.9081
▁spi	-13.9082
▁qui	-13.9083
▁impo	-13.9091
ddles	-13.9102
rag	-13.9115
▁positioning	-13.9117
quad	-13.9118
touch	-13.9129
RA	-13.9132
▁Hi	-13.9133
around	-13.9134
track	-13.9134
▁plans	-13.9145
au	-13.9146
Ma	-13.9149
▁Spri	-13.9158
fic	-13.9159
etal	-13.9169
araoke	-13.9171
mal	-13.9173
mmed	-13.9178
▁poo	-13.9183
urp	-13.9184
▁settings	-13.9198
nyl	-13.9208
rin	-13.9211
▁hoof	-13.9216
iculous	-13.9216
▁Mart	-13.9223
▁papa	-13.9257
▁desi	-13.9265
didas	-13.9266
ggy	-13.9268
randparents	-13.9279
▁Gin	-13.9305
ored	-13.9327
imm	-13.933
nimal	-13.933
ead	-13.9342
cha	-13.935
▁Carl	-13.9354
ulation	-13.936
▁cau	-13.9371
bac	-13.9375
▁buyer	-13.939
▁floati	-13.9396
On	-13.9398
▁stumble	-13.941
▁plated	-13.9411
ota	-13.9411
ature	-13.9418
▁spaces	-13.9432
eath	-13.9444
▁writings	-13.9452
▁bla	-13.9452
▁collapse	-13.9455
▁ent	-13.9458
▁mon	-13.9461
▁Clean	-13.9473
▁bang	-13.9477
Oh	-13.9479
erf	-13.948
ca	-13.9483
▁trailers	-13.9483
hind	-13.9484
▁slick	-13.9493
▁geograph	-13.9494
▁propa	-13.9498
els	-13.951
ators	-13.9513
Teach	-13.9518
ove	-13.9518
▁rap	-13.9539
▁scraper	-13.9539
▁ruin	-13.9542
anging	-13.9549
▁nip	-13.9555
nger	-13.9562
▁bur	-13.9575
ara	-13.9576
page	-13.9578
▁smo	-13.9584
▁propp	-13.9585
any	-13.9585
purs	-13.9587
▁den	-13.9587
net	-13.9588
rk	-13.959
dford	-13.9593
ikes	-13.9599
joy	-13.9606
lves	-13.9612
HA	-13.9626
▁mast	-13.9629
▁amp	-13.9637
▁trumpeter	-13.964
ager	-13.9643
▁preci	-13.9644
▁clin	-13.9649
patch	-13.9656
▁lan	-13.9656
▁polic	-13.9658
▁sofas	-13.9669
tress	-13.9674
▁Her	-13.9676
yster	-13.9679
ponents	-13.9683
ssion	-13.9683
velt	-13.9684
fa	-13.9686
came	-13.9697
ruins	-13.9704
▁glamo	-13.9706
imp	-13.9714
▁warn	-13.9715
sky	-13.9728
oded	-13.9736
▁pleas	-13.9747
▁fest	-13.9758
▁Lea	-13.9761
Go	-13.9769
▁invite	-13.9776
anist	-13.9779
bridge	-13.978
▁scrubb	-13.9785
ities	-13.9785
pm	-13.9804
hard	-13.9805
gger	-13.9808
▁toga	-13.9819
prom	-13.9823
ACE	-13.9825
show	-13.9826
▁visi	-13.9827
verish	-13.9842
▁polishe	-13.9854
rowing	-13.9871
elp	-13.9874
oke	-13.988
ading	-13.9881
flowing	-13.9883
gree	-13.9904
beach	-13.9912
▁strum	-13.9914
▁Hut	-13.9915
amed	-13.9917
short	-13.9917
dic	-13.992
layer	-13.9923
pole	-13.9935
ppears	-13.9952
wave	-13.9973
▁frisbees	-13.9974
▁Min	-13.9998
just	-14.0001
▁Gri	-14.0003
ounding	-14.0007
ewis	-14.0017
ire	-14.002
▁sin	-14.0026
▁flooring	-14.0035
aches	-14.0044
uch	-14.0054
▁Cl	-14.0059
po	-14.0064
▁Cla	-14.0065
curity	-14.0076
fection	-14.0077
▁radi	-14.0096
xe	-14.0101
jumping	-14.0102
▁toil	-14.0103
uce	-14.0117
▁Land	-14.0119
number	-14.0126
▁Bing	-14.013
put	-14.013
forest	-14.0138
▁Gu	-14.014
▁inhabit	-14.0145
▁recede	-14.0146
losi	-14.0149
lem	-14.015
know	-14.0168
TH	-14.0171
▁bul	-14.0197
▁Nurs	-14.0205
▁stra	-14.0209
▁BB	-14.0214
boarders	-14.022
ined	-14.0222
seated	-14.0242
mmuni	-14.0246
qu	-14.0256
▁mari	-14.0257
▁terri	-14.0264
rks	-14.0267
lane	-14.027
where	-14.0272
jersey	-14.0275
▁contin	-14.0288
▁reed	-14.029
stool	-14.0292
outs	-14.0297
ford	-14.0307
▁Del	-14.0323
▁haircuts	-14.0326
DING	-14.0327
ried	-14.0334
sled	-14.0342
▁atm	-14.0353
▁cri	-14.0362
rightly	-14.0365
ms	-14.0377
▁distribute	-14.0378
rely	-14.0386
▁vo	-14.0397
shore	-14.0397
Shine	-14.0408
xy	-14.041
▁spott	-14.041
▁aviat	-14.0437
▁graph	-14.0441
▁dun	-14.0444
tty	-14.0454
smile	-14.046
pile	-14.0461
▁val	-14.0462
male	-14.0473
▁replace	-14.0477
▁fours	-14.0483
outside	-14.0485
▁untangl	-14.0486
facing	-14.0497
▁Sha	-14.0497
▁rem	-14.0501
listening	-14.0503
▁impro	-14.0504
roller	-14.0504
rope	-14.051
ip	-14.0537
CH	-14.055
▁pave	-14.0554
TO	-14.0561
gles	-14.0561
▁marry	-14.0564
▁puncture	-14.0584
mn	-14.0594
break	-14.06
flying	-14.0603
▁cooker	-14.0604
bird	-14.0613
▁unsu	-14.0615
form	-14.0627
EL	-14.0628
De	-14.063
oyed	-14.063
ists	-14.0636
graph	-14.0637
vely	-14.0638
omeless	-14.0643
▁contra	-14.0656
▁diagnose	-14.0657
▁bridges	-14.0662
▁overshadow	-14.067
▁protrud	-14.0674
nging	-14.0676
▁podiums	-14.0682
musement	-14.07
post	-14.0715
ustic	-14.0716
▁commun	-14.072
▁und	-14.0721
flexes	-14.0726
▁Safe	-14.0737
▁Te	-14.074
leaning	-14.075
▁Ey	-14.0758
nes	-14.0761
eagulls	-14.0766
mon	-14.0767
legs	-14.0777
▁conc	-14.0779
traditional	-14.0782
class	-14.0782
snow	-14.0788
▁Sole	-14.0788
wings	-14.0788
artist	-14.08
narch	-14.0809
tive	-14.0809
zone	-14.0809
ances	-14.0814
▁hea	-14.0816
win	-14.0818
▁Hom	-14.0835
▁Flo	-14.0836
skate	-14.084
▁Sa	-14.0844
▁markets	-14.0844
closed	-14.0849
sts	-14.0868
active	-14.0877
▁dar	-14.0881
▁Get	-14.0882
▁miles	-14.0888
owned	-14.0889
oes	-14.0892
rchaeologist	-14.0892
▁catchers	-14.0897
appear	-14.0898
▁flick	-14.0899
ull	-14.0911
button	-14.0921
wooded	-14.0921
▁Wal	-14.0923
guard	-14.0932
▁Bu	-14.0934
▁resist	-14.0938
▁gardener	-14.0943
og	-14.0949
ples	-14.0958
▁qua	-14.0959
▁Ti	-14.0989
▁realt	-14.0996
▁geometrical	-14.0998
kers	-14.0999
uter	-14.1001
covering	-14.1003
▁dazzl	-14.1004
▁fawn	-14.1008
dancer	-14.1017
▁impatien	-14.1018
ewing	-14.1023
▁forge	-14.1027
ishing	-14.1028
▁seas	-14.1031
Fish	-14.1038
also	-14.1047
qua	-14.1051
dal	-14.1062
belt	-14.1063
usband	-14.1066
▁Faste	-14.1067
Sex	-14.1069
uzu	-14.1073
eckled	-14.1079
aitress	-14.108
lf	-14.1081
list	-14.1081
▁che	-14.1084
pul	-14.1093
half	-14.1094
builder	-14.1106
carver	-14.1107
▁imitati	-14.1111
▁graduat	-14.1115
groom	-14.1117
ws	-14.1119
kel	-14.1125
lipped	-14.1125
lifted	-14.1139
downtown	-14.1142
▁Marl	-14.1155
▁dist	-14.1156
aintenance	-14.1157
▁groomsm	-14.1159
that	-14.1161
lightly	-14.1163
pro	-14.1163
mid	-14.1164
figure	-14.1172
dul	-14.1176
iate	-14.1179
ages	-14.1181
▁requir	-14.1181
iver	-14.1185
spread	-14.119
ru	-14.1192
▁usa	-14.1196
ught	-14.1201
▁mov	-14.1204
cone	-14.1204
Look	-14.1206
▁aero	-14.1216
most	-14.1217
tube	-14.1218
focus	-14.1221
endy	-14.1221
broken	-14.1237
space	-14.124
collared	-14.124
stroke	-14.1242
▁sent	-14.1247
ores	-14.125
grind	-14.1253
Rock	-14.1255
▁jig	-14.1256
inging	-14.1268
still	-14.1275
London	-14.1279
ologist	-14.1279
axe	-14.1283
known	-14.1289
Peace	-14.1289
ath	-14.1291
▁exa	-14.1296
▁emer	-14.1297
▁clip	-14.1304
portrait	-14.1305
▁Mud	-14.1306
di	-14.1307
GI	-14.1307
▁paddler	-14.1311
lease	-14.1313
built	-14.1313
boo	-14.1321
▁Han	-14.1322
guards	-14.1322
▁Ball	-14.1327
South	-14.1339
afternoon	-14.134
Green	-14.1346
▁bindi	-14.1347
Who	-14.1349
▁snakes	-14.135
Boys	-14.1356
league	-14.1358
matic	-14.136
Class	-14.1363
sea	-14.1363
unch	-14.1365
sponsor	-14.1367
▁auction	-14.1369
Bowl	-14.1372
flame	-14.1374
chucks	-14.1375
drift	-14.1375
checkout	-14.1378
vic	-14.1379
Elmo	-14.1379
checked	-14.1381
▁ze	-14.1382
English	-14.1382
oos	-14.1388
skaters	-14.1388
Texas	-14.1389
burst	-14.1389
jumper	-14.1393
▁Rabbi	-14.1394
Obama	-14.1396
wheels	-14.1397
occupied	-14.1399
rov	-14.14
Seattle	-14.1401
defense	-14.1401
▁fron	-14.1402
KI	-14.1402
Happy	-14.1404
recogni	-14.1404
gallon	-14.1408
western	-14.1411
noticed	-14.1411
Alaska	-14.1412
famili	-14.1414
Good	-14.1414
saucer	-14.1414
hazard	-14.1415
Hotel	-14.1418
House	-14.1419
Canada	-14.1419
Center	-14.1421
Ball	-14.1421
media	-14.1422
enthusiastic	-14.1424
safely	-14.1424
barbecued	-14.1428
rumpled	-14.1428
GE	-14.1429
morous	-14.1429
lovely	-14.143
angry	-14.143
mounted	-14.1434
Stop	-14.1435
mitten	-14.1439
▁snooz	-14.1446
twirl	-14.1447
totter	-14.145
▁Padd	-14.1451
actors	-14.1454
alley	-14.1455
AID	-14.1458
Hair	-14.146
brooms	-14.1467
dapple	-14.1469
pin	-14.1473
bug	-14.1474
ace	-14.1476
▁glee	-14.1477
climbers	-14.148
▁mechani	-14.1481
AMA	-14.1481
entic	-14.1486
regard	-14.1486
populate	-14.1489
FE	-14.149
▁Bad	-14.149
washers	-14.1493
Artist	-14.1494
It	-14.1496
ez	-14.1499
olded	-14.1502
22	-14.1503
▁cas	-14.1506
spout	-14.1522
Grill	-14.1525
▁rip	-14.1526
mart	-14.1527
No	-14.1528
ght	-14.1528
splatter	-14.1545
▁adolescen	-14.1549
▁pal	-14.156
tooth	-14.1562
▁shoo	-14.1562
lone	-14.1584
▁occup	-14.1585
tool	-14.159
clips	-14.1593
▁Civil	-14.1594
▁Col	-14.1596
ati	-14.1612
ucks	-14.1614
urs	-14.1626
lake	-14.1632
▁practitioner	-14.1634
▁disguise	-14.1634
▁cymbal	-14.1634
▁generation	-14.1635
eats	-14.1635
ehicle	-14.1636
▁slo	-14.1636
▁Para	-14.1636
▁SW	-14.1641
▁pylon	-14.1642
▁pigtail	-14.1642
▁Cheerleader	-14.1643
▁Oreo	-14.1643
cooked	-14.1644
▁meditate	-14.1644
horns	-14.1645
▁refuge	-14.1645
▁headwrap	-14.1645
▁thousand	-14.1645
▁ingredient	-14.1645
▁scissor	-14.1645
▁condiment	-14.1646
▁effect	-14.1646
▁communication	-14.1646
▁Friend	-14.1647
▁revol	-14.1647
▁comed	-14.1647
▁Wave	-14.1648
▁earbud	-14.1649
▁artifact	-14.1649
▁toenail	-14.1649
▁bleacher	-14.1651
▁Croc	-14.1653
▁manikin	-14.1654
skins	-14.1656
bear	-14.1656
napping	-14.1657
▁deflect	-14.1658
ogether	-14.1658
▁contemplate	-14.1659
▁regret	-14.1663
▁Store	-14.1664
▁colleg	-14.1668
▁Indoor	-14.1669
▁Angele	-14.1669
nequins	-14.167
▁Roma	-14.167
▁issue	-14.167
ashed	-14.1671
zzled	-14.1676
▁glu	-14.1678
bur	-14.1683
gues	-14.1685
▁demo	-14.1685
ketch	-14.1688
▁spoke	-14.1689
▁differ	-14.1691
shape	-14.1693
▁deploy	-14.1694
rumpet	-14.1694
ournament	-14.1696
▁recycl	-14.1697
▁swam	-14.17
▁accelerat	-14.1703
tweiler	-14.1704
lympics	-14.1706
▁bronc	-14.1706
arbecue	-14.1707
ohemian	-14.1707
adminton	-14.1707
racticing	-14.1708
eekend	-14.1708
▁Grandpa	-14.1709
▁Drag	-14.1709
achshund	-14.1709
▁frisb	-14.1709
urrito	-14.171
urniture	-14.171
ospital	-14.171
▁simultaneous	-14.171
▁opera	-14.171
onductor	-14.171
rban	-14.1711
▁improve	-14.1711
xhausted	-14.1711
hysical	-14.1711
akeboarder	-14.1711
indsurfer	-14.1711
oulevard	-14.1711
▁facilit	-14.1711
tarbucks	-14.1712
ppens	-14.1712
▁success	-14.1712
iolence	-14.1712
uggler	-14.1712
mbrellas	-14.1712
mation	-14.1712
▁energetic	-14.1712
ewelry	-14.1712
Truth	-14.1712
ophobia	-14.1712
▁cheetah	-14.1712
Thriller	-14.1712
WELCOME	-14.1712
▁AGAIN	-14.1712
▁Afghan	-14.1712
▁Elegant	-14.1712
▁absorb	-14.1712
▁confident	-14.1712
▁conspicuous	-14.1712
Aeropostale	-14.1712
Arrivo	-14.1712
Brigada	-14.1712
EGO	-14.1712
Energizer	-14.1712
Filosofie	-14.1712
Gelateria	-14.1712
bsolute	-14.1712
centurion	-14.1712
dynamic	-14.1712
ntarctica	-14.1712
stitution	-14.1712
sylvan	-14.1712
umbotron	-14.1712
▁Bandidos	-14.1712
▁Budweiser	-14.1712
▁Casino	-14.1712
▁ChinaTown	-14.1712
▁Credito	-14.1712
▁Designer	-14.1712
▁Direction	-14.1712
▁EASTPAK	-14.1712
▁Exhibit	-14.1712
▁Gallery	-14.1712
▁Gelados	-14.1712
▁Gondolier	-14.1712
▁IKEA	-14.1712
▁ISAF	-14.1712
▁Immigration	-14.1712
▁Inspector	-14.1712
▁Ireland	-14.1712
▁Komorowski	-14.1712
▁Koninck	-14.1712
▁Lampard	-14.1712
▁Laundromat	-14.1712
▁Macintosh	-14.1712
▁Mahjong	-14.1712
▁Marriott	-14.1712
▁Mechanic	-14.1712
▁Miradore	-14.1712
▁Modern	-14.1712
▁Nevada	-14.1712
▁Nigerian	-14.1712
▁Nueske	-14.1712
▁PORTO	-14.1712
▁Palestine	-14.1712
▁Project	-14.1712
▁Rabobank	-14.1712
▁Relaxing	-14.1712
▁Sahara	-14.1712
▁Scantily	-14.1712
▁Scrabble	-14.1712
▁Spartans	-14.1712
▁Stanmore	-14.1712
▁Stripper	-14.1712
▁Switzerland	-14.1712
▁WALK	-14.1712
▁Wanker	-14.1712
▁aerobatic	-14.1712
▁aerobic	-14.1712
▁akimbo	-14.1712
▁amputated	-14.1712
▁anesthesi	-14.1712
▁appetizer	-14.1712
▁apprehension	-14.1712
▁apprentice	-14.1712
▁astroturf	-14.1712
▁beehive	-14.1712
▁beliefs	-14.1712
▁cadillac	-14.1712
▁cappuccino	-14.1712
▁collaborat	-14.1712
▁colonnade	-14.1712
▁continuing	-14.1712
▁conviction	-14.1712
▁curiosity	-14.1712
▁delicacies	-14.1712
▁duplicat	-14.1712
▁earthquake	-14.1712
▁easier	-14.1712
▁emphatically	-14.1712
▁entrepreneur	-14.1712
▁excercise	-14.1712
▁fertiliz	-14.1712
▁frustration	-14.1712
▁identification	-14.1712
▁iguana	-14.1712
▁lectern	-14.1712
▁mathematic	-14.1712
▁matrix	-14.1712
▁moccasins	-14.1712
▁motivation	-14.1712
▁nutcracker	-14.1712
▁origami	-14.1712
▁outDoors	-14.1712
▁philosophy	-14.1712
▁physique	-14.1712
▁propaganda	-14.1712
▁pudgy	-14.1712
▁recipient	-14.1712
▁reservoir	-14.1712
▁resource	-14.1712
▁satellite	-14.1712
▁surveillance	-14.1712
▁tangerine	-14.1712
▁thermometer	-14.1712
▁toothpaste	-14.1712
▁unbelie	-14.1712
▁Crisco	-14.1712
▁Spices	-14.1712
▁Troops	-14.1712
▁attitude	-14.1712
▁castanhas	-14.1712
▁daisies	-14.1712
▁orchard	-14.1712
▁rotund	-14.1712
Expert	-14.1712
Sorvet	-14.1712
convince	-14.1712
▁Acura	-14.1712
▁Harlem	-14.1712
▁Kimono	-14.1712
▁Mariale	-14.1712
▁Minivan	-14.1712
▁Pregnant	-14.1712
▁algae	-14.1712
▁brulee	-14.1712
▁censor	-14.1712
▁condolence	-14.1712
▁convien	-14.1712
▁crisscross	-14.1712
▁deposit	-14.1712
▁deteriorati	-14.1712
▁disbelie	-14.1712
▁disrupt	-14.1712
▁earlobe	-14.1712
▁evacuat	-14.1712
▁ghost	-14.1712
▁incubator	-14.1712
▁reggae	-14.1712
▁relieve	-14.1712
▁rockabilly	-14.1712
▁sanitize	-14.1712
▁stabilize	-14.1712
DEMOS	-14.1712
DOWN	-14.1712
▁Ashtray	-14.1712
▁Idol	-14.1712
▁Pumpkin	-14.1712
▁applause	-14.1712
▁bellbottoms	-14.1712
▁implement	-14.1712
▁keffiy	-14.1712
▁ottoman	-14.1712
▁speculat	-14.1712
▁tumbleweed	-14.1712
▁tundra	-14.1712
▁Conference	-14.1712
▁Regency	-14.1712
▁advocacy	-14.1712
▁buddha	-14.1712
▁coyote	-14.1712
▁demise	-14.1712
▁expertise	-14.1712
▁marigold	-14.1712
▁method	-14.1712
▁parcel	-14.1712
▁vapor	-14.1712
▁Dumbo	-14.1712
▁Friday	-14.1712
▁dominance	-14.1712
▁Costco	-14.1712
▁Finley	-14.1712
▁Hammer	-14.1712
▁Records	-14.1712
▁Sabre	-14.1712
▁Sudan	-14.1712
▁achieve	-14.1712
▁educati	-14.1712
▁kakhi	-14.1712
▁medallion	-14.1712
▁sermon	-14.1712
▁Astroland	-14.1712
▁Buddha	-14.1712
▁Falcon	-14.1712
ADHD	-14.1712
OLA	-14.1712
avarian	-14.1712
▁Carpenter	-14.1712
▁Mandita	-14.1712
▁Sparrow	-14.1712
▁Speaker	-14.1712
▁breeches	-14.1712
▁canapes	-14.1712
▁caretaker	-14.1712
▁erotically	-14.1712
▁interlaced	-14.1712
▁symmetr	-14.1712
OIN	-14.1712
Pullman	-14.1712
▁hacksaw	-14.1712
▁mullet	-14.1712
▁suffering	-14.1712
trepid	-14.1712
▁believe	-14.1712
▁intertube	-14.1712
▁sporadic	-14.1712
aurant	-14.1712
▁intensity	-14.1712
▁garland	-14.1712
▁daydream	-14.1712
▁Snowmobile	-14.1712
▁Neuroscience	-14.1712
▁virtu	-14.1712
▁wildebe	-14.1712
▁SOme	-14.1712
▁craftzine	-14.1712
▁sheperd	-14.1712
nocob	-14.1712
oseph	-14.1712
▁silence	-14.1712
▁Steph	-14.1712
▁exposition	-14.1712
CKS	-14.1712
gnant	-14.1712
▁foodstuffs	-14.1712
▁ijs	-14.1712
▁bustier	-14.1712
knacks	-14.1712
▁Gelat	-14.1712
▁Perla	-14.1712
▁crazily	-14.1712
▁disabilities	-14.1712
▁scrubland	-14.1713
▁Bishop	-14.1713
▁GLA	-14.1713
▁Ryan	-14.1713
▁energetically	-14.1713
▁excersi	-14.1713
▁Eagle	-14.1713
▁Triathlete	-14.1713
▁acquaint	-14.1713
▁conspi	-14.1713
▁permit	-14.1713
PRES	-14.1713
▁coarse	-14.1713
▁uggs	-14.1713
▁tapestries	-14.1713
Point	-14.1713
▁adapt	-14.1713
▁flutist	-14.1713
TAB	-14.1713
▁Rubb	-14.1713
▁Mooring	-14.1713
▁papaya	-14.1713
▁margarita	-14.1713
RONA	-14.1713
▁astonishment	-14.1713
▁Hungar	-14.1713
▁management	-14.1713
▁repent	-14.1713
▁majorette	-14.1713
▁caffein	-14.1713
▁Tractor	-14.1713
▁Campus	-14.1713
▁edible	-14.1713
▁SAN	-14.1713
▁dizzy	-14.1713
▁seascape	-14.1713
▁activist	-14.1713
▁carbon	-14.1713
Espan	-14.1713
▁birdcage	-14.1713
▁depressing	-14.1713
▁motif	-14.1713
▁landfill	-14.1713
▁Polaroid	-14.1713
▁Boulevard	-14.1713
▁tobagg	-14.1713
▁Fez	-14.1713
▁flutter	-14.1713
▁peirc	-14.1713
▁Fanta	-14.1713
▁piglet	-14.1713
▁Graphi	-14.1713
▁stylus	-14.1713
▁boombox	-14.1713
▁Warmly	-14.1713
▁burden	-14.1713
▁drainpipe	-14.1713
▁ostrich	-14.1713
▁wonderland	-14.1713
▁yams	-14.1713
▁Springfield	-14.1713
▁overseas	-14.1713
▁population	-14.1713
▁Marqu	-14.1713
▁loveseat	-14.1713
▁pickaxe	-14.1713
▁waistcoats	-14.1713
▁Wrap	-14.1713
▁crusaders	-14.1713
▁panhandle	-14.1713
▁idol	-14.1713
▁nationality	-14.1713
ourdough	-14.1714
▁Parasail	-14.1714
▁elsewhere	-14.1714
▁Colonial	-14.1714
▁crunchy	-14.1714
▁univers	-14.1714
▁Conna	-14.1714
▁springtime	-14.1714
▁suburbia	-14.1714
▁pomeranian	-14.1714
▁Audi	-14.1714
▁Drum	-14.1714
▁equpi	-14.1714
▁slushies	-14.1714
▁rebuilt	-14.1714
▁ribb	-14.1714
▁weiner	-14.1714
▁Left	-14.1714
▁sergeant	-14.1714
▁skimmer	-14.1714
▁birth	-14.1714
▁Politician	-14.1714
▁Leaf	-14.1714
▁calibrat	-14.1714
▁Demand	-14.1714
▁carousal	-14.1715
rbor	-14.1715
▁sinkhole	-14.1715
▁motorhome	-14.1715
▁Clear	-14.1715
▁Competitor	-14.1715
Magnet	-14.1715
oliday	-14.1715
▁Pisa	-14.1715
▁WAR	-14.1715
▁trimmer	-14.1715
▁pipette	-14.1715
▁ninety	-14.1715
▁mountian	-14.1715
sworth	-14.1715
▁savior	-14.1715
Benz	-14.1715
▁Shore	-14.1715
barro	-14.1716
▁RN	-14.1716
▁Enter	-14.1716
▁honest	-14.1716
osexual	-14.1716
▁racially	-14.1716
▁compost	-14.1716
OLO	-14.1716
▁cheeseburger	-14.1716
▁levers	-14.1716
Bliss	-14.1716
▁disappointed	-14.1716
Sunflower	-14.1716
▁administ	-14.1716
▁Cindy	-14.1716
▁Schipper	-14.1716
▁rehearsal	-14.1716
▁PAR	-14.1716
▁houseplant	-14.1716
▁pothole	-14.1717
▁taylor	-14.1717
▁drama	-14.1717
▁Motor	-14.1717
▁connection	-14.1717
▁tiptoe	-14.1717
▁title	-14.1717
▁weekend	-14.1717
▁agitated	-14.1717
▁Master	-14.1718
Pod	-14.1718
▁Corn	-14.1718
▁Reading	-14.1718
▁victorian	-14.1718
▁roundabout	-14.1718
▁blessed	-14.1718
▁turbine	-14.1718
▁innocent	-14.1719
▁Carhartt	-14.1719
▁CY	-14.1719
▁Theatre	-14.1719
▁Motorbike	-14.1719
organism	-14.1719
▁Largo	-14.1719
▁scrawl	-14.1719
▁Burger	-14.1719
lothes	-14.172
▁technologies	-14.172
▁Fellow	-14.172
▁killer	-14.172
▁inventor	-14.172
Lucky	-14.172
▁harmoni	-14.172
▁easter	-14.172
ombies	-14.1721
▁Cattle	-14.1721
▁sawhorse	-14.1721
▁shipyard	-14.1721
▁airstrip	-14.1721
▁outrageous	-14.1721
iazza	-14.1721
▁mega	-14.1722
▁unhook	-14.1722
lanted	-14.1722
▁nightfall	-14.1722
mpty	-14.1722
▁realtor	-14.1722
▁Rick	-14.1723
[...]
