[UNK]	0
<s>	0
</s>	0
[MASK]	0
[PAD]	0
s	-3.14769
▁the	-3.1656
▁,	-3.34283
▁.	-3.65325
ed	-3.73184
▁of	-3.89653
▁	-3.93644
unk	-3.94367
▁<	-3.9464
>	-3.94645
▁and	-4.02422
▁in	-4.22555
▁to	-4.23241
▁a	-4.26527
ing	-4.4313
y	-4.52955
▁=	-4.56038
▁"	-4.60396
▁was	-4.89845
@	-4.9265
▁@	-4.96675
▁The	-4.98169
▁'	-5.03068
-	-5.10358
ly	-5.16758
e	-5.16838
d	-5.19516
▁on	-5.27802
▁that	-5.29851
▁with	-5.31451
▁for	-5.3309
▁as	-5.42617
▁by	-5.45054
▁)	-5.46192
(	-5.46292
▁is	-5.49045
m	-5.50406
▁be	-5.54819
n	-5.62966
▁his	-5.81193
▁at	-5.8333
▁fro	-5.84404
.	-5.87062
▁were	-5.95428
▁it	-5.9592
▁an	-6.03813
t	-6.08156
▁In	-6.1147
▁he	-6.13228
▁had	-6.20606
▁which	-6.23414
al	-6.24123
th	-6.36493
▁A	-6.3785
er	-6.39965
▁are	-6.40082
▁not	-6.43048
▁;	-6.50646
▁their	-6.53177
▁but	-6.54621
▁first	-6.56274
–	-6.57759
ies	-6.58346
▁:	-6.61067
▁or	-6.62242
▁her	-6.62846
a	-6.66419
▁I	-6.68478
also	-6.69483
▁who	-6.69513
▁have	-6.70855
▁its	-6.72189
▁one	-6.73889
▁has	-6.73955
▁been	-6.7678
▁two	-6.77233
▁He	-6.79458
st	-6.85963
▁year	-6.87299
ion	-6.93243
▁after	-6.94295
▁It	-6.94411
▁@,@	-6.95442
es	-6.96512
▁time	-6.98402
▁game	-6.991
▁other	-6.9999
on	-7.00271
▁C	-7.01915
▁B	-7.02314
▁1	-7.02994
▁f	-7.03249
▁19	-7.05406
▁over	-7.05576
▁into	-7.05643
ce	-7.06744
▁2	-7.07485
l	-7.0965
▁would	-7.09676
▁more	-7.10752
r	-7.11616
uch	-7.12606
mber	-7.14797
o	-7.16817
▁all	-7.17992
▁S	-7.18394
▁D	-7.18726
▁she	-7.19643
▁up	-7.22298
▁when	-7.22689
▁thi	-7.23289
▁3	-7.23562
▁dur	-7.24236
▁F	-7.2552
▁song	-7.26194
▁most	-7.26594
▁m	-7.27095
▁play	-7.27867
in	-7.28875
ish	-7.29127
▁includ	-7.30104
▁out	-7.31869
twee	-7.32085
▁only	-7.32418
ity	-7.32574
about	-7.33105
▁him	-7.33543
▁some	-7.34492
▁again	-7.35021
▁three	-7.3563
▁season	-7.36429
▁On	-7.37388
▁man	-7.37901
▁than	-7.38319
ve	-7.39709
▁new	-7.39781
▁through	-7.4041
▁whil	-7.40422
le	-7.40609
▁U	-7.4162
▁us	-7.41731
▁later	-7.4242
▁part	-7.42799
▁film	-7.44503
▁mad	-7.44957
us	-7.46177
▁5	-7.48288
▁M	-7.48718
ive	-7.49064
ic	-7.50856
▁large	-7.51178
▁where	-7.51459
▁4	-7.5224
▁second	-7.52414
▁E	-7.53238
▁New	-7.53359
▁number	-7.535
able	-7.53954
ary	-7.54708
▁follow	-7.54926
▁This	-7.55279
se	-7.55827
▁day	-7.55889
▁four	-7.56085
▁record	-7.56337
▁call	-7.57148
▁000	-7.57197
▁al	-7.57235
▁work	-7.57707
▁before	-7.57912
an	-7.58672
▁use	-7.59814
▁no	-7.59971
▁under	-7.60244
▁R	-7.61311
▁can	-7.62255
▁18	-7.62359
▁album	-7.62439
land	-7.62886
▁end	-7.64619
▁being	-7.65286
▁high	-7.66109
▁series	-7.66398
▁area	-7.66414
▁there	-7.66786
est	-7.68025
▁w	-7.68337
▁P	-7.68612
▁name	-7.68824
▁both	-7.68862
known	-7.69011
▁6	-7.69376
ten	-7.69684
came	-7.69778
out	-7.69863
h	-7.69893
▁L	-7.70963
▁show	-7.71107
▁T	-7.71191
▁like	-7.71489
▁/	-7.71561
▁cit	-7.71727
▁well	-7.7206
▁episode	-7.72521
▁—	-7.73241
▁form	-7.74023
though	-7.75048
▁found	-7.76846
▁United	-7.77099
gan	-7.77187
▁long	-7.78613
▁century	-7.80091
▁them	-7.81402
▁After	-7.81734
▁10	-7.82233
▁sever	-7.82358
▁American	-7.82679
cause	-7.84424
▁team	-7.84976
▁final	-7.85015
▁so	-7.8544
▁near	-7.85452
▁John	-7.85526
ever	-7.86522
son	-7.86638
▁Brit	-7.86683
ation	-7.86878
▁remain	-7.86882
▁could	-7.88462
▁20	-7.88926
this	-7.89101
▁did	-7.89175
▁She	-7.90403
▁along	-7.91174
▁un	-7.91718
i	-7.92074
▁force	-7.92078
▁back	-7.92372
▁may	-7.92512
▁sai	-7.93205
▁character	-7.94027
▁release	-7.94879
round	-7.96165
▁8	-7.9675
▁War	-7.9675
▁unti	-7.96893
1	-7.96944
▁start	-7.97137
▁place	-7.97276
▁original	-7.97664
▁million	-7.97918
▁As	-7.98227
▁7	-7.98409
▁people	-7.98951
▁return	-7.99264
▁9	-7.99616
▁earl	-7.99833
▁km	-7.99952
other	-8.00013
▁player	-8.00047
ment	-8.00339
▁May	-8.005
▁sam	-8.00652
▁main	-8.00869
▁0	-8.01268
▁O	-8.01537
en	-8.02146
▁how	-8.02151
▁ship	-8.02548
▁North	-8.03542
▁12	-8.03655
▁down	-8.03847
▁August	-8.0393
▁off	-8.04062
▁South	-8.04111
▁de	-8.04479
▁see	-8.05035
▁At	-8.05213
▁support	-8.0535
ry	-8.05494
2	-8.05763
▁life	-8.06884
▁small	-8.06985
▁set	-8.07528
▁any	-8.07914
▁group	-8.08466
▁Septe	-8.08473
▁each	-8.0885
▁point	-8.0887
▁Al	-8.09029
▁take	-8.09488
▁lead	-8.095
▁German	-8.09858
▁16	-8.09952
▁World	-8.10085
▁Jun	-8.10541
▁six	-8.11619
▁single	-8.11755
rom	-8.12103
▁result	-8.12207
▁appear	-8.12665
ok	-8.12891
▁home	-8.13917
▁attack	-8.14194
▁music	-8.14768
▁line	-8.14854
▁own	-8.1499
▁great	-8.15609
▁J	-8.16589
▁do	-8.1663
man	-8.16832
▁state	-8.16928
▁order	-8.16944
ther	-8.16948
▁consider	-8.17112
▁major	-8.17339
▁since	-8.17469
if	-8.17778
▁15	-8.18026
▁what	-8.18396
▁Dur	-8.18936
▁will	-8.2066
▁re	-8.2077
▁K	-8.2129
▁States	-8.21317
▁late	-8.21534
ley	-8.22069
ober	-8.222
▁last	-8.22502
▁Oct	-8.22617
um	-8.22679
▁air	-8.22767
▁system	-8.23013
▁receiv	-8.2306
▁include	-8.23087
$	-8.23147
▁An	-8.23473
▁...	-8.23492
▁week	-8.23687
▁11	-8.23758
▁17	-8.24625
▁Jan	-8.24666
rote	-8.24912
[	-8.25161
▁Ap	-8.25403
▁York	-8.25432
▁world	-8.25633
▁famil	-8.25719
▁role	-8.25982
▁now	-8.2615
▁reach	-8.26286
age	-8.26663
▁war	-8.26912
▁won	-8.27279
▁child	-8.27792
ril	-8.28018
9	-8.28049
▁due	-8.28403
4	-8.28722
▁N	-8.28853
▁direct	-8.29179
▁allow	-8.29253
ical	-8.29837
▁run	-8.29924
▁death	-8.30027
very	-8.30077
ese	-8.30314
▁Be	-8.30533
▁side	-8.31015
▁storm	-8.31733
6	-8.31764
▁England	-8.32036
▁government	-8.32041
▁describ	-8.32229
▁left	-8.32328
▁video	-8.32473
▁short	-8.32555
uar	-8.32719
▁No	-8.32751
▁position	-8.32828
▁north	-8.32915
▁30	-8.33282
▁attempt	-8.33499
▁open	-8.34095
is	-8.34181
▁just	-8.34236
▁e	-8.34312
▁March	-8.34401
▁event	-8.34439
▁third	-8.34561
▁mov	-8.35023
▁title	-8.35073
▁general	-8.35348
▁Nove	-8.3574
▁previous	-8.35886
ver	-8.35963
▁feature	-8.36026
▁become	-8.3619
▁book	-8.36235
▁design	-8.36776
▁school	-8.37101
▁13	-8.37106
▁H	-8.3747
▁make	-8.37755
▁14	-8.37846
ren	-8.3811
ton	-8.38128
way	-8.38221
▁Dece	-8.38324
▁Man	-8.38456
▁head	-8.39198
▁water	-8.39283
▁south	-8.39299
▁develop	-8.39631
▁perform	-8.39641
▁base	-8.39997
▁buil	-8.40039
▁way	-8.40474
u	-8.40525
▁His	-8.4053
▁River	-8.40532
▁City	-8.40536
▁W	-8.40839
▁go	-8.41194
▁power	-8.41294
▁men	-8.4135
▁There	-8.41484
▁month	-8.41657
▁When	-8.41802
▁close	-8.41827
▁version	-8.41835
▁publish	-8.41864
▁25	-8.42353
▁period	-8.42839
▁2009	-8.43256
▁2010	-8.43416
▁even	-8.43499
▁G	-8.43852
▁2008	-8.43905
▁local	-8.43911
▁best	-8.44084
3	-8.4411
▁II	-8.44745
▁old	-8.44825
▁St	-8.44986
▁top	-8.45014
▁National	-8.45098
▁US	-8.45307
▁church	-8.45548
▁club	-8.46051
▁b	-8.46243
▁public	-8.46877
ance	-8.47301
▁By	-8.47354
opical	-8.47446
▁still	-8.48073
▁career	-8.48285
▁Howe	-8.4831
▁c	-8.4839
▁100	-8.48742
▁common	-8.48805
▁Jul	-8.48888
or	-8.49216
▁present	-8.49603
▁site	-8.49794
▁yard	-8.50121
▁list	-8.50353
▁change	-8.50386
ous	-8.50392
f	-8.50416
▁led	-8.50487
▁few	-8.51045
▁releas	-8.51223
company	-8.51364
▁establish	-8.51476
▁next	-8.5154
▁2007	-8.51552
▁help	-8.51554
▁land	-8.51875
▁complete	-8.52192
▁For	-8.52444
▁French	-8.52605
▁All	-8.52633
▁building	-8.52652
5	-8.53118
▁English	-8.53141
▁per	-8.53237
▁arm	-8.53678
▁One	-8.54236
▁To	-8.54236
▁turn	-8.54382
▁writ	-8.5451
▁right	-8.54811
▁State	-8.54905
▁you	-8.55604
▁fire	-8.55848
ar	-8.55911
▁level	-8.56054
▁seven	-8.56054
S	-8.56334
▁t	-8.56529
▁half	-8.56563
▁claim	-8.56602
▁ga	-8.56709
▁Division	-8.56802
▁Some	-8.56865
▁say	-8.56874
▁cover	-8.57088
▁contain	-8.57117
▁former	-8.57273
▁among	-8.57356
▁With	-8.57377
7	-8.57947
▁want	-8.58123
▁came	-8.58272
▁199	-8.58604
▁pass	-8.58675
▁histor	-8.5872
all	-8.58745
▁production	-8.58914
▁full	-8.59259
▁population	-8.59442
▁total	-8.59449
▁di	-8.59561
▁field	-8.5986
▁review	-8.60004
▁every	-8.60104
▁suggest	-8.60106
▁different	-8.60356
▁2011	-8.60409
▁though	-8.60557
▁further	-8.60592
▁similar	-8.60932
▁kill	-8.60989
▁According	-8.61168
▁2006	-8.61184
▁west	-8.61398
▁Wal	-8.6145
▁Church	-8.61565
▁wide	-8.61978
▁track	-8.62129
▁militar	-8.62757
▁official	-8.62961
▁add	-8.63118
&	-8.63131
ebru	-8.63131
▁continu	-8.63221
ia	-8.63347
▁particular	-8.63529
▁damage	-8.63617
▁strong	-8.6381
side	-8.64538
ty	-8.64587
▁issue	-8.64628
▁League	-8.6473
▁increase	-8.6473
▁control	-8.65001
▁196	-8.6507
ers	-8.65181
x	-8.65272
held	-8.65312
▁bas	-8.6587
▁defeat	-8.66559
▁service	-8.66565
▁21	-8.67103
▁Song	-8.67208
ylan	-8.67287
▁unit	-8.67512
▁body	-8.67699
▁story	-8.67821
▁2012	-8.6823
▁reported	-8.68576
▁Old	-8.68879
▁produc	-8.68901
▁band	-8.69119
ham	-8.6941
▁art	-8.69513
re	-8.69843
▁finish	-8.69895
▁match	-8.69933
▁eight	-8.70211
▁real	-8.70224
▁east	-8.70323
▁house	-8.70392
▁project	-8.70438
▁region	-8.70673
▁critic	-8.70826
▁hav	-8.70867
▁move	-8.70883
▁human	-8.70954
▁Japan	-8.70962
g	-8.71248
as	-8.71293
k	-8.71355
▁General	-8.71828
▁members	-8.72324
▁America	-8.72555
▁star	-8.72561
▁writing	-8.72604
stead	-8.72873
▁Whil	-8.73325
▁low	-8.7335
▁young	-8.73363
▁22	-8.73613
▁country	-8.73693
▁plan	-8.73694
by	-8.73744
▁23	-8.73791
▁thought	-8.73849
▁h	-8.73913
▁live	-8.73919
▁term	-8.73935
▁we	-8.73955
▁2013	-8.74238
▁light	-8.74295
8	-8.74595
cross	-8.74633
▁mak	-8.74699
▁operation	-8.74769
▁Park	-8.74771
▁style	-8.75215
▁continue	-8.75272
▁range	-8.75323
species	-8.75363
▁never	-8.75366
craft	-8.75449
▁26	-8.75473
▁development	-8.7562
▁less	-8.75908
▁Arm	-8.75962
lost	-8.76091
▁popular	-8.76193
▁action	-8.76242
▁scor	-8.76496
▁197	-8.76562
went	-8.76747
▁Universit	-8.76804
▁award	-8.769
▁novel	-8.76921
ian	-8.7697
▁tour	-8.77152
▁toward	-8.7738
▁fee	-8.77391
▁Australian	-8.77484
▁stated	-8.77763
z	-8.77766
thing	-8.77783
▁town	-8.77945
▁scene	-8.78634
▁age	-8.78644
▁West	-8.78748
▁win	-8.78777
ern	-8.78973
day	-8.79259
▁enter	-8.79266
▁chart	-8.79273
ose	-8.79304
▁Ire	-8.79326
▁join	-8.79365
▁hour	-8.79473
▁24	-8.79525
ither	-8.79637
line	-8.79727
▁island	-8.80073
te	-8.80276
▁writer	-8.80453
▁You	-8.80534
▁element	-8.80632
▁28	-8.8065
▁televis	-8.80708
self	-8.80808
▁50	-8.81308
▁ground	-8.81389
▁route	-8.81459
most	-8.81771
▁himself	-8.82364
ondon	-8.82448
▁get	-8.8248
▁fel	-8.82568
▁white	-8.8266
▁caus	-8.82945
▁good	-8.83031
▁sign	-8.83248
ie	-8.83466
▁provide	-8.83511
be	-8.8356
▁Australia	-8.83639
▁give	-8.83711
▁significant	-8.83811
▁view	-8.83832
▁th	-8.83867
ness	-8.83978
▁possibl	-8.84239
▁ten	-8.84304
▁important	-8.84541
▁stage	-8.84546
▁Time	-8.84564
▁King	-8.84669
▁initial	-8.84976
▁How	-8.8503
▁Chin	-8.85468
▁female	-8.8547
▁exist	-8.85721
▁various	-8.85969
▁father	-8.85978
▁interest	-8.85982
▁performance	-8.8604
▁grow	-8.86273
▁road	-8.86522
▁act	-8.8653
▁earlie	-8.86709
▁James	-8.86764
▁miles	-8.86901
▁creat	-8.86952
▁minute	-8.86969
▁wind	-8.87503
▁Her	-8.87507
▁tr	-8.87524
▁success	-8.87637
▁successful	-8.87735
▁does	-8.87992
▁case	-8.88047
▁peak	-8.88241
given	-8.88381
▁Miss	-8.88497
▁political	-8.88554
▁Ma	-8.8873
▁date	-8.88746
▁Tr	-8.88769
▁discover	-8.89324
▁son	-8.89362
▁black	-8.89773
▁poem	-8.89775
▁look	-8.90036
▁Black	-8.9016
▁example	-8.90294
▁night	-8.90403
▁County	-8.90503
▁influence	-8.91115
▁should	-8.9133
▁sent	-8.91377
▁need	-8.91434
▁Road	-8.91602
▁victor	-8.91603
▁Z	-8.91639
▁effect	-8.91813
▁put	-8.91939
▁27	-8.92104
▁eventual	-8.92138
▁structure	-8.92494
ford	-8.93188
▁2004	-8.93216
▁modern	-8.9327
▁entire	-8.93465
▁2005	-8.93479
cy	-8.93559
▁construction	-8.93802
omen	-8.93844
▁Feder	-8.93991
▁coast	-8.94332
▁represent	-8.94518
ge	-8.95032
▁serv	-8.95207
▁class	-8.95768
▁times	-8.95923
▁goal	-8.96155
▁describe	-8.96695
▁hurricane	-8.97016
hind	-8.97454
▁co	-8.97484
▁difficult	-8.97854
▁Kingdom	-8.97857
▁Atlant	-8.98168
▁too	-8.98298
▁campaign	-8.98417
▁mid	-8.98438
▁god	-8.98535
▁debut	-8.98699
▁word	-8.98744
▁national	-8.98909
▁addition	-8.98937
▁offer	-8.99132
ite	-8.99364
el	-8.99378
▁Company	-8.99551
▁Cup	-8.99576
▁fight	-8.99817
▁arriv	-8.99983
▁litt	-9.00041
▁Island	-9.00047
lso	-9.00266
▁We	-9.00281
▁highway	-9.00288
na	-9.00421
▁come	-9.00471
ch	-9.00597
▁Robert	-9.00731
▁France	-9.01061
▁face	-9.01129
▁male	-9.01141
▁visit	-9.01263
▁V	-9.0157
▁report	-9.01672
▁Battalion	-9.0186
▁figure	-9.0186
▁born	-9.02011
▁Love	-9.02382
▁wife	-9.02453
▁specie	-9.02713
▁southern	-9.02768
▁David	-9.02852
▁guns	-9.03031
▁Grand	-9.03058
▁study	-9.03069
▁Brigade	-9.03094
▁student	-9.03331
▁command	-9.03557
▁194	-9.03646
▁process	-9.03772
▁comment	-9.03897
nd	-9.03974
▁eastern	-9.03998
▁village	-9.04234
▁relationship	-9.04242
▁featur	-9.04544
▁2003	-9.04547
▁post	-9.04728
▁officer	-9.04943
▁mother	-9.05141
▁Roman	-9.05205
▁mi	-9.0541
▁2015	-9.05451
▁Other	-9.05508
▁loss	-9.05524
ally	-9.05726
▁40	-9.05773
▁image	-9.0588
▁front	-9.06017
▁love	-9.06096
▁p	-9.06172
ought	-9.06227
▁locat	-9.06581
▁Music	-9.06602
▁Europe	-9.0664
▁European	-9.06705
ship	-9.06769
▁cause	-9.06824
▁stars	-9.06837
▁experience	-9.07163
K	-9.07166
▁battle	-9.07303
thus	-9.07421
▁heavy	-9.07877
▁lack	-9.07879
▁score	-9.07993
▁idea	-9.08011
ium	-9.08036
▁consist	-9.08186
▁race	-9.08463
▁problem	-9.08499
▁condom	-9.08814
w	-9.08939
▁program	-9.09136
▁Re	-9.0946
▁29	-9.09534
▁sold	-9.09564
▁Nav	-9.09582
▁Bo	-9.09645
▁rock	-9.09648
▁William	-9.09649
▁announc	-9.0968
▁Royal	-9.09799
▁shot	-9.09823
▁individual	-9.10072
field	-9.10079
▁Carey	-9.102
▁break	-9.10449
▁rest	-9.10464
ial	-9.10586
▁center	-9.10756
▁me	-9.10805
▁limit	-9.1082
▁director	-9.11059
▁communit	-9.11221
▁liv	-9.11279
▁find	-9.11508
▁cell	-9.11583
▁Earl	-9.11708
▁accept	-9.11762
▁gun	-9.12083
▁begin	-9.12104
tion	-9.12131
▁protein	-9.12643
▁burn	-9.12888
▁member	-9.12948
▁George	-9.12996
▁manager	-9.13034
▁appearance	-9.13075
▁God	-9.13243
▁source	-9.13293
▁activit	-9.13293
rought	-9.13405
▁International	-9.1362
▁language	-9.13621
it	-9.13666
tic	-9.13673
▁free	-9.13903
▁White	-9.14013
▁count	-9.1409
▁ask	-9.14142
N	-9.14156
▁East	-9.14241
▁current	-9.14279
▁create	-9.14441
▁fall	-9.14441
▁ball	-9.14686
▁regular	-9.14949
▁hand	-9.15067
▁31	-9.15073
▁pre	-9.15109
▁destroy	-9.15151
▁Christian	-9.15159
▁Flor	-9.15268
▁believe	-9.15915
▁protect	-9.15983
▁decid	-9.16016
▁Hero	-9.16148
▁Championship	-9.16285
▁works	-9.16344
▁Street	-9.16574
▁opening	-9.16615
▁non	-9.16732
ida	-9.16791
ld	-9.16801
▁size	-9.1684
ordan	-9.1693
▁river	-9.16942
▁195	-9.1699
▁cross	-9.17147
▁regard	-9.17317
▁Game	-9.17395
▁artist	-9.17543
▁wall	-9.17562
c	-9.17563
▁clear	-9.17566
▁Follow	-9.17641
▁evidence	-9.17642
▁gain	-9.17776
▁central	-9.17847
▁198	-9.17923
▁Michael	-9.17984
▁far	-9.18227
▁hit	-9.18292
▁Thom	-9.18391
ll	-9.18414
▁From	-9.18599
▁voice	-9.1881
ir	-9.1882
▁fail	-9.1886
ball	-9.18869
▁House	-9.18891
ter	-9.18959
▁ever	-9.19011
▁commercial	-9.19021
▁Port	-9.19208
▁troops	-9.19275
▁rank	-9.19362
▁subsequent	-9.19365
▁reveal	-9.19366
▁draw	-9.19581
▁200	-9.1959
▁launch	-9.19774
▁agree	-9.19968
▁Day	-9.20047
▁Tw	-9.2051
▁outside	-9.20533
▁saw	-9.20692
▁contract	-9.20727
▁average	-9.2088
▁fan	-9.21042
▁court	-9.21213
▁location	-9.21642
▁league	-9.21832
▁length	-9.21855
▁crew	-9.21861
▁Le	-9.21868
▁recording	-9.21949
▁competition	-9.22187
▁nam	-9.22195
▁section	-9.22196
▁Sa	-9.22258
▁San	-9.22422
▁Richard	-9.22548
ouri	-9.22593
▁international	-9.22906
▁conduct	-9.22914
▁Rock	-9.22946
▁station	-9.23107
▁provid	-9.23139
▁Hurricane	-9.23266
▁effort	-9.23267
▁mean	-9.23379
▁500	-9.23474
▁mix	-9.23547
▁account	-9.23652
▁2001	-9.23665
▁poor	-9.23724
▁con	-9.23743
▁extend	-9.23784
▁appoint	-9.23959
▁flood	-9.23992
▁my	-9.24035
▁rule	-9.24137
▁suffer	-9.24359
▁know	-9.24499
▁produce	-9.24527
▁Star	-9.24572
▁Most	-9.24597
▁round	-9.24851
coming	-9.24926
▁producer	-9.25051
▁port	-9.25185
▁reason	-9.25336
▁Tech	-9.25452
▁Indian	-9.25473
▁gold	-9.25492
▁person	-9.25494
ston	-9.25661
▁plann	-9.25742
▁magazine	-9.25858
▁Paul	-9.25926
▁cast	-9.25955
▁ra	-9.26095
▁serve	-9.26112
▁learn	-9.26203
▁Part	-9.26223
▁stay	-9.26254
▁law	-9.26409
▁material	-9.2657
▁Great	-9.26579
▁First	-9.26583
▁availab	-9.26632
hose	-9.26721
▁decision	-9.2695
▁seem	-9.26979
▁1970	-9.26987
▁leave	-9.27253
▁abo	-9.27293
▁authorit	-9.27328
▁condition	-9.27329
▁quarter	-9.2733
less	-9.27516
▁And	-9.27579
read	-9.27596
▁quick	-9.27703
ng	-9.27737
▁Villa	-9.27776
▁fift	-9.27785
b	-9.27809
▁others	-9.28014
▁X	-9.28098
▁horse	-9.28112
▁Mary	-9.28188
▁approach	-9.28202
▁Jack	-9.28319
▁construct	-9.28369
▁travel	-9.28414
▁working	-9.28505
▁receive	-9.28697
▁office	-9.28722
▁positive	-9.28846
▁involv	-9.28862
▁stor	-9.28936
▁Africa	-9.28961
▁norther	-9.2901
▁studio	-9.29227
▁maintain	-9.29228
▁king	-9.29301
mph	-9.29311
▁soon	-9.29315
▁Sea	-9.29475
▁Canada	-9.29615
▁business	-9.29616
▁Air	-9.29809
▁usual	-9.30008
▁interview	-9.30008
▁believ	-9.30068
▁President	-9.30386
▁Henry	-9.30387
more	-9.30409
▁2000	-9.30438
▁referr	-9.30501
▁Val	-9.30542
▁tree	-9.30706
▁De	-9.30749
▁machine	-9.30868
ism	-9.30987
▁think	-9.31039
wood	-9.31083
▁letter	-9.31198
▁1990	-9.31211
▁metre	-9.31251
II	-9.31278
▁car	-9.31481
▁met	-9.31597
BC	-9.3164
▁Ju	-9.31644
▁sometime	-9.31697
▁prais	-9.3181
low	-9.3187
▁Brown	-9.31956
▁Olivier	-9.31966
▁transport	-9.31972
▁60	-9.32017
▁Act	-9.32121
▁India	-9.324
00	-9.32506
▁Peter	-9.32569
one	-9.32743
▁response	-9.32743
A	-9.32754
▁rate	-9.32976
▁Regiment	-9.33142
▁taking	-9.33145
▁recent	-9.33151
▁western	-9.33203
▁mention	-9.33243
▁Desp	-9.33348
▁red	-9.33386
▁Red	-9.33531
▁Vietnam	-9.33542
▁attend	-9.33802
▁write	-9.33818
▁lower	-9.33848
▁Mexico	-9.33962
▁Later	-9.33986
▁charge	-9.33986
▁leas	-9.34271
▁deal	-9.34298
▁focus	-9.34604
▁School	-9.34751
▁social	-9.34756
▁space	-9.34757
▁broke	-9.34805
▁special	-9.34984
▁Canadian	-9.35159
▁concert	-9.35196
ful	-9.35309
0	-9.35313
▁standard	-9.3549
▁nine	-9.3549
▁capital	-9.35565
▁brother	-9.35573
▁Sun	-9.35775
▁introduc	-9.35805
▁religious	-9.35976
▁flight	-9.3603
▁test	-9.36098
▁football	-9.3616
▁hold	-9.36226
▁explain	-9.36408
▁surface	-9.36425
▁pressure	-9.36552
▁network	-9.36801
▁1960	-9.36853
▁advance	-9.36878
▁slow	-9.36889
▁studie	-9.36909
▁intend	-9.36944
AF	-9.37139
ne	-9.37172
▁increasing	-9.37216
rd	-9.37234
▁prevent	-9.37244
▁stone	-9.37272
▁forward	-9.37295
achel	-9.37368
▁sea	-9.37423
special	-9.37547
▁subject	-9.37632
▁Mark	-9.37638
▁That	-9.37714
▁Ca	-9.37757
▁must	-9.37919
▁Guitar	-9.38051
▁sound	-9.3811
sh	-9.38164
▁friend	-9.38267
▁actor	-9.38292
▁past	-9.38444
▁Mount	-9.38466
▁Bay	-9.38477
▁typical	-9.38503
▁relative	-9.38562
▁approximate	-9.3857
▁piece	-9.38586
▁replac	-9.38592
▁separate	-9.38649
▁specific	-9.38883
▁thing	-9.38949
▁fact	-9.3902
▁camp	-9.39037
▁Mi	-9.39096
▁certain	-9.39316
▁Union	-9.39356
▁foot	-9.39379
▁election	-9.39452
▁goals	-9.39454
▁immediate	-9.39742
▁division	-9.39753
▁additional	-9.39812
▁Wi	-9.3994
ra	-9.40004
▁display	-9.40174
▁detail	-9.40174
▁depression	-9.40184
▁might	-9.40192
▁cost	-9.4022
▁movement	-9.40255
▁professional	-9.40267
▁police	-9.40579
▁Pacific	-9.40598
▁Wheeler	-9.40603
▁beginning	-9.40607
▁NY	-9.40624
▁leg	-9.40722
▁according	-9.40725
▁occurr	-9.40792
▁winn	-9.40812
et	-9.40891
▁Li	-9.40944
▁resident	-9.41033
▁food	-9.41049
▁2002	-9.41068
14	-9.41107
▁But	-9.41348
▁injur	-9.41473
▁daughter	-9.41502
▁training	-9.41555
▁cut	-9.41691
▁type	-9.41697
▁Sinc	-9.41989
▁pitch	-9.42031
▁spen	-9.42188
▁territor	-9.42273
▁battalion	-9.42334
▁Film	-9.42353
▁chose	-9.42377
▁00	-9.42491
▁relat	-9.42509
latter	-9.42575
▁Hall	-9.42615
▁fund	-9.42632
▁Ver	-9.42653
▁Or	-9.42659
▁Catholic	-9.42772
▁media	-9.42876
▁annual	-9.42922
▁Force	-9.43005
▁Award	-9.43112
▁coach	-9.43284
▁complet	-9.43297
▁185	-9.43374
▁room	-9.43459
▁Histor	-9.43486
▁Creek	-9.43656
▁forest	-9.43731
ota	-9.43912
▁president	-9.43953
▁Centr	-9.43973
▁Light	-9.44115
▁host	-9.44118
▁save	-9.44158
▁Art	-9.44179
town	-9.44374
▁research	-9.44433
▁connect	-9.44556
▁probabl	-9.44599
▁earn	-9.44628
▁poet	-9.44749
▁animal	-9.44995
▁soldier	-9.45026
▁futur	-9.45034
▁Ri	-9.45086
▁affect	-9.45095
▁fleet	-9.45125
lor	-9.45195
▁industr	-9.45434
to	-9.45479
ney	-9.45509
▁Charles	-9.45515
▁read	-9.45757
ory	-9.45851
▁better	-9.45967
▁45	-9.46111
▁Jin	-9.46173
▁despi	-9.46206
▁Virgin	-9.46268
rish	-9.46294
▁concern	-9.46353
▁Route	-9.46355
▁culture	-9.46387
▁reference	-9.4639
▁boat	-9.46413
▁Hill	-9.4642
▁tra	-9.46439
▁share	-9.46456
▁practice	-9.46522
▁runn	-9.4657
▁personal	-9.46587
▁Awards	-9.46619
▁My	-9.46651
▁hard	-9.46818
▁woman	-9.46943
▁meeting	-9.47019
ha	-9.47065
▁Law	-9.47144
▁centre	-9.47249
▁heavi	-9.4727
▁35	-9.47496
formation	-9.4754
▁trade	-9.47711
▁beat	-9.47768
▁assist	-9.47835
▁tell	-9.47837
▁Per	-9.47926
▁compar	-9.48193
▁grant	-9.48228
▁amount	-9.48248
▁capture	-9.48409
▁mass	-9.48534
▁fly	-9.4859
▁critical	-9.48607
da	-9.48646
▁remov	-9.48707
▁Arab	-9.48907
▁watch	-9.49096
▁secur	-9.49118
▁1980	-9.49153
▁summer	-9.49217
fall	-9.49308
▁Zealand	-9.49479
95	-9.49607
▁Du	-9.49632
▁treat	-9.49735
▁bring	-9.49819
▁El	-9.50044
▁staff	-9.50111
▁cap	-9.50119
▁80	-9.50217
▁shape	-9.50252
end	-9.50254
▁dam	-9.50486
taken	-9.50543
illboard	-9.50665
▁Lad	-9.50665
▁birds	-9.508
▁Olympic	-9.51017
ist	-9.51067
▁birth	-9.51073
▁musical	-9.51096
▁TV	-9.51126
▁depict	-9.51399
ine	-9.5148
▁audience	-9.51494
▁private	-9.51496
▁radio	-9.51519
▁double	-9.51524
▁Western	-9.51525
▁assign	-9.51716
▁mone	-9.51813
▁notes	-9.51847
▁commander	-9.51911
ny	-9.51945
▁Scientology	-9.51974
▁respective	-9.52009
▁model	-9.52163
▁meet	-9.52298
▁Scott	-9.52405
▁deliver	-9.52467
▁express	-9.52576
▁tower	-9.52583
▁cm	-9.52642
▁deep	-9.52944
▁Year	-9.52956
ward	-9.52956
▁2016	-9.52966
▁throw	-9.53103
▁lines	-9.53148
▁market	-9.53151
▁select	-9.53281
▁nature	-9.53432
▁actual	-9.53434
▁Association	-9.53435
▁La	-9.53476
▁Dan	-9.53512
▁38	-9.53812
▁Parliament	-9.53921
▁Under	-9.53934
▁broadcast	-9.54022
▁Council	-9.54414
upon	-9.54414
▁Saint	-9.54415
▁distance	-9.54417
▁Co	-9.54424
▁sing	-9.54516
▁sequence	-9.54521
▁collection	-9.54525
▁pair	-9.54567
ung	-9.54593
▁Jane	-9.546
▁employ	-9.5508
▁Lo	-9.55331
▁California	-9.55406
▁Galve	-9.55416
▁link	-9.55425
▁cyclone	-9.55461
▁Angel	-9.55479
▁breed	-9.55536
msel	-9.5554
ma	-9.55545
E	-9.55645
▁So	-9.55756
▁sub	-9.55781
▁primar	-9.55801
▁Battle	-9.55928
▁education	-9.55945
▁Lake	-9.55961
▁Tom	-9.56038
▁leav	-9.56173
▁states	-9.56256
▁colon	-9.56316
▁Jewish	-9.5643
▁1950	-9.56462
tein	-9.56467
▁involve	-9.56472
▁Croatia	-9.5656
▁author	-9.56697
▁sell	-9.56707
ant	-9.56887
▁Prince	-9.56915
▁adopt	-9.56915
▁parent	-9.56974
▁estimat	-9.5704
▁concept	-9.57091
▁Yu	-9.5721
▁traditional	-9.57394
▁question	-9.57432
nough	-9.57501
▁rare	-9.57603
▁color	-9.5766
▁ran	-9.57991
ami	-9.5819
▁anti	-9.5842
▁Brad	-9.58568
▁meaning	-9.58584
▁Final	-9.5866
▁occur	-9.58722
▁Play	-9.58765
▁Ha	-9.58779
▁lyrics	-9.58799
ery	-9.58819
▁brief	-9.5896
▁decade	-9.58964
ble	-9.58977
▁organization	-9.58981
▁Earth	-9.59058
▁Ross	-9.59128
▁try	-9.59262
▁prior	-9.59303
▁sister	-9.59483
▁Beyon	-9.59484
▁Latin	-9.59484
▁tradition	-9.59507
▁effective	-9.59715
▁Mos	-9.59842
aught	-9.59844
▁historical	-9.59846
▁course	-9.59853
ice	-9.60005
▁situation	-9.60027
ffic	-9.6009
▁mission	-9.60094
▁g	-9.60147
▁Scot	-9.6029
▁equip	-9.60533
▁Los	-9.60545
▁marriage	-9.60545
▁dead	-9.60554
ence	-9.60859
▁ear	-9.60963
▁statu	-9.60972
▁natural	-9.60998
▁Frank	-9.61064
▁universit	-9.61112
▁keep	-9.6116
▁self	-9.61176
▁singer	-9.61353
▁Wood	-9.61531
▁Chicago	-9.61578
ft	-9.61687
om	-9.61718
▁job	-9.6211
▁1940	-9.62153
▁plant	-9.62288
▁our	-9.62349
fore	-9.62443
▁historian	-9.62685
▁metal	-9.62807
▁miss	-9.62815
ways	-9.62834
▁minor	-9.62882
▁70	-9.62916
▁edge	-9.62945
▁36	-9.62947
▁train	-9.62948
▁defence	-9.63182
▁Service	-9.63184
▁batter	-9.63311
▁via	-9.63395
▁names	-9.63579
▁requir	-9.63604
ro	-9.63647
▁newspaper	-9.63723
▁request	-9.63723
▁Nation	-9.63767
▁sexual	-9.63806
▁painting	-9.63852
▁Over	-9.63854
▁Gul	-9.64069
▁tournament	-9.64268
▁Meyer	-9.6427
▁1930	-9.64305
▁Simon	-9.64371
den	-9.64382
▁parts	-9.64428
▁Jon	-9.64565
▁400	-9.64595
▁African	-9.64773
▁Second	-9.64812
▁border	-9.64813
▁Alkan	-9.64815
▁Up	-9.64848
▁1993	-9.64881
ting	-9.64997
▁Blue	-9.65011
head	-9.65133
▁High	-9.65283
▁Liverpool	-9.65362
▁serious	-9.65364
▁Nixon	-9.65365
▁variet	-9.65374
▁whole	-9.65449
▁Turk	-9.65609
▁abilit	-9.65871
▁protest	-9.65901
▁rapid	-9.65916
▁require	-9.65996
▁Tay	-9.66243
▁en	-9.66248
▁Record	-9.66387
▁got	-9.66402
▁Texas	-9.6647
▁Christmas	-9.6647
▁defend	-9.66569
▁Sever	-9.66945
▁moment	-9.67033
▁theme	-9.67051
▁reject	-9.67072
▁upper	-9.67111
▁Ne	-9.67289
ated	-9.67308
▁don	-9.67406
▁active	-9.67565
▁Fowle	-9.67593
▁search	-9.67596
▁Go	-9.67629
▁mountain	-9.67657
▁Super	-9.6768
▁tail	-9.67749
ves	-9.67839
▁speak	-9.67853
▁captur	-9.67894
▁giv	-9.67896
▁rating	-9.68007
▁Live	-9.68061
▁drive	-9.68067
▁screen	-9.68117
▁conflict	-9.68155
▁reflect	-9.68155
▁Squadron	-9.68155
▁Three	-9.68156
▁temple	-9.68156
▁Italian	-9.68165
▁bridge	-9.68172
▁1996	-9.68244
hou	-9.68256
▁75	-9.68304
▁rais	-9.68384
▁thick	-9.68416
ain	-9.68549
▁Republic	-9.68663
co	-9.68665
▁script	-9.68717
▁native	-9.68725
▁cathedral	-9.68732
▁stat	-9.68791
▁avoid	-9.68854
▁kind	-9.68941
▁Fort	-9.69011
▁Oma	-9.6907
▁press	-9.69132
at	-9.6926
▁pay	-9.69271
▁fruit	-9.69295
▁abandon	-9.69295
▁potential	-9.69296
▁Carolina	-9.69306
▁300	-9.69324
▁health	-9.69347
▁Me	-9.69389
▁Tenn	-9.69511
ington	-9.69732
▁scale	-9.69769
▁marked	-9.69785
▁withdraw	-9.6987
▁dollar	-9.69875
▁nation	-9.69899
▁slight	-9.69931
▁meant	-9.70233
▁guitar	-9.70346
▁reduc	-9.70406
▁Minne	-9.70476
ent	-9.70691
▁rain	-9.70907
▁bodie	-9.7095
▁demand	-9.7103
▁speed	-9.71034
▁Like	-9.71044
▁dark	-9.71052
▁Infantry	-9.71211
▁Paris	-9.71213
▁Storm	-9.71264
▁method	-9.71302
▁Mag	-9.71349
▁Alic	-9.7155
▁Bow	-9.71599
▁Soviet	-9.71614
▁husband	-9.71614
▁adult	-9.71619
▁90	-9.71641
ph	-9.71645
▁Common	-9.71675
yet	-9.71675
▁access	-9.71751
▁Ga	-9.71916
▁flow	-9.71998
▁key	-9.7202
▁propos	-9.72119
▁188	-9.72194
▁headquarter	-9.72202
▁expand	-9.72202
▁Series	-9.72207
▁College	-9.72236
▁frequent	-9.72271
▁blue	-9.72277
▁seat	-9.72312
▁ending	-9.72391
que	-9.72395
▁presen	-9.72542
▁Rosebery	-9.72794
▁dedicat	-9.72794
▁girl	-9.72795
▁Anderson	-9.72809
▁wound	-9.72835
▁Ka	-9.72854
▁qualit	-9.72899
▁propert	-9.7292
▁Cross	-9.73066
ong	-9.73233
▁couple	-9.73233
▁Dj	-9.73236
▁makes	-9.73244
pole	-9.73269
▁los	-9.73281
▁Pennsylvania	-9.73389
▁refus	-9.73402
▁Brita	-9.7367
▁plot	-9.73692
▁aid	-9.73801
▁era	-9.73935
▁hundred	-9.73988
▁weapon	-9.73988
▁piano	-9.73989
▁complex	-9.73991
▁compos	-9.74048
ure	-9.74377
▁declar	-9.74544
▁numer	-9.74592
▁Ottoman	-9.74593
cé	-9.74599
▁settlement	-9.74602
▁morning	-9.74603
▁1997	-9.74667
▁Kan	-9.74764
▁copie	-9.74816
▁Span	-9.74828
▁commission	-9.74919
▁trip	-9.74931
▁operat	-9.75112
▁Museum	-9.75196
▁enjoy	-9.75197
▁park	-9.75205
▁Open	-9.75224
▁elect	-9.7531
▁safe	-9.75326
▁v	-9.75342
▁observ	-9.7556
▁Pol	-9.756
▁collect	-9.75615
▁dis	-9.75672
▁target	-9.75807
▁fell	-9.75809
▁marri	-9.7583
lub	-9.75836
▁brigade	-9.75871
▁Jackson	-9.75872
men	-9.75923
ell	-9.75927
▁Boy	-9.75945
▁tri	-9.76059
▁mount	-9.76098
tention	-9.76176
▁Do	-9.76205
▁sentence	-9.76217
▁compani	-9.76323
ster	-9.76355
▁strength	-9.76379
▁Major	-9.7642
▁Through	-9.7642
▁impact	-9.76421
hu	-9.76439
NA	-9.76622
hip	-9.76675
▁Bri	-9.76821
▁fill	-9.76842
ur	-9.76877
▁whe	-9.76897
▁measure	-9.76995
▁disease	-9.77037
▁talk	-9.77037
▁confirm	-9.77093
▁aspect	-9.77113
▁wave	-9.77123
▁portion	-9.77198
▁Bill	-9.77328
il	-9.77357
▁wor	-9.77367
▁Don	-9.77402
▁Sir	-9.77442
fa	-9.77454
TV	-9.77619
▁enem	-9.77666
▁powerful	-9.77692
D	-9.77829
▁vocals	-9.77904
▁Tour	-9.77993
▁trop	-9.7801
▁value	-9.78211
▁recover	-9.78302
▁Age	-9.78406
▁Queen	-9.78428
▁Chris	-9.78453
▁inspir	-9.78506
▁fac	-9.7853
▁box	-9.78568
▁Phil	-9.7859
▁Land	-9.78682
ground	-9.78853
▁bill	-9.78862
▁percent	-9.78897
▁temperature	-9.78914
▁cricket	-9.78918
▁Somali	-9.78923
▁edition	-9.78966
▁33	-9.79236
admi	-9.79272
▁bar	-9.79297
▁Jose	-9.79302
▁chang	-9.79322
▁Georgia	-9.79344
▁degree	-9.79545
▁progress	-9.79652
▁purpose	-9.79654
▁middl	-9.79716
▁eye	-9.79733
▁feel	-9.7985
▁responsib	-9.79851
▁document	-9.79904
▁distribut	-9.80068
apo	-9.80075
▁advantage	-9.80182
▁touchdown	-9.80183
▁Helm	-9.80188
▁Court	-9.80218
▁genu	-9.80244
▁normal	-9.80442
▁Chart	-9.80617
▁direction	-9.80631
▁Braathen	-9.80823
▁discuss	-9.80837
▁reception	-9.8084
▁promotion	-9.80905
▁lot	-9.81079
epartment	-9.81139
▁bird	-9.81145
▁Marine	-9.81194
▁fort	-9.81265
▁Dr	-9.81298
▁performances	-9.81365
▁severe	-9.81396
▁attract	-9.81397
▁r	-9.81422
▁relief	-9.8147
▁Louis	-9.81479
▁Center	-9.81492
▁pick	-9.81566
▁1994	-9.81575
▁content	-9.81599
▁physical	-9.81654
▁simpl	-9.81705
▁Green	-9.81721
▁movie	-9.81877
▁Corps	-9.81998
▁Bob	-9.82021
▁build	-9.82112
▁honor	-9.82117
▁Egyptian	-9.82127
▁paper	-9.82142
▁Highway	-9.82153
ootball	-9.82186
▁factor	-9.82186
▁publication	-9.82265
▁engine	-9.82389
▁countr	-9.82457
▁Ho	-9.8266
▁object	-9.82662
▁decide	-9.82749
▁defense	-9.82771
▁jump	-9.82772
▁extreme	-9.82772
▁societ	-9.82779
▁argu	-9.82819
house	-9.82831
ate	-9.82839
inkel	-9.82892
▁Six	-9.82911
▁landing	-9.83276
▁text	-9.8329
▁Wel	-9.83325
▁Young	-9.83465
▁sense	-9.83518
▁contemporary	-9.836
▁ultimate	-9.83636
stone	-9.83658
▁trial	-9.8367
away	-9.83778
▁Hot	-9.8389
play	-9.8389
▁managed	-9.84091
▁Smith	-9.84094
▁financial	-9.84109
▁weaken	-9.84118
▁polic	-9.84126
▁planet	-9.84351
▁street	-9.84416
▁facilit	-9.84462
▁32	-9.84474
▁Nicol	-9.84724
▁Middle	-9.84758
▁cougar	-9.84758
back	-9.84802
▁worker	-9.84903
▁Operation	-9.85023
usch	-9.85043
▁murder	-9.85151
▁replace	-9.85198
▁Towns	-9.85203
▁39	-9.85221
▁deit	-9.85243
drew	-9.853
▁Long	-9.85335
▁comed	-9.85359
▁pop	-9.85367
▁legal	-9.85373
lone	-9.85389
hester	-9.85422
▁friends	-9.85426
▁blood	-9.85429
▁contrast	-9.85445
▁opportunit	-9.85454
▁bad	-9.85463
ler	-9.85469
▁background	-9.85484
▁carry	-9.85489
▁shell	-9.85593
▁Horse	-9.85632
▁Critic	-9.85656
▁oppos	-9.85667
▁183	-9.85728
▁Jam	-9.8573
▁Games	-9.85758
▁indicate	-9.85763
▁board	-9.85803
od	-9.85892
▁technique	-9.86105
▁Society	-9.86138
mpire	-9.86278
▁hospital	-9.8629
▁opera	-9.86312
▁books	-9.86398
nis	-9.86496
▁Academ	-9.86728
▁Hamel	-9.86792
▁reaction	-9.86814
▁hair	-9.86835
▁nucle	-9.86853
▁Of	-9.86896
▁assault	-9.86907
▁coin	-9.86966
hiva	-9.87012
go	-9.87166
▁fir	-9.87258
▁sport	-9.87435
▁Government	-9.8747
▁specimen	-9.8747
▁website	-9.8747
▁vehicle	-9.8747
▁matter	-9.87486
▁brown	-9.87489
▁rise	-9.87527
▁AI	-9.87569
truck	-9.87598
▁northeast	-9.8772
▁determin	-9.87805
▁Jim	-9.87939
▁Cra	-9.87948
▁leader	-9.88048
▁primari	-9.88056
▁Hai	-9.88069
▁Tess	-9.88079
▁escape	-9.88153
▁cultural	-9.88161
▁soundtrack	-9.88167
▁appeal	-9.88168
▁surrounding	-9.88223
▁rear	-9.88269
▁offensive	-9.88279
▁fear	-9.88286
98	-9.8864
▁hero	-9.88734
▁transit	-9.88798
▁Illinois	-9.88854
▁volume	-9.88854
▁appearances	-9.88854
▁task	-9.88861
▁transferr	-9.89038
▁surviv	-9.89124
▁conclud	-9.89133
▁care	-9.89281
▁150	-9.89504
▁carri	-9.89523
▁Captain	-9.89553
▁respond	-9.89553
▁square	-9.89555
▁energ	-9.89731
time	-9.89761
▁intens	-9.89835
▁lea	-9.89951
▁violen	-9.89961
▁associat	-9.90045
▁decline	-9.90055
▁fiction	-9.90069
▁hop	-9.90153
▁formation	-9.90217
▁crowd	-9.90257
▁thousand	-9.90257
▁Edward	-9.9026
▁prominent	-9.9029
▁colour	-9.90294
▁composition	-9.90295
ach	-9.90344
▁wear	-9.90393
▁twent	-9.90404
where	-9.90436
▁nav	-9.90444
▁Nes	-9.90722
▁Fey	-9.90805
ular	-9.90901
ez	-9.90934
▁session	-9.90967
▁Civil	-9.90969
▁Mountain	-9.90987
▁canno	-9.90994
bury	-9.91044
▁Though	-9.91045
fantry	-9.91088
rnia	-9.91197
▁basi	-9.91268
▁forc	-9.913
▁Water	-9.91379
▁becom	-9.9147
▁wing	-9.91481
▁Home	-9.91571
▁47	-9.9164
▁Gold	-9.9167
▁extensive	-9.91684
▁Spain	-9.91688
▁Clark	-9.91692
▁science	-9.91739
▁winter	-9.91755
▁boy	-9.91965
kovic	-9.92079
▁Free	-9.92137
▁portray	-9.92211
▁Mo	-9.92239
BA	-9.92243
▁spread	-9.92311
▁matche	-9.92378
▁Ocean	-9.92401
▁Group	-9.92401
▁retain	-9.92404
▁print	-9.92456
iz	-9.92523
▁litera	-9.92686
▁Mr	-9.92745
▁habitat	-9.92852
▁Van	-9.92861
▁rough	-9.9292
nh	-9.93006
▁Ali	-9.93064
▁threat	-9.93085
▁succeed	-9.93125
▁Secret	-9.93125
▁Varanasi	-9.93125
▁Little	-9.93129
▁window	-9.93136
▁description	-9.93137
▁independent	-9.93284
Mont	-9.93326
▁Israel	-9.93338
intin	-9.93369
▁archaeolog	-9.93466
shire	-9.93524
▁sales	-9.93526
▁Stan	-9.93672
ily	-9.93729
▁Eva	-9.93737
▁participat	-9.93759
ina	-9.93776
▁designat	-9.93782
bitt	-9.93792
▁casualties	-9.93868
▁Studio	-9.93873
▁reviewer	-9.93877
▁Andrew	-9.93895
▁northwest	-9.93932
▁dat	-9.93945
▁Apple	-9.93949
▁Easter	-9.94008
▁tracks	-9.94035
whil	-9.94079
▁Lord	-9.9415
▁sex	-9.94166
▁viewers	-9.94192
▁function	-9.94437
▁economic	-9.94492
▁Portug	-9.94501
▁reign	-9.94592
▁domestic	-9.94592
▁push	-9.94597
▁acid	-9.94626
▁computer	-9.94648
▁hands	-9.94703
▁Pop	-9.94723
▁grand	-9.94766
▁42	-9.94793
▁draft	-9.94796
▁Manc	-9.948
▁Ceres	-9.94862
eception	-9.94948
▁nest	-9.95007
▁mile	-9.95187
▁except	-9.95238
kak	-9.95299
▁memor	-9.95315
▁maximu	-9.95331
▁championship	-9.95339
▁Balti	-9.95364
▁1920	-9.95387
15	-9.95452
▁product	-9.95473
▁twi	-9.95503
▁agent	-9.95536
▁controll	-9.95538
▁path	-9.95675
ado	-9.95733
▁distinct	-9.95746
▁k	-9.96056
▁sustain	-9.96077
▁Simpson	-9.96077
▁captain	-9.96078
▁Engineer	-9.96088
▁entrance	-9.96094
▁risk	-9.96107
▁phase	-9.96151
U	-9.96211
ncient	-9.96255
▁credit	-9.96393
▁standing	-9.96582
▁Ven	-9.96696
▁Thunderbird	-9.96829
▁Wilhelm	-9.96829
▁Mogadis	-9.96829
▁pilot	-9.96829
▁chapter	-9.96832
▁Week	-9.96838
▁apparent	-9.96856
▁Lock	-9.9686
▁Master	-9.96881
▁heart	-9.96904
▁Tele	-9.96912
▁item	-9.96956
osaur	-9.97073
▁44	-9.97203
▁Washington	-9.97587
▁monument	-9.97587
▁opponent	-9.97587
▁delay	-9.97605
▁happen	-9.97614
▁stop	-9.97625
▁expect	-9.97702
ether	-9.98034
▁Victoria	-9.9804
▁Mar	-9.98134
▁feeling	-9.98261
▁yellow	-9.9835
▁narrow	-9.98351
▁convert	-9.98356
▁Night	-9.98366
▁1988	-9.98399
true	-9.98407
orough	-9.98433
▁Torre	-9.98438
▁Post	-9.98467
▁partial	-9.98504
▁Town	-9.98585
▁operate	-9.98742
▁SR	-9.98753
xen	-9.98846
▁inning	-9.99071
▁contact	-9.99122
▁failure	-9.99133
ture	-9.99139
▁Stone	-9.99265
▁Asia	-9.993
▁necessar	-9.99393
gen	-9.99644
laba	-9.99774
▁Fleet	-9.99895
▁starling	-9.99907
▁combat	-9.99908
MS	-9.99911
▁Min	-9.99957
▁height	-10.0004
▁editor	-10.0005
▁nuclea	-10.0005
▁institution	-10.0006
▁Have	-10.001
▁ex	-10.0024
▁187	-10.0026
ssembl	-10.003
▁Line	-10.004
R	-10.0064
▁flank	-10.0068
▁pattern	-10.0068
▁inter	-10.0078
▁Mean	-10.0078
tav	-10.0086
▁core	-10.0094
▁acre	-10.01
▁label	-10.0113
ier	-10.0125
▁frame	-10.0125
tory	-10.0136
▁themes	-10.0137
▁athlete	-10.0146
▁district	-10.0147
light	-10.0167
▁your	-10.0183
▁analys	-10.0184
Station	-10.0186
▁pai	-10.0197
▁vote	-10.0198
▁achiev	-10.0201
▁estimate	-10.0211
▁criticiz	-10.0212
▁51	-10.0216
▁secret	-10.0222
▁Independen	-10.0226
▁unique	-10.0226
▁Airport	-10.0226
B	-10.0227
▁semi	-10.0228
kept	-10.0231
▁storyline	-10.0232
▁chief	-10.0232
▁Way	-10.024
W	-10.0243
▁lane	-10.0257
▁praise	-10.0261
▁raid	-10.0267
▁castle	-10.0279
▁Command	-10.0282
▁52	-10.0285
▁royal	-10.0291
▁Jupiter	-10.0306
▁religion	-10.0306
▁defensi	-10.0306
▁engineer	-10.0314
done	-10.033
▁48	-10.0336
▁MD	-10.0339
mond	-10.0362
▁store	-10.0368
▁Kent	-10.0369
▁180	-10.0373
▁block	-10.0374
▁fish	-10.0374
▁Har	-10.0376
hur	-10.0377
▁depth	-10.0386
▁compound	-10.0386
▁Short	-10.0387
▁guest	-10.0387
▁occupie	-10.039
▁management	-10.0391
F	-10.0393
▁occasional	-10.0397
▁Not	-10.0404
▁wild	-10.042
▁comic	-10.042
wide	-10.0434
der	-10.0437
▁master	-10.0452
▁consecutive	-10.0468
▁museum	-10.0468
▁Greek	-10.0468
delphi	-10.0474
▁nomination	-10.0475
▁musician	-10.0478
é	-10.0483
▁stopp	-10.0486
▁Del	-10.0487
igan	-10.0489
▁wh	-10.049
▁Forest	-10.0495
▁pro	-10.0507
id	-10.0511
▁spot	-10.0526
▁combin	-10.0528
▁Can	-10.0529
kare	-10.054
▁vessel	-10.055
▁multi	-10.0551
▁permanent	-10.0551
▁34	-10.0557
▁Base	-10.0557
▁negative	-10.0557
▁stand	-10.0564
rew	-10.0588
L	-10.0592
▁dut	-10.0593
▁inch	-10.0597
white	-10.06
▁fast	-10.0609
led	-10.0628
▁understand	-10.0629
▁obtain	-10.0632
▁orbit	-10.0632
▁Four	-10.0633
▁airport	-10.0634
▁opinion	-10.0635
V	-10.064
llo	-10.0647
▁clos	-10.0651
▁origin	-10.0654
▁37	-10.066
▁Mont	-10.0668
99	-10.0693
▁weight	-10.0695
▁buri	-10.0697
▁189	-10.0708
▁respect	-10.0715
▁DVD	-10.0716
▁Science	-10.0716
▁floor	-10.0716
▁Institute	-10.0716
▁executive	-10.0719
▁else	-10.072
▁threaten	-10.072
▁Horn	-10.0731
zy	-10.074
▁armor	-10.0741
kg	-10.0743
▁du	-10.0746
▁Mik	-10.0746
▁creation	-10.075
78	-10.0751
▁Stor	-10.076
rse	-10.0778
▁encounter	-10.08
▁parliament	-10.08
ML	-10.0802
▁kick	-10.0804
▁mouth	-10.0806
ena	-10.0826
C	-10.0853
▁dissipat	-10.0857
▁beach	-10.0864
▁approv	-10.0879
▁oil	-10.0885
▁door	-10.0914
idden	-10.0916
▁organiz	-10.0923
▁bowl	-10.0935
▁titles	-10.0938
▁seek	-10.0939
▁iron	-10.0944
▁damag	-10.0948
▁FA	-10.0954
▁Po	-10.0956
stream	-10.0962
▁civil	-10.0969
▁Child	-10.097
▁invasion	-10.097
▁Big	-10.0973
▁refer	-10.0974
▁reduce	-10.0975
▁Rich	-10.0979
▁classic	-10.0983
▁Due	-10.0987
▁Am	-10.0988
▁j	-10.099
▁chance	-10.1004
▁feed	-10.1007
▁farm	-10.101
▁rival	-10.1024
▁types	-10.1024
▁Cha	-10.1033
▁prove	-10.1039
T	-10.104
▁Mich	-10.1043
▁miner	-10.1056
▁tank	-10.1057
▁Further	-10.1057
knowledge	-10.1058
▁freeway	-10.1063
▁association	-10.1066
▁treatment	-10.1067
▁1972	-10.1069
▁campus	-10.1069
▁rescue	-10.107
▁perfect	-10.1071
▁famous	-10.1073
eval	-10.1074
▁statement	-10.1079
▁Abu	-10.108
▁Bir	-10.1097
laid	-10.11
▁bid	-10.11
▁Sho	-10.1103
▁fung	-10.1104
▁finding	-10.1116
▁multipl	-10.1116
▁wood	-10.1119
▁201	-10.1134
▁desire	-10.1138
▁peace	-10.1138
▁technolog	-10.114
▁sculpture	-10.1143
▁visual	-10.1147
▁1985	-10.1149
▁Minister	-10.1153
▁Sky	-10.1155
▁teacher	-10.1156
▁quit	-10.1165
▁teaching	-10.1184
eless	-10.1188
▁bone	-10.1214
▁Cole	-10.1216
▁instrument	-10.1218
ga	-10.1226
▁council	-10.123
▁challenge	-10.123
▁Cardiff	-10.1231
▁Field	-10.1231
▁Barrow	-10.1233
▁depend	-10.1242
▁resign	-10.1243
▁destroyer	-10.1264
right	-10.128
▁spend	-10.1282
▁ne	-10.1285
▁shoot	-10.1289
ped	-10.1291
▁dropp	-10.1305
▁ceremon	-10.1313
ackground	-10.1319
▁arrest	-10.1319
▁gradual	-10.1319
▁recall	-10.1319
▁channel	-10.132
▁passe	-10.1325
▁1944	-10.1328
▁shift	-10.1331
hap	-10.1333
▁criticism	-10.1345
▁Keat	-10.1345
▁More	-10.1354
▁chair	-10.1364
lton	-10.1367
▁i	-10.1373
▁retire	-10.1381
▁Guard	-10.1382
▁divid	-10.1385
▁Charl	-10.139
▁advanc	-10.1392
▁supplie	-10.1397
▁Even	-10.14
▁adapt	-10.1405
▁kilometre	-10.1408
▁Video	-10.1408
▁civilian	-10.141
▁weather	-10.141
▁fox	-10.1412
▁49	-10.1413
iller	-10.1414
▁strengthen	-10.1414
▁120	-10.1438
▁Never	-10.144
▁tie	-10.1458
▁medi	-10.1459
86	-10.1462
▁Kh	-10.1468
▁184	-10.1469
venue	-10.1478
▁possibilit	-10.1499
▁Additional	-10.1499
▁Dutch	-10.1499
▁Morris	-10.1499
▁Album	-10.1499
▁solo	-10.1501
de	-10.1504
▁divine	-10.1507
▁BC	-10.1533
▁agreement	-10.1535
▁die	-10.154
▁firm	-10.1543
▁foundation	-10.1543
▁Speci	-10.1552
▁Steve	-10.1554
▁Je	-10.156
▁purchase	-10.1564
com	-10.1581
my	-10.1583
▁Festival	-10.1589
▁budget	-10.1589
▁Congress	-10.159
▁belief	-10.159
▁Nathan	-10.1591
10	-10.1592
▁killing	-10.1594
▁Premier	-10.1597
▁connection	-10.1609
▁Mill	-10.1611
▁Good	-10.1613
ville	-10.1613
▁prov	-10.1615
▁Antho	-10.1622
▁indicat	-10.1628
▁actress	-10.1633
▁foreign	-10.164
▁raise	-10.1645
sis	-10.1659
▁lives	-10.166
▁53	-10.1666
▁fine	-10.1671
▁straight	-10.1681
▁zone	-10.1681
▁Martin	-10.1684
▁Ge	-10.1688
▁college	-10.1688
onference	-10.1703
▁Ever	-10.1705
anna	-10.1724
▁Juan	-10.1729
▁Gar	-10.1736
▁Dam	-10.174
▁assembl	-10.1741
▁contribut	-10.1745
ather	-10.1747
▁occasion	-10.1761
shore	-10.1764
▁federa	-10.1766
▁rush	-10.1766
▁Mac	-10.177
▁spring	-10.1772
▁restaurant	-10.1774
▁promote	-10.1774
▁candidate	-10.1774
▁65	-10.1774
▁arrangement	-10.1775
▁64	-10.1777
▁Gord	-10.1778
▁highlight	-10.1779
well	-10.1784
▁repair	-10.1787
▁data	-10.1789
▁super	-10.1806
▁Bru	-10.1807
▁arrive	-10.182
▁Max	-10.1822
▁prepared	-10.1826
▁Bridge	-10.1833
crete	-10.184
89	-10.1851
▁agricultur	-10.1867
▁choice	-10.1867
▁Wa	-10.187
▁Ital	-10.1871
▁Mario	-10.1871
▁190	-10.1871
▁Lewis	-10.1872
▁clean	-10.1872
▁observation	-10.1873
▁inscription	-10.1875
▁Car	-10.1876
▁big	-10.1876
▁difference	-10.1876
▁1981	-10.1878
▁Mort	-10.1886
▁Col	-10.1899
▁counter	-10.1914
set	-10.192
▁send	-10.1925
hood	-10.1934
▁Der	-10.1935
▁entr	-10.1938
▁Heart	-10.195
▁recommend	-10.1958
▁Production	-10.1962
▁Among	-10.1962
▁option	-10.1966
▁setting	-10.1971
▁passage	-10.1974
▁improve	-10.1985
▁simple	-10.1991
p	-10.1994
▁Original	-10.2
▁nominat	-10.2004
I	-10.202
G	-10.2026
▁Jain	-10.2038
▁incident	-10.2042
ew	-10.2044
var	-10.2045
▁People	-10.2057
▁victim	-10.2057
▁article	-10.2057
▁prompt	-10.2057
▁1939	-10.2057
▁crime	-10.2058
▁combination	-10.2061
▁ring	-10.2065
▁Slam	-10.2066
▁Rome	-10.2072
▁Russian	-10.2076
un	-10.208
▁grass	-10.2081
▁supply	-10.2083
▁dance	-10.2086
▁sail	-10.2098
azz	-10.21
▁Review	-10.2101
▁vocal	-10.2115
▁paint	-10.2118
▁transfer	-10.2128
▁Par	-10.2136
ta	-10.2141
12	-10.2148
▁torpedo	-10.215
▁Revolution	-10.2153
▁Girl	-10.2153
▁hotel	-10.2154
▁Temple	-10.2154
▁silver	-10.2155
▁bottom	-10.2158
▁intersection	-10.2158
ied	-10.216
▁digital	-10.216
▁1942	-10.2165
▁drop	-10.2171
▁achieve	-10.2179
▁aim	-10.2183
RA	-10.2198
H	-10.2204
▁antimon	-10.2207
wis	-10.2207
▁dai	-10.221
▁debate	-10.2221
▁Commission	-10.2225
vita	-10.223
▁130	-10.2236
▁tend	-10.224
cal	-10.2245
▁Entertainment	-10.225
▁Coast	-10.225
▁committee	-10.225
▁Fantas	-10.2251
▁fresh	-10.2251
▁unlike	-10.2252
▁Director	-10.2252
▁Turner	-10.2252
▁Roll	-10.2252
▁1918	-10.2252
▁extra	-10.2254
▁Joe	-10.2286
▁minim	-10.2288
▁Bol	-10.229
▁drawing	-10.2291
▁Cart	-10.2303
ill	-10.2306
▁batsm	-10.2322
▁End	-10.2325
▁700	-10.2335
▁mind	-10.2342
▁broad	-10.2346
P	-10.2346
▁Bishop	-10.2348
▁Muslim	-10.2348
▁genre	-10.2348
▁expedition	-10.2348
▁message	-10.2349
▁outer	-10.2352
▁minister	-10.2352
▁Area	-10.2356
▁objective	-10.2356
▁1968	-10.2357
▁sand	-10.2361
▁page	-10.2361
▁branch	-10.2367
▁Chain	-10.2367
▁penalt	-10.2368
▁organ	-10.2371
sses	-10.2372
▁Maria	-10.238
▁hope	-10.2384
▁Se	-10.2397
▁Low	-10.2397
▁Op	-10.2402
▁verse	-10.2403
▁leaders	-10.2404
and	-10.2405
▁USA	-10.2409
▁stations	-10.2412
▁Cal	-10.242
eath	-10.2431
▁remark	-10.2432
ius	-10.2433
ombat	-10.2438
▁promot	-10.2439
▁centur	-10.2442
▁Governor	-10.2447
▁spore	-10.2453
▁skill	-10.2455
▁1975	-10.2459
▁Radi	-10.246
▁identifi	-10.2465
▁Gi	-10.2477
▁southwest	-10.2481
ner	-10.2485
▁bit	-10.2492
▁egg	-10.2495
ger	-10.2504
▁medic	-10.2506
tan	-10.2507
▁cave	-10.2508
▁hunt	-10.2509
▁scholar	-10.2511
▁Player	-10.2513
▁improv	-10.2515
▁Ram	-10.2522
▁Well	-10.2525
lin	-10.2531
▁tall	-10.2533
io	-10.2534
▁starr	-10.2536
65	-10.2536
agazine	-10.254
▁Khan	-10.2544
▁drama	-10.2547
▁System	-10.2547
▁What	-10.2548
▁camera	-10.2555
▁weak	-10.2558
port	-10.2563
▁billion	-10.2567
▁la	-10.2576
▁Writ	-10.2595
▁formal	-10.2602
▁spac	-10.2609
▁ray	-10.2621
▁independen	-10.2626
▁Son	-10.2639
▁mushroom	-10.2648
▁principal	-10.2648
▁unusual	-10.2648
▁retreat	-10.2648
▁sector	-10.2651
▁layer	-10.2651
▁interaction	-10.2652
ux	-10.2654
▁survey	-10.2667
▁dress	-10.2668
▁Commander	-10.2668
▁fictional	-10.2676
▁survive	-10.2676
▁Key	-10.2684
▁43	-10.2684
▁favor	-10.2698
▁boundar	-10.2699
31	-10.2702
47	-10.271
toge	-10.2711
▁accompani	-10.2738
▁MacLe	-10.275
▁Jurchen	-10.275
▁technical	-10.275
▁Daniel	-10.275
▁motion	-10.275
▁attach	-10.2751
▁emperor	-10.2752
▁Fox	-10.2753
▁walk	-10.2754
▁Life	-10.2755
▁generation	-10.2757
▁creator	-10.276
▁Crown	-10.2762
old	-10.2769
araj	-10.2769
▁Cam	-10.2776
▁Williams	-10.2785
▁Ode	-10.2786
▁Medi	-10.2795
ire	-10.281
▁architectur	-10.2823
me	-10.2828
wo	-10.2843
istrict	-10.2852
▁800	-10.2852
▁protagonist	-10.2853
▁senior	-10.2853
▁communication	-10.2854
▁chorus	-10.2855
▁cool	-10.2855
▁skin	-10.2865
▁airline	-10.2865
▁Book	-10.2866
gun	-10.2874
▁retir	-10.2885
▁Pres	-10.2887
oise	-10.2889
▁warm	-10.2892
▁56	-10.2894
▁struggle	-10.29
▁here	-10.2907
▁reform	-10.2908
▁Bart	-10.2925
atre	-10.2925
▁schedule	-10.2936
▁Cant	-10.2936
▁Project	-10.2957
▁Dublin	-10.2958
▁Single	-10.2958
▁cruiser	-10.2958
▁Board	-10.2959
▁Track	-10.296
▁recogniz	-10.2963
▁soil	-10.2965
bridge	-10.2971
▁Mega	-10.2971
▁table	-10.2973
ond	-10.2989
▁address	-10.3004
▁inform	-10.3023
▁Mur	-10.3025
ze	-10.3026
▁rul	-10.3029
ues	-10.303
▁easi	-10.3039
▁fur	-10.3043
▁guide	-10.3044
▁pull	-10.3063
▁split	-10.3066
▁Brook	-10.3066
▁1919	-10.3068
▁Kang	-10.307
▁engage	-10.3073
▁essential	-10.3075
spread	-10.3077
▁wait	-10.3077
urban	-10.3079
▁administration	-10.3081
▁graph	-10.3103
▁deni	-10.3134
▁nor	-10.3137
▁guard	-10.3148
▁biograph	-10.3149
▁vision	-10.315
▁strike	-10.3153
▁argue	-10.3157
▁holding	-10.3159
▁Egypt	-10.3168
▁passenger	-10.3169
▁representative	-10.3169
▁platform	-10.317
▁Athletic	-10.317
▁1936	-10.3171
▁moral	-10.3229
▁plac	-10.3244
▁Dai	-10.3248
▁heard	-10.3253
▁charter	-10.3264
▁ritual	-10.3266
▁regime	-10.3276
▁Admiral	-10.3277
▁Douglas	-10.3277
▁remnant	-10.3277
▁fuel	-10.3277
▁earthquake	-10.3277
▁renam	-10.3278
▁Constantin	-10.3282
sta	-10.3282
▁priest	-10.3283
▁possession	-10.3284
▁Cardinal	-10.3286
▁massive	-10.3289
▁green	-10.329
up	-10.3291
▁atmosphere	-10.3292
▁secure	-10.3293
▁Yan	-10.3296
▁folk	-10.3297
▁Baby	-10.3299
▁GA	-10.3301
▁proposal	-10.3306
za	-10.3309
▁kn	-10.331
▁Band	-10.3311
▁Sha	-10.3317
▁settler	-10.3326
▁NH	-10.3326
▁province	-10.3327
▁surge	-10.3332
60	-10.3332
glades	-10.3334
▁judge	-10.3336
▁rebel	-10.3351
▁Bosto	-10.3352
▁Fall	-10.3362
▁engag	-10.3376
▁surround	-10.3376
▁41	-10.3381
▁57	-10.3383
▁Committee	-10.3385
▁unsuccessful	-10.3385
▁Power	-10.3385
▁submarine	-10.3385
▁Team	-10.3386
▁crop	-10.3386
▁exclusive	-10.3388
▁map	-10.34
ious	-10.3418
▁spoke	-10.342
▁Rio	-10.3421
▁54	-10.3436
ago	-10.3444
nonymous	-10.3444
▁southeast	-10.3451
▁Carr	-10.3454
▁Mari	-10.3454
era	-10.346
▁Bana	-10.3467
▁basin	-10.3469
▁plum	-10.3473
▁govern	-10.3475
▁sole	-10.3481
▁Hop	-10.3483
onica	-10.3485
▁Form	-10.3487
rtill	-10.3487
▁column	-10.3495
▁Bull	-10.3495
▁wedding	-10.3496
▁Sunday	-10.3499
▁Golden	-10.3501
▁Walter	-10.3503
▁Industr	-10.3503
▁1914	-10.3514
ribbe	-10.3525
11	-10.3532
▁Lee	-10.3557
▁Test	-10.357
▁Aston	-10.3578
▁ma	-10.3579
▁trail	-10.3585
▁basic	-10.3587
▁gas	-10.359
▁dismiss	-10.3603
▁Ber	-10.3604
▁Chelsea	-10.3606
▁eleven	-10.3606
▁chapel	-10.3606
▁basket	-10.3607
▁spell	-10.3607
▁Ra	-10.3608
▁estate	-10.3609
▁Roger	-10.3611
▁fellow	-10.3611
▁Albert	-10.3612
▁Prime	-10.3612
▁neck	-10.3612
▁Hindu	-10.3613
▁supposed	-10.3615
▁impress	-10.3615
▁roll	-10.3616
▁parallel	-10.3617
▁successor	-10.3617
▁Columbia	-10.3623
▁interior	-10.3624
▁Democrat	-10.3628
▁Milit	-10.3631
▁emotional	-10.3637
▁rainf	-10.3638
burn	-10.364
rang	-10.364
etic	-10.3642
▁sufficient	-10.3648
▁composer	-10.3658
▁owner	-10.3681
▁equal	-10.3686
▁Lis	-10.3688
▁carrie	-10.3689
▁reserve	-10.37
▁Si	-10.3704
▁adventure	-10.3708
▁econom	-10.371
ieutenant	-10.3718
▁fashion	-10.3719
▁Hibari	-10.3719
▁archaeologist	-10.372
▁About	-10.372
▁Summer	-10.3721
gé	-10.3721
au	-10.3725
▁Santa	-10.3737
hann	-10.3738
▁establishment	-10.3739
nt	-10.3742
▁46	-10.3747
▁alter	-10.375
▁Fra	-10.3751
▁Men	-10.3753
▁Holly	-10.3757
▁shooting	-10.3758
▁introduce	-10.3763
▁bank	-10.3766
▁finds	-10.3766
ac	-10.3767
CE	-10.3773
dom	-10.3773
rs	-10.3775
▁Wil	-10.3775
▁defin	-10.38
TC	-10.382
▁Romani	-10.3827
▁Public	-10.3828
▁deploy	-10.3829
ruli	-10.3831
▁component	-10.3832
▁convoy	-10.3833
▁household	-10.3833
▁tunnel	-10.3833
▁journalist	-10.3833
▁Rox	-10.3836
▁Ke	-10.384
▁1982	-10.3844
▁truth	-10.3848
▁acquir	-10.3852
▁rich	-10.3852
▁visitor	-10.3853
▁Real	-10.3855
▁Cre	-10.3859
▁rail	-10.3862
▁Missi	-10.3868
▁bound	-10.3872
▁Ry	-10.3873
pping	-10.3874
▁scholars	-10.3874
▁110	-10.3876
don	-10.3876
▁plane	-10.3881
▁Han	-10.3888
▁fit	-10.3897
▁sample	-10.3902
evelopment	-10.391
▁determine	-10.3911
▁prim	-10.3921
▁repeated	-10.393
▁dominat	-10.3934
▁Haiti	-10.3942
vision	-10.3942
▁row	-10.3946
▁offense	-10.3947
▁Destin	-10.3948
▁speech	-10.3948
gas	-10.3948
▁1913	-10.3949
▁exit	-10.3949
▁Howard	-10.395
▁attain	-10.395
▁1916	-10.3951
▁dispute	-10.3951
▁roof	-10.3956
tial	-10.3958
▁root	-10.3959
ka	-10.3966
▁load	-10.3972
▁plate	-10.398
▁driver	-10.4004
inches	-10.4005
▁appli	-10.4006
▁graphic	-10.4012
24	-10.4017
▁Bond	-10.4021
▁deriv	-10.403
▁issu	-10.4035
▁Friends	-10.4036
▁remix	-10.4037
▁twel	-10.404
itude	-10.4046
▁55	-10.4047
older	-10.4051
▁Kai	-10.4056
▁trad	-10.4056
▁NC	-10.4059
▁Iguanodon	-10.4061
▁controvers	-10.4062
▁Gwen	-10.4064
▁Brazil	-10.4064
▁panel	-10.4064
▁predator	-10.4065
▁exact	-10.4066
▁Samu	-10.4066
▁legend	-10.4066
▁rose	-10.4069
▁catch	-10.407
▁1943	-10.4074
▁Row	-10.408
come	-10.4084
▁76	-10.4096
▁entit	-10.4106
▁designation	-10.4108
▁250	-10.4108
50	-10.4116
▁Just	-10.4118
▁Christ	-10.412
▁Bro	-10.4121
▁182	-10.4127
▁96	-10.4137
20	-10.4143
▁Perr	-10.4146
▁CD	-10.4147
▁conservati	-10.4166
▁Nin	-10.4173
arian	-10.4177
cent	-10.4181
▁pregnan	-10.4181
▁rifle	-10.4181
▁download	-10.4182
▁variation	-10.4182
▁academic	-10.4183
▁introduction	-10.4184
▁capacit	-10.4187
▁replacement	-10.4189
red	-10.4194
▁glass	-10.4194
▁shore	-10.4201
SP	-10.4207
gie	-10.4209
slo	-10.421
tadium	-10.4227
87	-10.423
▁drain	-10.4235
▁Ben	-10.4241
▁160	-10.4246
vert	-10.4247
▁Nor	-10.4254
▁distinguish	-10.4279
▁let	-10.4287
▁flag	-10.429
▁Office	-10.429
▁exhibit	-10.4291
ifa	-10.4296
▁certifi	-10.43
▁Rangers	-10.43
▁Similar	-10.43
▁Alexander	-10.43
▁sequel	-10.43
▁theatre	-10.43
▁constant	-10.43
▁Gramm	-10.4301
▁substantial	-10.4303
▁doubt	-10.4306
▁inspiration	-10.4306
efore	-10.4309
▁exception	-10.4315
▁venue	-10.4324
▁wish	-10.4328
▁Famil	-10.433
▁Homer	-10.4331
▁declin	-10.4335
ou	-10.4337
▁fun	-10.4345
▁signal	-10.4346
▁Jos	-10.4349
▁RA	-10.4354
▁preserv	-10.4361
▁bab	-10.4366
lly	-10.4369
▁invit	-10.437
iston	-10.4371
▁charit	-10.4375
▁opposit	-10.4381
▁nois	-10.4382
ternal	-10.4385
▁Ridg	-10.4387
▁defender	-10.4398
abilit	-10.4398
▁ha	-10.4405
▁Out	-10.4405
▁journey	-10.4421
▁surrender	-10.4423
▁valley	-10.4424
▁contest	-10.4427
▁drug	-10.4428
▁Sta	-10.4428
▁cake	-10.4429
water	-10.443
▁1953	-10.4431
▁plain	-10.4434
▁Fame	-10.444
▁bear	-10.4442
▁Les	-10.4449
▁sports	-10.445
▁instance	-10.4454
30	-10.4455
▁dog	-10.4464
▁Ro	-10.4464
ame	-10.447
▁twin	-10.4478
▁shipp	-10.4482
▁Stevens	-10.4486
▁recogni	-10.4489
▁Carl	-10.449
▁Recording	-10.449
▁heat	-10.4495
▁importan	-10.4499
▁inner	-10.4499
▁emerg	-10.4503
bert	-10.4504
▁Marl	-10.452
▁detect	-10.4532
▁Na	-10.4533
▁Com	-10.4536
▁programme	-10.4537
▁Frederick	-10.4543
▁application	-10.4543
▁responsibilit	-10.4543
ippi	-10.4543
▁expansion	-10.4543
▁isolat	-10.4547
▁magic	-10.4548
hl	-10.4549
▁manner	-10.4552
▁belong	-10.4559
▁fix	-10.456
▁admitt	-10.4563
iro	-10.4565
▁Camp	-10.4567
▁61	-10.4575
ersonnel	-10.4578
▁94	-10.458
▁dry	-10.4583
nce	-10.4604
▁pitcher	-10.4616
▁march	-10.4621
▁Owe	-10.4624
▁tomb	-10.4629
▁politic	-10.4634
▁Anti	-10.4638
▁proper	-10.4643
▁note	-10.4651
table	-10.4653
▁correct	-10.4656
▁Kur	-10.4657
▁exchange	-10.4663
▁Stephen	-10.4666
▁benefit	-10.4666
▁recruit	-10.4666
▁honour	-10.4666
▁patron	-10.4666
▁Tower	-10.4666
▁aware	-10.4667
▁favorite	-10.4669
▁railway	-10.467
▁Gall	-10.4671
▁battleship	-10.4671
▁prey	-10.4679
▁thirt	-10.4685
▁Justi	-10.469
▁afterward	-10.4691
▁intelligen	-10.4692
▁lose	-10.4699
▁soft	-10.4701
wi	-10.4704
91	-10.4707
hi	-10.4713
▁Hal	-10.4718
64	-10.4726
▁card	-10.4733
▁Inter	-10.4736
▁vot	-10.4738
▁sponsor	-10.4744
▁Var	-10.4745
▁reading	-10.4755
▁su	-10.476
▁Fran	-10.4765
▁Sport	-10.4772
▁signing	-10.4779
▁authors	-10.478
ible	-10.4787
▁crown	-10.4791
▁surprise	-10.4791
▁Stefan	-10.4791
▁romantic	-10.4791
▁Isabella	-10.4791
▁Plunkett	-10.4791
▁monarch	-10.4791
▁expert	-10.4791
▁squadron	-10.4791
▁puzzle	-10.4791
▁Snow	-10.4792
▁regiment	-10.4792
▁alternative	-10.4792
▁Hugh	-10.4793
▁department	-10.4796
▁franchise	-10.4798
▁Order	-10.4798
▁Od	-10.48
▁convecti	-10.48
ural	-10.4802
▁earth	-10.4808
▁Who	-10.4811
lie	-10.4814
▁lay	-10.4817
▁chemical	-10.4819
▁72	-10.4824
▁deposit	-10.4829
▁Rose	-10.4835
evo	-10.484
▁knots	-10.4844
▁premiere	-10.485
▁alien	-10.485
▁62	-10.4857
▁bass	-10.4862
▁Hell	-10.4863
▁identit	-10.4863
▁roads	-10.4871
▁canal	-10.4873
▁pound	-10.4893
▁historic	-10.4895
▁characteristics	-10.4898
enon	-10.4898
▁95	-10.4899
▁slave	-10.4909
▁predecessor	-10.4918
▁resource	-10.4918
▁moderate	-10.4918
▁portrait	-10.4918
▁Jersey	-10.4918
▁Colonel	-10.4919
▁festival	-10.4919
▁assistant	-10.492
▁preparation	-10.492
▁Duke	-10.4921
evil	-10.4921
▁bright	-10.4921
▁conference	-10.4921
▁Down	-10.4923
▁1917	-10.4923
▁1890	-10.4924
▁proceed	-10.4925
▁preferr	-10.4927
no	-10.4929
▁survivor	-10.4929
▁1948	-10.4931
▁Will	-10.4936
▁Hami	-10.4937
▁associate	-10.4942
IA	-10.4945
▁consistent	-10.4948
▁accus	-10.4963
▁vary	-10.4964
▁eat	-10.4965
board	-10.4971
▁confus	-10.4982
▁Tree	-10.4986
▁cycle	-10.4987
IG	-10.4993
over	-10.4996
▁gate	-10.4998
▁hill	-10.4999
▁interchange	-10.5
▁nin	-10.5005
▁environment	-10.5013
▁classifi	-10.5018
▁symbol	-10.503
SB	-10.5041
▁faith	-10.5046
▁diameter	-10.5046
▁mechanic	-10.5046
▁europ	-10.5046
▁Chronicle	-10.5046
▁measur	-10.5047
▁dramatic	-10.505
▁adaptation	-10.5051
▁tale	-10.5052
▁step	-10.5053
▁edit	-10.5057
▁worth	-10.5058
▁Un	-10.5068
▁ridge	-10.5079
▁mere	-10.5079
Brien	-10.5082
▁Lia	-10.5087
▁accident	-10.5099
▁En	-10.51
▁Sap	-10.5102
erry	-10.511
▁explor	-10.5112
▁Stran	-10.5121
▁tactic	-10.5124
▁eyes	-10.5132
▁186	-10.5135
▁compete	-10.5139
▁publisher	-10.515
body	-10.5156
▁77	-10.5161
▁tribes	-10.5166
▁Research	-10.5176
▁pupil	-10.5176
▁rhythm	-10.5176
▁joint	-10.5176
▁sudden	-10.5176
▁wicket	-10.5178
▁colonial	-10.5179
take	-10.5184
▁bond	-10.5186
und	-10.5187
▁1954	-10.5188
▁Ray	-10.5191
awn	-10.5191
▁Kilm	-10.5194
▁disappear	-10.5195
▁completion	-10.5199
▁schedul	-10.5203
▁pool	-10.5204
▁Angl	-10.5206
▁suit	-10.5208
▁Colon	-10.521
▁evening	-10.5215
fare	-10.5224
▁ML	-10.5231
▁supporter	-10.5253
BS	-10.5281
▁electric	-10.5286
▁notice	-10.5296
▁sort	-10.5303
▁Cast	-10.5303
epression	-10.5306
▁Jerusalem	-10.5307
▁monitor	-10.5307
▁Netherland	-10.5307
▁turret	-10.5307
▁spirit	-10.5307
▁Campbel	-10.5308
▁steam	-10.5308
▁cult	-10.5309
aska	-10.5311
▁1937	-10.5312
▁moon	-10.5313
▁squad	-10.5315
▁theater	-10.5315
▁tourist	-10.5316
▁Bon	-10.5316
▁mark	-10.5317
▁Castle	-10.5319
▁85	-10.532
▁ensure	-10.533
▁Toro	-10.5333
▁Wilde	-10.5336
▁Ox	-10.5336
▁Moder	-10.5344
▁Arts	-10.5344
▁Dot	-10.5347
▁81	-10.5358
▁fair	-10.5362
▁Argentin	-10.5365
wealth	-10.5375
▁happ	-10.5386
▁Hav	-10.5386
ook	-10.5396
lair	-10.5397
▁collapse	-10.5401
▁Pe	-10.5401
mar	-10.5402
mon	-10.5407
▁coup	-10.5422
▁flat	-10.5426
▁hat	-10.5431
▁Pro	-10.5435
▁Archaeolog	-10.544
▁segment	-10.5441
▁ocean	-10.5441
▁Transport	-10.5441
▁Eliza	-10.5441
▁context	-10.5441
▁entertain	-10.5441
▁organisation	-10.5443
▁Ré	-10.5449
▁1955	-10.5451
▁contribution	-10.5453
ke	-10.5455
▁initiative	-10.5455
ight	-10.5463
▁Norman	-10.5465
▁McC	-10.547
▁wine	-10.5483
▁Mc	-10.5488
ade	-10.5488
▁bell	-10.5492
▁regional	-10.5498
▁Ann	-10.5506
▁wealth	-10.5507
▁travell	-10.5511
▁transform	-10.5515
▁Alf	-10.5522
▁mine	-10.5545
▁tee	-10.555
uck	-10.5556
▁Fish	-10.5557
▁champion	-10.5558
▁Dream	-10.5559
▁stem	-10.5562
▁McCart	-10.5565
92	-10.5565
▁craft	-10.5569
▁remove	-10.5569
▁bishop	-10.5576
▁knock	-10.5576
▁register	-10.5576
▁belt	-10.5579
▁Beach	-10.5582
▁Rifle	-10.5585
▁committ	-10.5587
▁dynast	-10.5591
▁News	-10.5595
▁1900	-10.5603
▁hall	-10.5607
▁lands	-10.5608
▁researcher	-10.561
▁winner	-10.5612
▁Carol	-10.5622
▁Jeff	-10.5625
▁ill	-10.5629
▁albums	-10.563
▁stretch	-10.5633
90	-10.5634
▁pursue	-10.5636
▁relegat	-10.5639
▁worship	-10.5651
▁separat	-10.5654
▁Cory	-10.5659
▁Kea	-10.566
▁Tro	-10.567
union	-10.5671
▁warning	-10.5672
▁Tu	-10.5673
OT	-10.5683
▁Gu	-10.5687
▁favour	-10.5694
▁Plo	-10.57
▁temporar	-10.5701
▁arrang	-10.5702
▁arc	-10.5704
▁youth	-10.5704
▁Sol	-10.5705
▁scientist	-10.5713
▁wrong	-10.5713
▁dialogue	-10.5713
▁Point	-10.5713
▁fragment	-10.5713
▁criminal	-10.5713
▁shark	-10.5714
▁lbw	-10.5714
▁Top	-10.5718
▁Less	-10.5721
▁strip	-10.5725
▁1949	-10.5727
▁handl	-10.5736
▁Isle	-10.5737
▁Type	-10.574
▁offering	-10.5743
▁Pul	-10.5759
▁founder	-10.5764
▁tip	-10.5768
tty	-10.5768
▁Far	-10.5769
▁sun	-10.5773
▁strateg	-10.5776
▁governor	-10.5789
von	-10.5805
▁Johnston	-10.5819
▁Roy	-10.5821
▁Queens	-10.5821
▁Hart	-10.5825
ho	-10.5826
▁none	-10.5829
yle	-10.5829
▁arch	-10.5833
scar	-10.5842
▁Francisc	-10.5847
▁Adam	-10.5847
nivers	-10.5849
▁implement	-10.5852
▁watershed	-10.5852
▁assert	-10.5852
▁indig	-10.5853
▁Adams	-10.5856
▁soul	-10.5857
▁encourag	-10.5857
▁Thir	-10.586
▁Congo	-10.5861
▁trouble	-10.587
▁incorporat	-10.587
night	-10.5872
▁discussion	-10.5872
▁towns	-10.5873
▁Korean	-10.5876
nada	-10.5877
▁notabl	-10.5894
▁stream	-10.5897
▁moves	-10.5904
▁Come	-10.5913
▁visibl	-10.5918
ais	-10.5924
awa	-10.5939
▁hel	-10.5942
▁tru	-10.5942
nlike	-10.5947
▁experiment	-10.5949
▁grey	-10.5955
▁termin	-10.5961
▁eliminat	-10.5962
▁Wat	-10.5962
▁Here	-10.5976
▁apart	-10.5989
▁Initial	-10.5993
▁kitsune	-10.5993
▁photograph	-10.5993
▁Chief	-10.5993
▁superior	-10.5994
▁install	-10.5994
▁Persian	-10.5995
▁Hotel	-10.5996
▁employee	-10.5996
▁stadium	-10.6003
▁Cape	-10.6003
45	-10.6009
▁Patric	-10.6009
▁Gate	-10.6013
▁Iron	-10.6018
▁magn	-10.6021
▁announce	-10.6023
▁tho	-10.6024
▁hir	-10.6036
▁Count	-10.6037
cruz	-10.6038
▁cold	-10.6046
ck	-10.6059
M	-10.6071
▁Squa	-10.6075
ncy	-10.6081
▁Aeri	-10.6083
what	-10.6084
mbled	-10.609
▁Station	-10.6102
▁Jo	-10.6104
▁coal	-10.6106
▁adj	-10.6108
▁Spring	-10.6108
▁Burns	-10.6113
▁Char	-10.6115
▁listen	-10.6118
▁bigge	-10.6124
▁profit	-10.6125
▁recognize	-10.6131
im	-10.6135
▁talent	-10.6136
▁desert	-10.6136
▁conclusion	-10.6136
▁controversial	-10.6137
▁possess	-10.6137
ttorney	-10.6137
▁ruin	-10.6139
▁molecule	-10.6142
▁Color	-10.6142
▁guilt	-10.6144
▁Rob	-10.6145
▁Lenno	-10.6145
iva	-10.6151
▁Leonard	-10.6152
▁radi	-10.6152
acent	-10.6152
O	-10.6153
▁Alli	-10.6154
viation	-10.6155
▁intention	-10.6157
▁muscari	-10.6162
▁constitution	-10.6163
▁175	-10.6171
▁AD	-10.6175
▁internal	-10.6177
een	-10.6183
▁tax	-10.6198
▁documentar	-10.6198
▁engineering	-10.6206
▁Che	-10.621
▁Your	-10.6211
▁opposite	-10.6215
▁lap	-10.622
▁IV	-10.6227
▁categor	-10.6241
▁driv	-10.6242
▁Wy	-10.6249
iana	-10.6254
▁Sound	-10.6255
▁59	-10.6261
▁tone	-10.6266
oba	-10.6269
▁Ern	-10.6269
▁hear	-10.627
ata	-10.6271
▁cloth	-10.6274
▁attribut	-10.6275
▁picture	-10.628
▁streak	-10.628
▁remember	-10.628
▁restrict	-10.6281
▁scientific	-10.6282
▁crest	-10.6284
▁attribute	-10.6285
▁1909	-10.6285
▁narrative	-10.6285
▁Fei	-10.6286
▁1880	-10.6286
▁Prior	-10.6289
▁Jesu	-10.6291
▁Palace	-10.6291
▁corn	-10.6308
▁selection	-10.631
▁observe	-10.6324
ormula	-10.6326
▁Garc	-10.6337
▁Tel	-10.6337
berg	-10.6341
84	-10.6342
ology	-10.6351
▁Muld	-10.6363
▁McCa	-10.6366
▁Hump	-10.6382
▁des	-10.6384
▁intense	-10.6396
▁designer	-10.6405
▁Run	-10.6411
▁hous	-10.6413
▁criticis	-10.6413
▁electronic	-10.6423
▁lb	-10.6427
▁affair	-10.6427
▁Design	-10.6428
▁hydro	-10.6428
▁perspective	-10.6428
▁equivalent	-10.6428
▁cease	-10.643
▁Lancas	-10.643
▁expens	-10.6431
▁Guide	-10.6432
▁1935	-10.6432
▁improvement	-10.6433
▁cloud	-10.6435
▁Wolf	-10.6437
▁Poland	-10.6438
▁global	-10.6439
▁Tri	-10.6444
58	-10.6444
lay	-10.6447
▁disc	-10.6452
▁marks	-10.6457
ological	-10.6458
▁stands	-10.6459
▁trie	-10.646
▁71	-10.6462
ership	-10.6469
offman	-10.6489
▁Quin	-10.6495
▁Pr	-10.6496
▁intensifi	-10.6504
▁divers	-10.6508
▁Lei	-10.6509
▁cri	-10.6515
▁Eric	-10.6516
istic	-10.6535
▁Guy	-10.6549
tendo	-10.6549
metric	-10.6549
▁Serb	-10.655
ling	-10.6554
▁format	-10.6557
▁predict	-10.6567
j	-10.6567
siege	-10.6568
▁settl	-10.6574
eninsula	-10.6575
munition	-10.6577
▁Enterprise	-10.6577
▁Release	-10.6577
▁Shakespeare	-10.6577
▁escort	-10.6577
▁gift	-10.6577
▁erect	-10.6577
▁extension	-10.6577
▁chamber	-10.658
▁Giant	-10.658
▁Nick	-10.6581
▁1932	-10.6581
▁Allah	-10.6582
▁Bank	-10.6585
▁UN	-10.6593
▁transition	-10.6602
▁Tru	-10.6612
▁deck	-10.6612
▁mode	-10.6627
▁wins	-10.663
▁runner	-10.6639
▁gre	-10.6648
▁continent	-10.665
▁Every	-10.6657
▁Shao	-10.6671
▁agenc	-10.6675
▁Swed	-10.6675
▁Lords	-10.6682
▁patrol	-10.6696
▁Su	-10.6697
rence	-10.6721
▁prerogative	-10.6728
▁feather	-10.6728
▁1929	-10.6728
▁holiday	-10.6728
▁circumstance	-10.6729
▁Communist	-10.6729
▁climate	-10.6729
▁fifteen	-10.6731
▁absence	-10.6731
▁price	-10.6731
▁1921	-10.6731
▁reconstruction	-10.6732
▁circle	-10.6737
amino	-10.6743
▁gone	-10.6744
uji	-10.6748
▁el	-10.6749
▁emphasis	-10.6749
▁bann	-10.6752
▁meter	-10.6754
▁waters	-10.676
▁Tale	-10.6762
▁Merc	-10.6763
▁purchas	-10.6772
▁prisoner	-10.6774
▁resemble	-10.6792
▁ranking	-10.6795
▁cat	-10.6803
▁rug	-10.6807
▁se	-10.6809
▁narrat	-10.6811
▁classe	-10.6816
▁Kod	-10.6826
▁amateur	-10.6828
▁Late	-10.683
▁generat	-10.6835
mura	-10.6845
▁Cambodia	-10.6846
ugu	-10.685
▁solid	-10.6856
▁considerabl	-10.6861
▁propose	-10.6866
▁CE	-10.6867
▁advertis	-10.6869
mperor	-10.6879
▁Hospital	-10.6881
▁Education	-10.6882
▁acclaim	-10.6882
▁exhaust	-10.6882
▁Sweet	-10.6882
▁goddess	-10.6882
▁beautiful	-10.6882
▁Geoff	-10.6882
▁reconn	-10.6882
▁Pitman	-10.6883
▁deem	-10.6885
▁gross	-10.6886
▁fountain	-10.6887
▁Dark	-10.6888
▁1938	-10.6888
▁argument	-10.6889
▁Imperi	-10.6894
▁ti	-10.6896
▁buy	-10.6898
▁Republican	-10.6898
▁1962	-10.6907
▁Vice	-10.6909
▁Ancient	-10.6916
seas	-10.6926
ough	-10.6937
▁influen	-10.6942
▁canon	-10.6944
▁Pri	-10.696
67	-10.696
▁Dominica	-10.6969
▁destructi	-10.6973
atu	-10.6987
res	-10.699
▁prison	-10.6992
SA	-10.6995
rising	-10.6995
▁Mad	-10.7001
ard	-10.7003
▁listing	-10.7004
ak	-10.7005
▁Islam	-10.701
▁66	-10.7015
▁WA	-10.7017
▁behavio	-10.702
gram	-10.7026
▁interpret	-10.7034
▁Phoeni	-10.7035
▁answer	-10.7038
▁Protestant	-10.7038
▁helmet	-10.7038
▁accompany	-10.7038
▁drink	-10.7038
▁comparison	-10.7039
▁residence	-10.7039
▁professor	-10.7039
▁departure	-10.7039
▁exposure	-10.7039
▁spiritual	-10.7039
▁Space	-10.7039
▁renew	-10.7039
▁simultaneous	-10.704
▁Thai	-10.704
▁Matt	-10.704
▁false	-10.7042
▁disaster	-10.7043
▁dock	-10.7044
▁investigation	-10.7045
▁shirt	-10.7046
math	-10.7047
▁Now	-10.706
▁Palestin	-10.7065
▁Kell	-10.7067
nto	-10.7068
pper	-10.7074
▁Bur	-10.709
▁Jay	-10.7093
▁union	-10.7103
▁Jew	-10.7108
▁compris	-10.712
graf	-10.7125
▁industrial	-10.713
▁beg	-10.7131
▁conclude	-10.7133
▁suburb	-10.7138
▁developer	-10.7146
J	-10.7154
▁crash	-10.7158
▁Burn	-10.7161
▁Our	-10.7164
▁promise	-10.7165
▁resistan	-10.7165
we	-10.7173
▁showing	-10.7173
▁Lega	-10.7174
69	-10.7174
▁Emm	-10.7181
▁Joy	-10.7182
▁impossib	-10.7183
▁Polic	-10.719
ek	-10.7197
▁colleague	-10.7197
▁disappoint	-10.7197
▁tributar	-10.7197
▁scatter	-10.7197
▁cinema	-10.7197
▁mixture	-10.7199
athedral	-10.72
▁parish	-10.7201
▁stee	-10.7201
▁concentration	-10.7202
▁shoulder	-10.7202
▁substitute	-10.7205
▁Stock	-10.7207
▁blame	-10.7208
▁rhyme	-10.7209
▁Furt	-10.7209
▁79	-10.7211
▁crake	-10.7212
▁DC	-10.7212
▁Wan	-10.7216
▁blocks	-10.7221
▁bearing	-10.7222
▁Rhodesia	-10.7227
70	-10.7227
▁depiction	-10.7229
throne	-10.7229
expected	-10.7229
ugb	-10.723
▁undergo	-10.7231
▁rang	-10.7237
▁woode	-10.7242
▁Gil	-10.7242
how	-10.7245
▁Territor	-10.726
▁exercise	-10.7262
▁Y	-10.7263
nio	-10.7266
▁wherea	-10.7266
▁Bark	-10.7267
hannel	-10.7268
▁cent	-10.727
▁shop	-10.7271
▁fold	-10.7273
▁Fin	-10.7277
▁thin	-10.728
▁assum	-10.7296
46	-10.7308
▁motor	-10.7312
▁solution	-10.7319
56	-10.7329
gular	-10.7329
ji	-10.733
▁Glas	-10.7336
▁originat	-10.7338
▁nurse	-10.7349
▁112	-10.7357
▁scheme	-10.7358
▁skull	-10.7358
▁Saturday	-10.7358
▁manuscript	-10.7359
▁Fernand	-10.7359
▁Krak	-10.7359
▁aggressive	-10.7359
inje	-10.736
▁brick	-10.736
▁huge	-10.7361
▁Human	-10.7361
▁elevation	-10.7363
▁Sam	-10.7365
▁northward	-10.7366
▁giant	-10.7367
▁Moore	-10.7369
▁pure	-10.737
▁infrastructur	-10.7371
▁Along	-10.7374
▁behavior	-10.7377
▁Dave	-10.7381
▁statistic	-10.7395
▁biographer	-10.7397
fer	-10.7398
▁legislati	-10.7409
aware	-10.7411
▁98	-10.7417
▁diet	-10.7419
▁exten	-10.7422
ana	-10.7423
▁USD	-10.7423
X	-10.7424
dolen	-10.743
▁Ch	-10.7434
▁164	-10.744
etts	-10.7446
▁van	-10.7464
▁Bert	-10.7468
▁Israeli	-10.7475
rich	-10.7478
▁demonstrat	-10.7486
ita	-10.7486
▁bay	-10.7486
▁flower	-10.7491
aven	-10.7492
▁Philli	-10.7493
▁blow	-10.7495
▁witness	-10.7501
OC	-10.7502
▁Monta	-10.7504
▁Mexic	-10.7515
▁Bass	-10.7516
▁DAG	-10.7522
▁Eagle	-10.7522
▁sentiment	-10.7522
▁creek	-10.7522
▁suspect	-10.7522
▁realize	-10.7522
▁tribute	-10.7522
▁Treat	-10.7523
▁brand	-10.7523
▁Blood	-10.7523
▁Tiger	-10.7523
▁Back	-10.7523
▁modifi	-10.7524
▁reinforcement	-10.7525
▁loan	-10.7526
ELI	-10.7527
FA	-10.7529
▁chain	-10.753
▁impression	-10.7536
▁continuous	-10.7537
▁Rhy	-10.7539
▁commandment	-10.7541
▁refuse	-10.7541
▁tube	-10.7542
▁bus	-10.7543
▁Face	-10.7543
▁willing	-10.7544
▁Media	-10.7545
MO	-10.7545
▁useful	-10.7546
▁Con	-10.7546
▁gather	-10.7547
▁dad	-10.7547
▁Q	-10.7556
▁melod	-10.7557
▁slope	-10.756
▁Di	-10.7564
▁turns	-10.757
▁architect	-10.757
▁Hit	-10.7575
▁rid	-10.7585
▁restore	-10.759
▁Tim	-10.7595
▁Cold	-10.7602
▁earning	-10.7627
▁sp	-10.7628
▁Ar	-10.7632
▁speaker	-10.7641
▁Edi	-10.7646
ich	-10.7669
▁grade	-10.7675
▁Pin	-10.7678
▁88	-10.7679
▁decorat	-10.768
▁encourage	-10.7682
▁graduat	-10.7684
▁Barbar	-10.7685
arvati	-10.7687
▁Journal	-10.7688
▁helicopter	-10.7689
▁jackrabbit	-10.7689
▁dinosaur	-10.7689
▁shelter	-10.7689
▁carbon	-10.7689
▁embark	-10.7689
▁choir	-10.7689
▁accurate	-10.7689
▁conversation	-10.769
▁kingdom	-10.769
▁Hokie	-10.7691
▁differ	-10.7691
▁definition	-10.7691
▁Norway	-10.7692
▁Cultur	-10.7692
▁tight	-10.7692
▁1928	-10.7693
▁Township	-10.7693
la	-10.77
▁See	-10.7701
▁requirement	-10.7701
▁code	-10.7702
▁Main	-10.7704
ilit	-10.7705
▁Thu	-10.7706
▁cook	-10.7711
▁artificial	-10.7712
▁drums	-10.7716
▁Jar	-10.7718
▁Da	-10.772
▁execut	-10.7726
▁Dis	-10.7731
erff	-10.7734
▁trick	-10.7745
▁FR	-10.7752
▁carv	-10.7759
ale	-10.7765
▁Historic	-10.7769
▁Defens	-10.777
▁Evan	-10.7773
▁Grad	-10.7777
▁farmer	-10.779
erial	-10.779
gner	-10.7792
▁combine	-10.7794
▁syn	-10.7796
▁Bell	-10.7798
▁convention	-10.7817
▁magnet	-10.7819
▁celebrat	-10.7821
DH	-10.7821
tical	-10.7823
▁promis	-10.7824
▁sale	-10.7833
▁incorporate	-10.7834
▁vi	-10.7838
life	-10.7839
▁Minist	-10.7842
ti	-10.7844
19	-10.7847
▁weigh	-10.7849
▁Hard	-10.785
ivision	-10.7852
▁principle	-10.7858
▁Nebr	-10.7858
▁substance	-10.7859
▁shrine	-10.7859
▁librar	-10.786
▁Eaton	-10.7861
▁1927	-10.7861
▁Senator	-10.7861
▁device	-10.7862
▁Scu	-10.7863
▁dense	-10.7866
▁sky	-10.7868
▁inhabit	-10.787
▁profi	-10.7874
▁Commando	-10.7875
▁Patty	-10.7881
▁expression	-10.789
▁vice	-10.7892
▁FI	-10.7897
▁circulat	-10.79
lies	-10.7902
▁Portugal	-10.7904
▁altar	-10.7905
gue	-10.7906
cular	-10.7909
▁emergenc	-10.7911
48	-10.7913
83	-10.7916
▁elaborate	-10.7918
▁Memori	-10.7943
▁Marc	-10.7943
▁excavation	-10.7953
▁Work	-10.7953
▁partner	-10.796
▁insist	-10.7965
▁Dun	-10.7966
sswell	-10.7971
▁ches	-10.7974
rque	-10.7983
▁curve	-10.7988
▁philosoph	-10.799
▁corner	-10.7994
olf	-10.7998
▁span	-10.8002
▁Philip	-10.802
▁Yugoslav	-10.8031
▁absolute	-10.8031
▁occupation	-10.8031
▁Yankee	-10.8031
▁nickname	-10.8031
▁Stewart	-10.8031
▁garrison	-10.8031
▁Hol	-10.8031
▁inhabitant	-10.8031
ureau	-10.8032
▁Midge	-10.8032
ix	-10.8033
▁Baker	-10.8033
▁dangerous	-10.8033
▁restoration	-10.8034
▁slide	-10.8035
▁1933	-10.8035
CA	-10.8036
▁collaboration	-10.8036
▁Room	-10.8037
▁Hawaiian	-10.8037
▁Eight	-10.8038
▁Cle	-10.8039
▁empire	-10.8039
▁phrase	-10.804
▁abundan	-10.804
▁Haitian	-10.804
▁1860	-10.804
ware	-10.8043
▁marry	-10.8046
▁coordinat	-10.8054
▁follower	-10.8055
▁Weir	-10.8059
▁Cub	-10.8062
▁63	-10.8068
▁vertical	-10.807
▁mental	-10.8072
▁Mathe	-10.8073
▁Race	-10.8074
▁preced	-10.8078
▁Nat	-10.8081
▁Allen	-10.8083
▁manage	-10.8089
▁controller	-10.8097
▁trapp	-10.8097
ets	-10.8102
▁lover	-10.8104
66	-10.8107
ica	-10.8111
▁eas	-10.8115
▁ride	-10.8117
▁clock	-10.8119
rie	-10.8124
uff	-10.8128
am	-10.8132
▁pine	-10.8139
▁expos	-10.8143
▁touch	-10.8155
▁grave	-10.8156
ace	-10.8159
▁trace	-10.8159
▁hang	-10.8175
▁dream	-10.8178
▁characteriz	-10.8184
▁complain	-10.8184
40	-10.8187
Neil	-10.8189
▁Pa	-10.8192
▁warn	-10.8192
▁Ham	-10.8193
▁intersect	-10.8197
▁situat	-10.8199
▁courts	-10.82
▁Mozambi	-10.8206
▁ethnic	-10.8206
▁virtual	-10.8206
▁poison	-10.8206
▁divorce	-10.8206
▁Wicca	-10.8207
▁prize	-10.8207
▁Chapel	-10.8207
▁doctor	-10.8208
▁artwork	-10.8208
▁Niel	-10.8208
▁politician	-10.8208
▁attitude	-10.821
▁doctrine	-10.8212
▁elder	-10.8212
▁translation	-10.8214
▁cabin	-10.8215
▁Robin	-10.8215
▁humor	-10.8216
▁1957	-10.8217
▁Ja	-10.8217
▁Ni	-10.822
▁sharp	-10.8223
▁Abb	-10.8224
▁Yeo	-10.8224
artial	-10.8228
ile	-10.8228
▁Fair	-10.823
▁Ash	-10.8231
▁choose	-10.8234
▁lift	-10.8234
▁celebrate	-10.8236
▁switch	-10.8239
▁advisor	-10.8241
cute	-10.8248
dium	-10.8249
▁memorial	-10.825
▁achievement	-10.8251
▁Bath	-10.8254
▁900	-10.8254
▁Last	-10.8268
▁statue	-10.8275
▁lake	-10.8283
ai	-10.8286
pite	-10.829
▁Massac	-10.8295
▁Dean	-10.8299
▁ago	-10.8303
▁Bus	-10.8312
▁Made	-10.8318
▁06	-10.8319
▁Ir	-10.8319
▁Cecil	-10.832
▁Jr	-10.8325
▁mediu	-10.8327
lew	-10.8329
▁Head	-10.8333
▁correspond	-10.8337
CC	-10.8344
DS	-10.8344
▁Russia	-10.8351
state	-10.8358
▁cla	-10.8359
▁orchestra	-10.8359
▁Ko	-10.836
AS	-10.8361
▁spin	-10.8366
▁evacuat	-10.8368
▁82	-10.8371
▁hol	-10.8373
yria	-10.8374
erfect	-10.838
istan	-10.8382
▁vegeta	-10.8384
▁danger	-10.8384
▁suspend	-10.8385
▁Hudson	-10.8385
▁tissue	-10.8385
▁Network	-10.8385
▁phone	-10.8385
▁absorb	-10.8385
▁Celtic	-10.8385
▁frigate	-10.8385
▁Railway	-10.8385
ourney	-10.8385
▁ticket	-10.8386
ecki	-10.8389
▁Place	-10.839
▁vast	-10.839
▁infection	-10.8392
▁measurement	-10.8395
▁1850	-10.8397
anagement	-10.8397
▁check	-10.8398
▁Season	-10.8406
▁explore	-10.8413
▁tool	-10.8413
▁manufactur	-10.8419
▁Barry	-10.8419
ches	-10.8422
▁burial	-10.8426
ray	-10.8431
▁readers	-10.8435
▁compet	-10.8436
▁140	-10.8443
▁organis	-10.8453
▁pit	-10.8461
▁Tog	-10.8463
often	-10.8464
boy	-10.8469
▁07	-10.847
work	-10.8481
ntil	-10.8487
▁Christin	-10.8498
▁Pre	-10.8501
fusion	-10.8502
▁Pra	-10.8511
766	-10.8515
rell	-10.8535
▁relation	-10.8541
▁preserve	-10.8544
▁reli	-10.8545
▁realis	-10.8546
▁rat	-10.855
mouth	-10.8552
▁Hind	-10.8558
kin	-10.856
▁depart	-10.8565
▁Confession	-10.8567
▁mammal	-10.8567
▁striking	-10.8567
▁Magdalen	-10.8567
▁Organization	-10.8567
▁perceive	-10.8567
▁reservoir	-10.8567
▁dynamic	-10.8567
▁pistol	-10.8567
▁railroad	-10.8567
▁halt	-10.8567
▁hot	-10.8568
▁classification	-10.8568
▁1926	-10.857
▁Silver	-10.857
▁Trek	-10.857
▁playoff	-10.8573
▁Arsenal	-10.8574
ranch	-10.8579
▁import	-10.8591
▁representation	-10.8593
nnie	-10.8596
▁stead	-10.8597
▁Gray	-10.8603
ord	-10.8608
▁horn	-10.8619
▁Charm	-10.862
▁crosse	-10.8624
attle	-10.8625
ken	-10.8635
▁fate	-10.865
ryce	-10.8663
▁po	-10.8669
mont	-10.8671
▁stoo	-10.8673
▁Class	-10.8674
▁assume	-10.8674
▁pale	-10.8686
▁shar	-10.8701
▁Ton	-10.8708
▁devote	-10.871
▁93	-10.8725
off	-10.8731
Malle	-10.8732
▁McL	-10.8744
▁Fe	-10.8748
▁accomplish	-10.8749
ategor	-10.875
▁Express	-10.8752
▁buoy	-10.8752
▁error	-10.8752
▁identify	-10.8752
▁audio	-10.8752
▁Corporation	-10.8753
▁Pass	-10.8753
▁imprison	-10.8753
▁teammate	-10.8753
▁cargo	-10.8754
▁1905	-10.8756
▁Glad	-10.8756
▁Gho	-10.8756
▁reduction	-10.8757
ario	-10.8757
▁Michel	-10.8764
▁Witch	-10.8765
▁74	-10.8767
▁pace	-10.8769
▁genetic	-10.877
▁merg	-10.8775
▁Bible	-10.8778
▁alleged	-10.8779
▁Rain	-10.8779
▁fin	-10.878
ang	-10.8786
▁punt	-10.8787
▁Davi	-10.8796
▁creative	-10.8797
▁97	-10.8804
troi	-10.8805
▁Neve	-10.8811
▁thereafter	-10.8812
▁owners	-10.8821
▁Stop	-10.8829
▁appropriate	-10.8835
▁Marg	-10.884
▁VII	-10.8855
▁Such	-10.8862
▁emotion	-10.889
oz	-10.8893
▁Hu	-10.8894
▁funera	-10.8894
▁FIF	-10.8904
▁05	-10.8908
ean	-10.891
▁custom	-10.8911
▁assassinat	-10.8917
▁marking	-10.8922
▁Gun	-10.8922
▁ensu	-10.8922
▁initiat	-10.8924
ico	-10.8925
▁locate	-10.8933
adhe	-10.8938
▁puppet	-10.894
▁Chevalier	-10.894
▁Paralympic	-10.894
▁dwarf	-10.894
▁illegal	-10.8941
▁transmission	-10.8941
▁decay	-10.8941
▁structural	-10.8941
▁Provinc	-10.8941
▁provision	-10.8941
▁Qedarite	-10.8941
▁Iraq	-10.8941
▁ballad	-10.8941
▁outbreak	-10.8942
▁challeng	-10.8942
clusion	-10.8942
▁recreation	-10.8942
▁anthem	-10.8943
▁Garden	-10.8943
▁Te	-10.8945
▁Nex	-10.8952
athan	-10.8954
▁Sis	-10.8955
▁onward	-10.8955
▁Pole	-10.8956
▁appointment	-10.8958
▁humanit	-10.8963
sky	-10.8964
▁participate	-10.8966
▁Kir	-10.8972
▁guid	-10.8975
▁Kenne	-10.8977
▁presentation	-10.8983
▁Romanian	-10.8988
▁relate	-10.8996
▁Peac	-10.8996
▁upset	-10.9004
76	-10.9006
▁Yo	-10.9011
▁Lu	-10.9015
egon	-10.9019
▁Lover	-10.9028
▁mate	-10.9034
▁08	-10.9034
▁Madi	-10.9034
▁authoriz	-10.9036
▁Christi	-10.9038
▁Swi	-10.9045
▁para	-10.9047
77	-10.9053
ize	-10.9054
▁sacr	-10.9054
▁177	-10.9058
eigh	-10.9061
74	-10.9063
ama	-10.9072
AA	-10.9082
▁reinforce	-10.9086
▁Arch	-10.9089
aka	-10.9095
ification	-10.9112
▁Thing	-10.9117
▁stock	-10.9121
atechism	-10.913
▁Building	-10.9133
▁consequence	-10.9133
▁uncertain	-10.9133
▁platoon	-10.9133
▁concession	-10.9133
▁fantas	-10.9133
▁Madrid	-10.9133
▁insect	-10.9133
▁Section	-10.9133
▁Voyage	-10.9133
▁Beeton	-10.9133
▁Dakota	-10.9133
enjam	-10.9134
▁prepare	-10.9134
EC	-10.9135
▁Nash	-10.9136
▁Bas	-10.9137
lock	-10.914
▁gap	-10.914
▁Viet	-10.9141
▁sink	-10.9141
utstanding	-10.9141
▁1925	-10.9142
▁jet	-10.9142
▁Tracy	-10.9145
▁garden	-10.9146
ov	-10.9149
25	-10.9151
▁saint	-10.9152
▁animation	-10.9152
gov	-10.9153
▁bind	-10.916
▁cancell	-10.9164
▁citizens	-10.9165
▁mill	-10.9168
mer	-10.9185
▁68	-10.9186
▁vici	-10.9193
▁Raf	-10.9194
let	-10.9194
nek	-10.92
▁stick	-10.92
▁wings	-10.9209
▁pain	-10.9218
ski	-10.922
▁sight	-10.9224
▁Univers	-10.9244
▁69	-10.9256
▁Ric	-10.9257
bee	-10.9262
▁Lin	-10.9266
▁Columb	-10.9303
esse	-10.9315
rey	-10.9321
▁compare	-10.9328
▁satellite	-10.9329
▁smooth	-10.9329
▁Natural	-10.9329
▁theatrical	-10.9329
▁costume	-10.9329
▁demolish	-10.9329
cake	-10.9329
▁frustrat	-10.933
▁1934	-10.933
▁dozen	-10.933
▁suicide	-10.933
▁Lib	-10.9331
▁gust	-10.9332
▁interpretation	-10.9334
▁barrier	-10.9334
▁engagement	-10.9336
▁leukemia	-10.9337
▁submitt	-10.9339
ot	-10.934
olar	-10.9342
rick	-10.9347
▁medal	-10.9351
▁Cong	-10.9351
▁89	-10.9355
ization	-10.9355
▁Member	-10.9358
▁Berlin	-10.936
▁Ful	-10.936
▁plus	-10.9362
▁asteroid	-10.9363
▁Kong	-10.9365
ex	-10.9369
▁pounder	-10.937
▁Front	-10.9373
▁varie	-10.9374
▁environmental	-10.938
nburg	-10.9383
aia	-10.9384
▁sit	-10.9387
▁Glob	-10.9389
▁lie	-10.9393
▁artistic	-10.9394
▁Case	-10.9402
▁personalit	-10.9404
▁illustrat	-10.9415
▁drum	-10.9416
▁pole	-10.9416
▁diplomat	-10.9418
▁Lamb	-10.9419
▁sure	-10.9427
▁Greg	-10.943
▁comprise	-10.943
▁municipal	-10.943
▁seiz	-10.9432
▁Cull	-10.9437
▁pack	-10.9446
ber	-10.9454
uda	-10.9457
▁rebuil	-10.9458
ette	-10.9463
▁Nel	-10.9464
▁67	-10.9465
▁dro	-10.9469
ors	-10.9478
▁tenth	-10.9482
▁Artist	-10.9491
cyclic	-10.95
▁disrupt	-10.9519
han	-10.952
reme	-10.9522
dominant	-10.9522
▁export	-10.9523
▁Hawaii	-10.9526
▁Eshmun	-10.9529
▁Vulcan	-10.9529
▁junior	-10.9529
▁athletic	-10.9529
▁Adventure	-10.9529
▁cousin	-10.9529
▁exploit	-10.9529
▁disband	-10.9529
▁Again	-10.9529
▁battlecruiser	-10.9529
▁biological	-10.953
▁pleasure	-10.953
▁87	-10.953
▁persist	-10.953
▁poll	-10.953
▁destination	-10.9531
▁lawyer	-10.9531
▁sixteen	-10.9531
witzer	-10.9532
▁WW	-10.9534
▁Priest	-10.9535
▁1908	-10.9535
▁revenue	-10.9535
▁NL	-10.9536
▁1870	-10.9537
▁bomb	-10.9538
▁Wild	-10.9538
▁Walker	-10.9538
usiness	-10.9541
▁Imagin	-10.9542
▁Pu	-10.9552
v	-10.9559
▁myth	-10.956
▁shut	-10.9565
▁Mor	-10.9566
▁log	-10.9569
03	-10.9577
mbar	-10.9578
▁manufacturer	-10.9579
▁anger	-10.9581
▁topp	-10.9585
▁mayor	-10.9589
▁descend	-10.9593
rian	-10.9598
phy	-10.9601
ca	-10.9609
▁excit	-10.961
▁Para	-10.9614
rt	-10.9621
▁excavations	-10.9623
fles	-10.9623
▁Penn	-10.9624
▁therap	-10.9635
▁struggl	-10.964
▁minorit	-10.9644
▁Kati	-10.9648
ASA	-10.9663
▁Gregor	-10.9668
▁invest	-10.9668
anyon	-10.9668
▁knee	-10.9669
▁fitt	-10.968
▁Rat	-10.9683
ax	-10.9687
17	-10.9697
▁toll	-10.9698
plasm	-10.97
▁ideal	-10.9705
▁joke	-10.971
▁angle	-10.971
bo	-10.9714
▁Sup	-10.9719
▁Mrs	-10.972
▁prohibit	-10.9723
▁convict	-10.9724
owa	-10.973
▁obvious	-10.9733
▁intellectual	-10.9733
▁kilometer	-10.9733
▁strict	-10.9733
▁yield	-10.9733
▁shock	-10.9733
▁closure	-10.9734
▁Caesar	-10.9735
▁Adel	-10.9735
▁complicat	-10.9736
▁violation	-10.9737
▁negotiation	-10.9737
▁1923	-10.9738
▁cup	-10.9738
evin	-10.974
▁Harrison	-10.974
▁balance	-10.9741
▁logic	-10.9748
ulu	-10.975
aski	-10.9751
▁Actor	-10.9757
▁Lane	-10.976
▁Ball	-10.9765
▁subt	-10.9768
▁strategic	-10.977
▁mole	-10.9771
▁pan	-10.9775
▁Ku	-10.9777
▁Fire	-10.978
▁sad	-10.978
▁trust	-10.978
▁Hous	-10.9791
▁da	-10.9808
▁Abbe	-10.9822
▁Ul	-10.9828
▁Cook	-10.9829
▁Ba	-10.9834
▁favorabl	-10.9837
▁Sorr	-10.9838
▁fame	-10.9838
▁Ida	-10.9847
cut	-10.9849
▁tackle	-10.985
▁Argentine	-10.9851
▁Antoni	-10.9857
▁proportion	-10.9859
ventual	-10.9861
abour	-10.9862
▁Marian	-10.9863
▁Anne	-10.9863
▁wishe	-10.9864
▁Wing	-10.9867
▁Countr	-10.9889
▁Oh	-10.9893
tah	-10.99
▁Korea	-10.9906
▁decrease	-10.9909
▁Die	-10.991
nnett	-10.9916
▁restor	-10.9928
▁com	-10.9939
▁Lincoln	-10.9941
▁Singapore	-10.9941
▁competitor	-10.9941
▁parody	-10.9941
▁cluster	-10.9941
▁diagnos	-10.9942
▁compliment	-10.9942
▁loose	-10.9942
▁armour	-10.9942
▁thirteen	-10.9942
▁essay	-10.9942
▁punishment	-10.9943
▁strain	-10.9944
▁regulation	-10.9944
▁resolution	-10.9944
▁eighteen	-10.9945
▁rotation	-10.9946
▁tension	-10.9946
oot	-10.9946
stock	-10.9949
▁percentage	-10.995
▁Pitt	-10.9951
▁execution	-10.9952
▁Arka	-10.9953
▁1830	-10.9953
power	-10.9955
aku	-10.9956
▁exhibition	-10.9958
▁Ingr	-10.9963
▁Look	-10.9963
▁Clint	-10.9966
▁Nad	-10.9967
▁Ta	-10.9967
▁USS	-10.9968
▁Sb	-10.998
NL	-10.998
▁valid	-10.999
▁identifie	-10.9993
spel	-10.9995
olish	-11.0004
ow	-11.0005
▁Sil	-11.001
▁99	-11.0013
▁Classic	-11.0013
▁sang	-11.0029
▁prepar	-11.0033
▁hi	-11.004
nsa	-11.0042
hus	-11.0042
▁73	-11.0042
▁urg	-11.0044
▁bi	-11.0049
umn	-11.0054
wick	-11.0058
▁tape	-11.008
▁lock	-11.0081
▁journal	-11.0081
▁ba	-11.0087
▁09	-11.0093
sey	-11.0093
▁hire	-11.0095
▁Wall	-11.0103
▁Ken	-11.0104
ingham	-11.0112
▁impos	-11.0122
grid	-11.0126
▁translat	-11.0135
▁Roberts	-11.0139
▁Rand	-11.014
graph	-11.0143
▁Belgi	-11.0149
▁chick	-11.015
▁58	-11.0151
▁labor	-11.0152
▁Matthew	-11.0154
▁Sanskrit	-11.0154
▁deliberate	-11.0154
▁devotion	-11.0154
▁semifinal	-11.0154
▁supplement	-11.0154
▁extinct	-11.0154
▁Credit	-11.0154
▁stump	-11.0154
▁shaft	-11.0154
▁Machine	-11.0154
▁membrane	-11.0155
▁hull	-11.0155
▁audition	-11.0155
▁Where	-11.0155
▁communist	-11.0156
▁fourteen	-11.0156
▁compilation	-11.0156
▁programming	-11.0157
▁Met	-11.0157
▁Observer	-11.0158
▁laborator	-11.0158
ise	-11.0159
▁Belgian	-11.016
▁celebration	-11.0165
▁gray	-11.017
▁Flower	-11.017
▁Mass	-11.0173
▁northeaster	-11.0173
▁debt	-11.0174
natural	-11.0175
▁assess	-11.0175
▁bat	-11.0179
▁179	-11.018
top	-11.0183
▁reader	-11.0184
▁extrat	-11.0186
▁topic	-11.0188
▁Syria	-11.0188
▁Dea	-11.0188
▁NS	-11.0189
▁contribute	-11.019
▁Trail	-11.0192
▁84	-11.0194
ibis	-11.0198
▁nave	-11.0204
rmament	-11.0212
▁Farm	-11.0212
▁Edge	-11.0216
▁resum	-11.0222
▁runway	-11.0224
▁relations	-11.0226
▁AR	-11.0231
▁beam	-11.0238
▁Lud	-11.0239
▁archbishop	-11.0239
ep	-11.0252
▁prospect	-11.0258
▁Pi	-11.0259
▁File	-11.0265
clear	-11.0267
▁Russ	-11.0268
sburg	-11.0269
▁recurr	-11.027
▁culminat	-11.027
▁XI	-11.0277
73	-11.0278
▁Near	-11.0284
▁genera	-11.0294
aster	-11.0298
▁settle	-11.03
▁bow	-11.0305
▁Lead	-11.0305
▁Chas	-11.0319
▁advi	-11.0328
lan	-11.0332
▁southeaster	-11.0332
dine	-11.0332
▁hearing	-11.0335
ake	-11.0337
ttles	-11.0342
▁reache	-11.0342
Pa	-11.0343
▁Sal	-11.0345
▁Ush	-11.0351
▁twentie	-11.0353
cer	-11.0358
▁Chron	-11.0366
az	-11.0366
▁condemn	-11.0368
▁Francis	-11.037
igital	-11.037
▁neighbor	-11.0371
▁Headquarter	-11.0371
▁evident	-11.0371
▁explosive	-11.0371
▁fossil	-11.0371
▁qualify	-11.0371
▁uniform	-11.0371
▁merchant	-11.0371
▁console	-11.0371
▁Dudley	-11.0372
▁Hampshire	-11.0372
▁steal	-11.0372
▁harbour	-11.0372
▁dubb	-11.0372
▁calib	-11.0372
▁umpire	-11.0372
▁Hobb	-11.0373
▁Palestinian	-11.0374
▁Stavan	-11.0374
manita	-11.0376
▁1922	-11.0376
▁declare	-11.0376
▁understo	-11.0376
▁trend	-11.0379
▁venture	-11.0379
howitz	-11.038
▁amid	-11.038
▁Nazi	-11.038
▁float	-11.0383
▁weekend	-11.0384
▁permitt	-11.0388
▁Clair	-11.0389
▁collective	-11.0391
▁fault	-11.0392
▁noble	-11.0394
▁spur	-11.0397
▁Gib	-11.0398
▁Honor	-11.0398
hoon	-11.0405
▁Syd	-11.0406
▁investment	-11.0406
▁Palm	-11.041
inner	-11.0423
▁91	-11.0432
oc	-11.0433
▁Pen	-11.044
▁experienc	-11.0441
aid	-11.0441
▁jur	-11.045
▁suitabl	-11.0453
▁sh	-11.0453
▁dy	-11.0469
▁string	-11.0471
▁Mars	-11.0474
▁Ed	-11.0477
ttle	-11.0479
sberg	-11.0482
▁Kim	-11.0482
▁Mile	-11.0483
▁Bald	-11.0494
erard	-11.0497
yard	-11.0499
▁Mer	-11.0502
▁bombing	-11.0502
lash	-11.0503
▁Wu	-11.0505
▁Champions	-11.0509
▁Mother	-11.0515
▁o	-11.0518
orne	-11.0529
▁02	-11.053
▁Swede	-11.0538
▁investigat	-11.0544
ide	-11.0545
▁enforce	-11.0546
▁revis	-11.0548
ol	-11.0555
▁abuse	-11.0563
donna	-11.0566
egister	-11.0568
▁seal	-11.0568
esi	-11.0575
▁dig	-11.0581
▁hole	-11.0582
▁Zanzibar	-11.0594
▁accommodate	-11.0594
▁administrative	-11.0594
▁pioneer	-11.0594
▁suppress	-11.0594
▁Survey	-11.0594
▁Indonesia	-11.0594
▁Mitchell	-11.0594
▁regain	-11.0594
▁jaw	-11.0594
▁neighborhood	-11.0594
▁Hungarian	-11.0595
▁predominant	-11.0595
▁Compani	-11.0595
▁copy	-11.0595
▁Collection	-11.0595
▁oxy	-11.0595
nell	-11.0595
▁disturbance	-11.0595
▁Kirk	-11.0596
▁Report	-11.0596
▁reactor	-11.0597
▁densit	-11.0597
▁Deep	-11.0601
▁Sora	-11.0602
▁Carlo	-11.0602
▁1861	-11.0602
▁Rick	-11.0603
▁restriction	-11.0609
▁Plate	-11.0609
▁advertisement	-11.0612
▁skeleton	-11.0612
▁Alex	-11.0613
▁mature	-11.0615
▁handle	-11.0616
rapp	-11.0617
▁volunteer	-11.0617
▁Marshal	-11.0622
derers	-11.0623
▁territori	-11.0625
▁Shell	-11.0627
▁laws	-11.0628
▁Movie	-11.0632
father	-11.0638
oven	-11.064
▁101	-11.0641
▁successive	-11.0642
vil	-11.0642
per	-11.0648
▁starter	-11.0649
▁synonym	-11.0655
▁sitt	-11.0663
▁Mel	-11.0668
▁kings	-11.0674
terchange	-11.0674
ography	-11.0678
aide	-11.069
▁ordering	-11.0693
air	-11.0698
▁im	-11.07
▁Are	-11.0702
▁Pier	-11.0704
▁bowler	-11.0705
▁Bar	-11.0711
▁mon	-11.0713
▁Mu	-11.0713
▁define	-11.0717
▁Canning	-11.0718
putation	-11.072
▁realiz	-11.0722
▁resembl	-11.0726
▁Nichol	-11.073
▁Doo	-11.0746
▁Intern	-11.0752
▁sal	-11.0757
nster	-11.0764
▁Harr	-11.0769
ron	-11.0779
▁funn	-11.0791
▁Jer	-11.0792
down	-11.0793
▁Fred	-11.0798
▁significan	-11.0799
▁bare	-11.08
▁spaces	-11.0815
▁sq	-11.082
▁gravit	-11.0821
▁Gardner	-11.0821
▁devastat	-11.0821
▁occupy	-11.0821
▁cotton	-11.0821
▁Yellow	-11.0821
▁Twenty	-11.0821
▁apply	-11.0821
▁Dahl	-11.0822
▁Freak	-11.0822
▁queen	-11.0822
▁Naza	-11.0822
▁Hoover	-11.0823
▁Health	-11.0823
▁illness	-11.0823
ap	-11.0825
eet	-11.0825
▁Number	-11.0826
▁Everton	-11.0827
ife	-11.0827
▁graduate	-11.0829
▁epic	-11.0831
▁loud	-11.0832
▁lifetime	-11.0833
▁Monke	-11.0834
▁Bush	-11.0834
▁revival	-11.0835
▁muc	-11.0837
▁350	-11.084
▁Helen	-11.0841
▁isotope	-11.0842
▁DD	-11.0848
iness	-11.0848
▁Pat	-11.0848
▁Hanna	-11.0849
▁Bret	-11.0851
▁astronomer	-11.0858
▁Ze	-11.0859
▁Carmel	-11.0861
▁Chap	-11.0862
▁revolution	-11.0864
▁characteristic	-11.0864
▁Chi	-11.0865
▁similarit	-11.0871
▁Sina	-11.0874
▁Plan	-11.088
▁physic	-11.0882
organ	-11.0884
▁boom	-11.0885
ret	-11.0885
▁122	-11.0885
▁universal	-11.0896
uve	-11.0913
▁rac	-11.0917
▁reput	-11.0921
éti	-11.0922
▁pursu	-11.0924
▁pose	-11.0925
meter	-11.0931
▁ode	-11.0932
▁reverse	-11.0932
▁render	-11.0934
▁suggestion	-11.0935
▁aut	-11.0939
▁Gael	-11.0944
▁evolv	-11.0948
gin	-11.0949
▁uncle	-11.0965
▁Corp	-11.0966
oon	-11.0987
ay	-11.099
▁Wis	-11.0997
▁03	-11.1009
▁Bird	-11.1014
▁tooth	-11.1022
ori	-11.1027
▁interact	-11.1044
NC	-11.105
▁confront	-11.105
▁displace	-11.1051
▁widow	-11.1053
▁sympath	-11.1053
▁Female	-11.1054
▁Palmyrene	-11.1054
▁dimension	-11.1054
▁competitive	-11.1054
▁enlist	-11.1054
▁Opera	-11.1054
▁Corbet	-11.1054
▁inde	-11.1054
▁dislike	-11.1055
▁partnership	-11.1056
▁examination	-11.1057
▁interception	-11.1059
▁Crusader	-11.1059
▁steps	-11.106
▁Vander	-11.1064
▁loop	-11.1064
▁announcement	-11.1065
▁demonstration	-11.1066
▁quote	-11.1066
non	-11.1071
▁Raja	-11.1072
▁enzyme	-11.1072
blaze	-11.1077
▁Foo	-11.1079
▁valu	-11.1081
▁Austrian	-11.1084
▁Ron	-11.1084
▁l	-11.1088
▁Norw	-11.109
bound	-11.109
dream	-11.1091
▁Communit	-11.1095
▁Defen	-11.1097
nna	-11.11
▁tide	-11.11
▁hook	-11.1101
les	-11.112
▁lad	-11.113
▁painter	-11.113
uart	-11.1132
arro	-11.114
liot	-11.1142
▁Westm	-11.1144
▁unna	-11.1145
▁Fo	-11.1145
▁Kat	-11.115
▁update	-11.1157
▁failing	-11.1162
▁Euro	-11.1163
▁alternate	-11.1163
▁Construct	-11.1164
uous	-11.1173
▁margin	-11.1179
▁invad	-11.1181
▁fami	-11.1182
▁Meteorolog	-11.1186
rous	-11.1189
▁ruler	-11.1196
38	-11.121
▁Ru	-11.122
▁Historical	-11.1221
▁Conservat	-11.1224
▁permissi	-11.1226
▁Ya	-11.1227
eaten	-11.1232
▁Er	-11.1239
linger	-11.1241
▁Jerem	-11.1245
▁terra	-11.1245
▁convince	-11.1252
▁Dyna	-11.1254
▁enable	-11.1255
▁78	-11.1256
rose	-11.1257
▁AT	-11.1257
▁gam	-11.126
sumption	-11.127
▁roadway	-11.1272
▁Llo	-11.1275
▁animat	-11.1278
▁der	-11.1281
▁Zoo	-11.1283
▁Hawai	-11.1286
▁net	-11.1288
ws	-11.1289
▁fundamental	-11.1291
▁Bulgaria	-11.1292
▁Eccleston	-11.1292
▁Monument	-11.1292
▁Tokyo	-11.1292
▁abroad	-11.1292
▁reopen	-11.1292
▁Panzer	-11.1292
▁sketch	-11.1292
reutz	-11.1292
▁taste	-11.1292
▁nineteen	-11.1292
▁distant	-11.1292
put	-11.1292
▁circuit	-11.1292
▁seventeen	-11.1292
▁climb	-11.1292
▁Scout	-11.1292
▁songwriter	-11.1293
▁dependent	-11.1294
▁symptom	-11.1294
▁Comput	-11.1294
▁Vega	-11.1295
▁Personal	-11.1295
▁creature	-11.1297
▁myster	-11.1298
▁1840	-11.1302
▁Comic	-11.1303
▁patient	-11.1305
▁woodland	-11.1306
ab	-11.1307
▁observator	-11.1307
▁recognis	-11.1309
terra	-11.131
▁react	-11.1311
rinth	-11.1314
▁Chen	-11.1315
▁anchor	-11.1318
▁Sull	-11.132
▁guy	-11.132
▁complaint	-11.1322
▁Federation	-11.1326
▁chord	-11.1326
▁galler	-11.1329
▁investigate	-11.133
▁instruction	-11.1334
▁laugh	-11.1335
guard	-11.1336
street	-11.1337
▁Hans	-11.1338
▁sleep	-11.1338
junction	-11.1345
▁Eu	-11.1355
▁stress	-11.1355
▁bomber	-11.1357
▁enabl	-11.1359
▁Bang	-11.1363
▁ambassador	-11.1363
gs	-11.1381
tra	-11.1381
▁endur	-11.1396
▁Donald	-11.1397
▁demo	-11.1403
vi	-11.1406
▁tune	-11.1406
▁86	-11.1409
▁examin	-11.1412
▁verte	-11.1417
mi	-11.1426
▁premier	-11.1426
rze	-11.1429
▁Ok	-11.1433
Tu	-11.1451
▁platin	-11.1453
▁Web	-11.1457
fel	-11.1461
▁allocat	-11.1461
▁Plu	-11.1464
▁advocate	-11.1474
escription	-11.1479
lesh	-11.1479
▁pin	-11.1481
▁neutral	-11.1481
▁Conservati	-11.1483
▁Unit	-11.1486
▁probab	-11.1488
ko	-11.149
▁acquire	-11.1496
▁Cret	-11.1497
mobile	-11.1497
wich	-11.1507
▁sounds	-11.1515
▁Au	-11.152
▁belonging	-11.153
▁Rothschild	-11.1535
▁Warrior	-11.1535
▁obstacle	-11.1535
▁inherit	-11.1535
▁Pakistan	-11.1536
▁Heavy	-11.1536
▁propagand	-11.1536
▁consent	-11.1536
▁hamlet	-11.1536
07	-11.1536
▁evolution	-11.1536
▁Living	-11.1536
▁mortar	-11.1536
▁Protein	-11.1537
chute	-11.1537
▁monk	-11.1537
▁Batter	-11.1537
▁landscape	-11.1537
▁peninsula	-11.1537
▁peer	-11.1537
▁overlook	-11.1538
▁knight	-11.1538
▁commitment	-11.1538
▁beaut	-11.1538
▁variable	-11.1538
▁Knight	-11.154
▁Romania	-11.1543
▁sack	-11.1543
ricket	-11.1543
▁Cyr	-11.1547
▁Tide	-11.1547
▁Kyra	-11.1547
▁mortal	-11.1552
▁rubber	-11.1553
CO	-11.1556
khur	-11.1557
▁clothes	-11.1558
▁Dres	-11.1561
▁scorer	-11.1562
▁salt	-11.1563
▁Trin	-11.1564
rizon	-11.157
worth	-11.1572
▁immigrat	-11.1576
▁slate	-11.1589
arious	-11.1592
▁Cambodian	-11.1593
▁Josh	-11.1596
▁dual	-11.1601
▁Gan	-11.1602
▁Cooper	-11.1607
▁shipment	-11.1613
▁dams	-11.1614
▁listener	-11.1623
▁remind	-11.1628
▁Maya	-11.1629
▁True	-11.1637
og	-11.1638
▁Mauri	-11.1646
▁demon	-11.1657
▁sin	-11.1658
nnis	-11.1659
▁Born	-11.1667
▁Ten	-11.1671
▁ignor	-11.1672
cher	-11.1674
▁univers	-11.1676
▁cu	-11.1682
drum	-11.1688
rary	-11.1693
▁Wave	-11.17
▁230	-11.1711
▁Sara	-11.1722
bai	-11.1734
▁liner	-11.1735
ayne	-11.1737
▁Th	-11.1741
▁Sand	-11.1746
▁truck	-11.1747
▁noise	-11.1751
ntimon	-11.1752
▁mytholog	-11.1756
▁Seven	-11.176
▁Eve	-11.1761
AR	-11.1775
▁Hor	-11.1775
▁dealing	-11.1779
▁inaugura	-11.178
▁cancel	-11.1783
▁kne	-11.1784
▁neighbour	-11.1785
▁explicit	-11.1785
▁administer	-11.1785
▁homosexual	-11.1785
▁immigrant	-11.1785
▁warrior	-11.1785
▁inflict	-11.1785
▁Ultimate	-11.1786
▁irregular	-11.1786
▁mutual	-11.1786
▁vault	-11.1786
▁feud	-11.1786
▁Importan	-11.1786
▁pyramid	-11.1786
▁hamper	-11.1786
▁Pirate	-11.1786
▁Brenda	-11.1786
▁Technolog	-11.1786
▁descendant	-11.1786
▁garner	-11.1787
▁bombardment	-11.1787
▁scrap	-11.1787
▁vocalist	-11.1787
▁Manuel	-11.1788
▁commentator	-11.1789
▁Oak	-11.1792
▁charm	-11.1792
▁Bernard	-11.1793
▁cutt	-11.1795
▁bore	-11.1796
▁illustration	-11.1797
▁Data	-11.1798
▁altarpiece	-11.1798
▁bull	-11.1799
grad	-11.1799
▁timber	-11.1799
▁secretary	-11.1804
anime	-11.1805
▁probe	-11.1807
▁Grace	-11.1809
▁donation	-11.1812
▁rivers	-11.1812
▁Jas	-11.1812
▁pursui	-11.1813
▁dominate	-11.1814
▁Ex	-11.1816
east	-11.1818
▁legac	-11.1818
▁Mix	-11.1818
▁Sag	-11.182
▁tin	-11.1823
▁Tak	-11.1824
avage	-11.1826
bel	-11.1827
▁demonstrate	-11.1828
▁walking	-11.1829
▁excellen	-11.184
▁eliminate	-11.1841
▁Mum	-11.1842
▁mineral	-11.1843
▁Mantell	-11.1844
▁icon	-11.1847
▁Join	-11.1861
layer	-11.1863
agre	-11.1871
▁qualifi	-11.1872
▁SS	-11.1873
ker	-11.1875
wan	-11.1882
▁conventional	-11.1884
▁Male	-11.1885
eith	-11.1889
▁Europa	-11.1892
nyi	-11.1896
▁Mart	-11.1896
▁Mah	-11.19
▁Gang	-11.1901
▁fighter	-11.1904
▁divide	-11.1907
vin	-11.1907
79	-11.1912
▁examine	-11.1913
▁Chu	-11.1916
▁finger	-11.1918
▁Las	-11.1922
▁Name	-11.1928
▁Mid	-11.194
CU	-11.1951
▁dies	-11.1952
saw	-11.1958
▁coat	-11.1962
oming	-11.1964
▁operational	-11.1974
▁shap	-11.1975
▁92	-11.198
bow	-11.1985
▁Den	-11.1989
stella	-11.1991
▁revolutionar	-11.1994
gud	-11.2003
ikk	-11.2022
▁beside	-11.2023
▁Dar	-11.2023
ola	-11.2024
▁instruct	-11.2028
▁freed	-11.2033
▁mathematic	-11.204
fast	-11.2041
▁Sultan	-11.2042
bracelet	-11.2042
▁Baptist	-11.2042
▁Campaign	-11.2042
▁Subsequent	-11.2042
▁discipline	-11.2042
▁eagle	-11.2042
▁explosion	-11.2042
▁frequenc	-11.2042
▁neutron	-11.2042
▁zombie	-11.2042
▁liquid	-11.2042
▁suprem	-11.2042
▁participant	-11.2042
▁Performance	-11.2042
▁variant	-11.2042
▁Picture	-11.2042
▁kickoff	-11.2042
▁IA	-11.2043
▁lime	-11.2043
▁Wiki	-11.2044
▁Dw	-11.2045
▁monster	-11.2045
▁snake	-11.2046
▁Coach	-11.2047
▁speculation	-11.205
▁fragil	-11.205
▁ju	-11.205
▁eastward	-11.2051
▁170	-11.2054
alway	-11.2055
olith	-11.2055
▁176	-11.2057
▁sensitiv	-11.2057
▁reward	-11.2057
▁kid	-11.2058
▁aerodrome	-11.2059
▁electron	-11.2059
▁Wrestling	-11.2062
▁Trust	-11.2065
▁240	-11.2065
▁gr	-11.2069
▁Atl	-11.2079
▁teach	-11.2083
▁apartment	-11.209
▁ramp	-11.2095
dir	-11.2097
solution	-11.2102
▁Skin	-11.2103
▁Gre	-11.2103
half	-11.2107
▁faction	-11.2109
nen	-11.2113
▁experimental	-11.2122
ockey	-11.2125
▁dri	-11.2125
PS	-11.2125
▁Champion	-11.2141
▁le	-11.2145
ari	-11.2149
▁ab	-11.2151
▁Gill	-11.2157
ndhe	-11.2158
▁spectr	-11.2163
▁McE	-11.2168
▁passion	-11.217
ifi	-11.2171
▁spott	-11.2177
▁sw	-11.2179
▁Profess	-11.218
amount	-11.218
▁Shel	-11.2194
▁Nine	-11.2194
▁inspire	-11.2198
▁Hebr	-11.22
▁updat	-11.2201
▁duet	-11.2205
▁Care	-11.2217
ask	-11.2221
▁Mk	-11.2224
▁Ye	-11.2226
▁del	-11.2228
▁delegate	-11.2239
▁Give	-11.224
lake	-11.2244
▁dispatch	-11.227
egian	-11.2279
▁steep	-11.2285
▁expense	-11.2298
▁molecul	-11.2298
▁Win	-11.2301
▁congregation	-11.2301
▁Shadow	-11.2305
▁brilliant	-11.2305
▁denomination	-11.2305
▁reagent	-11.2305
▁redesign	-11.2305
▁sibling	-11.2305
▁ancestor	-11.2305
▁juvenile	-11.2305
▁detach	-11.2305
▁Return	-11.2305
▁turbine	-11.2305
▁pump	-11.2305
▁reprint	-11.2305
▁vital	-11.2306
▁perception	-11.2307
▁grain	-11.2307
▁exile	-11.2307
▁thrill	-11.2307
▁Thak	-11.2308
▁definite	-11.2308
▁Singh	-11.2309
▁moist	-11.231
▁brutal	-11.231
▁stain	-11.2311
▁Ruler	-11.2312
▁mask	-11.2312
▁trough	-11.2312
▁1901	-11.2314
▁Judi	-11.2319
▁decoration	-11.232
▁lyrical	-11.2322
elf	-11.2323
▁Medal	-11.2324
▁Books	-11.2328
▁Father	-11.233
▁Bright	-11.2332
kins	-11.2334
▁champions	-11.2339
▁ceratopsian	-11.234
▁sailor	-11.2342
▁leak	-11.2343
▁decreas	-11.2346
▁Moon	-11.2347
▁repeat	-11.2347
▁Steel	-11.235
thodo	-11.2354
▁dust	-11.2357
▁quantit	-11.2359
▁pleas	-11.2362
▁Lab	-11.2363
▁Bat	-11.2366
▁wheel	-11.2368
▁angr	-11.237
▁fat	-11.2373
itive	-11.2376
▁Denn	-11.2376
▁chase	-11.2384
▁au	-11.2393
mpact	-11.2394
▁Litera	-11.2398
▁recognise	-11.2401
▁Br	-11.2408
▁Davie	-11.2409
▁x	-11.2413
▁literal	-11.2418
▁Lion	-11.243
▁carrier	-11.2439
▁illustrate	-11.245
▁Shim	-11.245
▁provinc	-11.2452
▁Nova	-11.2452
active	-11.2456
▁Past	-11.2466
rania	-11.2467
▁Os	-11.2481
▁opin	-11.2486
▁unknow	-11.2493
▁Full	-11.2493
AT	-11.2498
▁gathering	-11.25
rane	-11.2512
▁convinc	-11.2525
▁ratio	-11.2527
▁junction	-11.2528
▁Cuba	-11.2532
▁centimet	-11.2542
▁admit	-11.2547
ury	-11.2549
▁reporter	-11.2558
course	-11.2572
arpenter	-11.2573
▁coincide	-11.2575
▁bulk	-11.2575
▁Holocaust	-11.2575
▁enormous	-11.2575
▁celebrit	-11.2575
▁motif	-11.2575
▁zinc	-11.2575
▁neutrino	-11.2575
▁conscious	-11.2575
▁Guinea	-11.2575
▁shallow	-11.2576
▁Legend	-11.2576
▁sugar	-11.2576
▁chemist	-11.2576
▁Voice	-11.2576
▁decommission	-11.2576
▁Metro	-11.2577
▁transcription	-11.2577
can	-11.2578
▁mechanism	-11.2579
▁gill	-11.258
▁Montre	-11.2582
▁Stoke	-11.2582
▁emerge	-11.2583
▁hostil	-11.2583
▁rebellion	-11.2583
▁Pagan	-11.2586
▁disturb	-11.2588
▁acoustic	-11.2589
▁spawn	-11.259
▁flash	-11.259
▁Hunter	-11.2591
▁organize	-11.2593
▁Oxf	-11.2595
ensus	-11.2599
▁convey	-11.2604
▁practical	-11.2604
▁Wind	-11.2606
▁Hills	-11.2607
▁hills	-11.2609
▁supervis	-11.2612
▁parasite	-11.2616
▁Alger	-11.2617
▁Lucas	-11.262
aga	-11.2626
▁Platt	-11.263
fort	-11.2632
ike	-11.2633
duct	-11.2634
▁Nati	-11.2636
▁Twin	-11.2637
▁reviv	-11.2642
▁Ship	-11.2643
▁hygro	-11.2648
▁survival	-11.2648
▁Aust	-11.2656
▁Eg	-11.2659
book	-11.2659
▁rape	-11.266
▁vs	-11.2664
▁Read	-11.2667
▁anticipat	-11.2668
▁Tod	-11.2672
season	-11.2674
logy	-11.2674
▁imp	-11.2675
▁fil	-11.2679
jo	-11.2682
▁Brig	-11.2687
▁lesson	-11.2699
▁relocat	-11.2708
▁Tat	-11.2709
▁fuse	-11.271
52	-11.2712
▁performer	-11.2714
▁PC	-11.2716
▁Alde	-11.2721
▁acknowledg	-11.2724
▁Cit	-11.2724
▁pen	-11.273
▁revers	-11.2732
▁sacrifice	-11.2739
▁credits	-11.2739
scape	-11.2751
▁admir	-11.2758
▁serial	-11.2758
▁Hair	-11.2759
▁elevat	-11.2767
ral	-11.277
ensa	-11.2772
▁Cap	-11.2778
▁Rein	-11.2783
▁Jacob	-11.2785
▁Berg	-11.2787
▁Av	-11.279
▁liter	-11.2791
he	-11.2797
▁rubb	-11.2803
scope	-11.2808
▁Berk	-11.2811
▁princes	-11.2817
▁mistake	-11.2817
poli	-11.282
▁Social	-11.2824
▁Joan	-11.2824
▁upgrad	-11.2825
▁Arn	-11.2831
▁smoke	-11.2843
▁batt	-11.285
▁Say	-11.2851
▁disagree	-11.2851
▁Glanville	-11.2853
▁Official	-11.2853
▁complement	-11.2853
▁autobiograph	-11.2853
▁prototype	-11.2853
▁millimeter	-11.2853
▁exterior	-11.2853
▁pipe	-11.2853
▁Guild	-11.2853
▁veteran	-11.2854
▁Rapid	-11.2854
▁crush	-11.2854
▁Banksia	-11.2854
▁Cloud	-11.2854
▁gender	-11.2854
▁Composition	-11.2854
▁snow	-11.2854
▁Graham	-11.2854
▁lumber	-11.2855
▁font	-11.2855
▁Hockey	-11.2856
▁radical	-11.2856
▁deput	-11.2857
▁dodo	-11.2857
▁activist	-11.2858
▁Brack	-11.2858
▁Capit	-11.286
▁Plain	-11.286
▁odd	-11.286
▁mood	-11.2861
▁Liberal	-11.2861
▁donat	-11.2862
▁protester	-11.2862
▁Dom	-11.2862
▁alphabet	-11.2863
▁mock	-11.2863
▁cance	-11.2866
▁compromise	-11.2866
▁AA	-11.2866
▁Baron	-11.2867
▁scrapp	-11.2868
▁Train	-11.2872
▁Attack	-11.2873
locks	-11.2878
▁doll	-11.2878
▁Box	-11.2879
▁payment	-11.2884
▁witch	-11.2885
▁1800	-11.2889
hio	-11.2892
▁insert	-11.2892
▁Poet	-11.2894
▁trio	-11.2894
▁attraction	-11.2895
zu	-11.2898
▁83	-11.29
▁intelligent	-11.2904
63	-11.291
laine	-11.2915
▁customer	-11.2915
▁concentrate	-11.2918
roadway	-11.2921
▁colonis	-11.2927
▁None	-11.2928
▁genes	-11.2929
▁hide	-11.2935
▁collaps	-11.2937
▁electrical	-11.2937
▁lumino	-11.2937
place	-11.2937
found	-11.294
▁derive	-11.2941
PA	-11.2942
▁collaborat	-11.2947
▁105	-11.2958
▁directors	-11.2963
▁users	-11.2966
ore	-11.2972
▁danc	-11.2973
▁Know	-11.2974
▁hunter	-11.2975
▁Call	-11.2982
▁min	-11.2988
ock	-11.2997
onstruction	-11.2997
▁Got	-11.2999
op	-11.3002
▁ward	-11.3004
▁Dog	-11.3005
▁Ph	-11.3007
▁Christoph	-11.3007
▁Cott	-11.3009
roller	-11.3009
▁List	-11.3017
▁overwhelm	-11.3018
▁Bad	-11.3023
oster	-11.3035
▁Curt	-11.3036
▁Blu	-11.3036
▁Boss	-11.3037
▁advis	-11.304
▁fled	-11.3041
▁resolve	-11.305
ange	-11.305
▁infect	-11.3059
▁li	-11.3059
ries	-11.3062
▁cav	-11.3063
▁Fel	-11.3065
▁vertic	-11.3075
▁DS	-11.3077
▁Stea	-11.3083
▁finance	-11.3085
06	-11.3089
▁outfit	-11.3092
▁coaster	-11.3093
▁oxide	-11.3095
▁ze	-11.3101
▁banks	-11.3102
▁Austria	-11.3105
rald	-11.3106
▁Pf	-11.3115
obra	-11.3115
cko	-11.3119
▁rap	-11.312
och	-11.3125
▁Marsh	-11.3128
▁Az	-11.313
▁Sh	-11.313
▁consult	-11.3135
▁excess	-11.3136
ric	-11.3137
▁Qedar	-11.3138
▁Langu	-11.3138
▁MVP	-11.3139
▁sanctuar	-11.3139
▁shield	-11.3139
▁Adult	-11.3139
▁plague	-11.3139
▁Hyde	-11.3139
▁speculat	-11.3139
▁mysterious	-11.3139
▁quiet	-11.3139
▁staple	-11.3139
▁Small	-11.3139
▁Bhairava	-11.3139
▁ensemble	-11.3139
▁spark	-11.314
▁fortification	-11.314
▁Ronald	-11.314
▁fixture	-11.314
▁conquer	-11.314
▁toxic	-11.314
▁villain	-11.314
▁bonus	-11.314
venge	-11.3141
▁pink	-11.3141
▁Caval	-11.3143
▁saving	-11.3143
▁nice	-11.3144
erto	-11.3144
▁Works	-11.3145
▁Region	-11.3146
▁1904	-11.3146
▁invitation	-11.3147
stol	-11.3148
▁summ	-11.3148
▁Still	-11.3149
▁incomplete	-11.315
▁flaw	-11.3154
htw	-11.3155
▁declaration	-11.3155
fen	-11.316
▁Fly	-11.3161
▁airfield	-11.3164
▁warship	-11.3165
▁striker	-11.317
hire	-11.3172
▁NCA	-11.3175
▁sat	-11.3176
▁Darwi	-11.3179
▁fortune	-11.3181
▁realistic	-11.3191
friend	-11.3191
▁Guin	-11.3192
att	-11.3195
garet	-11.3198
▁hitt	-11.3209
▁Jag	-11.3212
▁remarkabl	-11.3214
▁portrayal	-11.3217
▁Zo	-11.3222
▁Vi	-11.3223
cester	-11.3223
▁thank	-11.3227
▁solv	-11.323
▁mines	-11.3232
aulk	-11.3236
▁Tong	-11.3236
▁cable	-11.3249
NO	-11.325
xis	-11.326
▁Terroris	-11.3261
▁Chan	-11.3273
▁generate	-11.3279
▁Victor	-11.3282
▁Reform	-11.3284
▁Stra	-11.3292
gna	-11.3297
▁Reviewer	-11.3298
nance	-11.3298
▁Fried	-11.33
▁Rama	-11.3303
▁Fur	-11.3305
▁horr	-11.3306
eus	-11.331
eki	-11.331
▁Indie	-11.3313
▁Gro	-11.3319
▁rebuild	-11.3326
▁heir	-11.3333
ctress	-11.3333
▁handed	-11.3339
▁pp	-11.3343
▁solve	-11.3355
rida	-11.3357
▁exclud	-11.3361
▁concentrat	-11.3363
▁ro	-11.3364
hre	-11.3367
▁approache	-11.3367
▁Angelo	-11.3391
▁interven	-11.3395
some	-11.3396
▁Larr	-11.3396
▁circula	-11.3403
orning	-11.3409
▁ensur	-11.3412
▁113	-11.3412
▁flee	-11.3417
▁Terr	-11.3418
▁cruise	-11.3422
▁formula	-11.3422
▁rect	-11.3427
▁Superma	-11.3429
▁attorney	-11.3429
ailroad	-11.3432
▁Nevada	-11.3433
▁disorder	-11.3433
▁enlarge	-11.3433
▁guarantee	-11.3433
▁prevail	-11.3433
▁Remix	-11.3433
▁rendition	-11.3433
▁stanza	-11.3433
▁Ukrain	-11.3433
▁scenario	-11.3433
▁brood	-11.3433
▁Sword	-11.3433
▁imperial	-11.3433
▁precipitat	-11.3433
▁reperto	-11.3433
▁pictures	-11.3433
▁Happ	-11.3433
▁landmark	-11.3433
▁judo	-11.3434
▁naked	-11.3434
▁Doctor	-11.3434
▁Leban	-11.3434
▁drill	-11.3435
▁guitarist	-11.3437
▁genuine	-11.3437
▁careful	-11.3437
▁Sub	-11.3439
▁rent	-11.3441
▁trait	-11.3441
▁summon	-11.3444
▁friendship	-11.3444
▁Andrea	-11.3445
▁Qi	-11.3449
▁precise	-11.3449
▁enhance	-11.3452
▁Rover	-11.3452
▁Right	-11.3453
unch	-11.3453
erland	-11.3458
illenni	-11.3464
▁ascend	-11.3464
▁tear	-11.3464
▁induct	-11.3465
▁162	-11.3466
▁familiar	-11.3473
▁upgrade	-11.3474
75	-11.3478
▁Mal	-11.3486
16	-11.3488
▁witnesse	-11.3488
ona	-11.3489
▁Want	-11.3501
▁125	-11.3502
EA	-11.3503
▁Kath	-11.3503
▁04	-11.3507
▁Politic	-11.3509
▁stabili	-11.3513
▁adequate	-11.3516
▁Bah	-11.3523
sphere	-11.3523
▁Tor	-11.3527
▁tombs	-11.3528
▁Select	-11.3531
▁explorer	-11.3533
ensi	-11.3535
oxide	-11.3539
▁dropping	-11.3539
box	-11.354
▁scar	-11.3542
▁Dian	-11.3546
▁merge	-11.3547
▁habit	-11.3548
▁atom	-11.3552
erb	-11.3555
rash	-11.356
▁trap	-11.3562
▁pest	-11.357
▁acknowledge	-11.3572
▁Ech	-11.3573
▁Arabia	-11.3575
▁commemorat	-11.3576
iety	-11.358
▁Cat	-11.3586
37	-11.359
▁Nus	-11.3591
▁Rhode	-11.3597
▁photo	-11.3608
▁str	-11.3611
mes	-11.3613
▁relieve	-11.3613
▁accidental	-11.3621
▁Peters	-11.3621
udo	-11.3625
pur	-11.363
tress	-11.3636
▁Jenn	-11.3639
▁Imb	-11.364
▁Pan	-11.3644
▁ordinar	-11.3645
rik	-11.3656
▁Inc	-11.3665
▁characteris	-11.3678
ox	-11.368
▁Hur	-11.3681
Style	-11.3686
▁Site	-11.3688
▁Crab	-11.3691
▁117	-11.3699
▁Shin	-11.3709
▁PA	-11.3709
EF	-11.3709
▁button	-11.3712
dae	-11.3713
▁Europ	-11.3718
▁123	-11.372
ergy	-11.3721
▁fi	-11.3727
▁Note	-11.3727
atic	-11.3733
▁Awa	-11.3733
arnest	-11.3734
▁Vic	-11.3734
▁Gabriel	-11.3736
▁Uyghur	-11.3736
▁neglect	-11.3736
▁nephew	-11.3736
▁Napoleon	-11.3736
▁vulnerab	-11.3736
▁conceive	-11.3736
▁petition	-11.3736
▁Constitution	-11.3736
▁ancestr	-11.3736
▁Fami	-11.3736
▁Philippine	-11.3737
▁puma	-11.3737
▁Metropoli	-11.3737
▁Malaysia	-11.3737
▁retail	-11.3738
▁domain	-11.3738
▁stingray	-11.3738
▁borrow	-11.3738
▁Pete	-11.3738
▁romance	-11.3738
▁enroll	-11.3738
▁rejoin	-11.3738
▁census	-11.3739
▁counterpart	-11.3739
▁hint	-11.3739
▁favourite	-11.374
▁Assyrian	-11.374
ili	-11.374
▁FIT	-11.374
▁cruci	-11.3741
▁mat	-11.3743
eginning	-11.3743
▁gar	-11.3744
▁deployment	-11.3745
▁sick	-11.3746
▁Colombia	-11.3748
▁strikeout	-11.3749
▁salar	-11.375
▁Feli	-11.3752
▁EP	-11.3753
▁populat	-11.3756
nall	-11.3756
▁Boat	-11.3757
ontemporary	-11.3758
▁Officer	-11.3763
▁Chamber	-11.3765
NES	-11.3766
▁Indu	-11.3768
▁parade	-11.377
▁Vista	-11.3773
▁wake	-11.3775
▁pet	-11.3776
▁Month	-11.3777
consi	-11.3779
▁soph	-11.378
▁Julian	-11.3781
cia	-11.3781
▁subsidi	-11.3783
bbar	-11.3789
▁afford	-11.3793
▁Elli	-11.3794
▁Mole	-11.3794
▁Senat	-11.38
▁migration	-11.3801
lves	-11.3803
▁repli	-11.3807
▁Wh	-11.3809
▁lamp	-11.3812
jan	-11.3817
▁comprehensi	-11.3818
▁wrestl	-11.3818
▁sic	-11.3826
ouli	-11.3837
▁aisle	-11.3838
ev	-11.3841
▁Goth	-11.3845
▁121	-11.3848
oreign	-11.3853
▁Rea	-11.3856
aw	-11.386
rize	-11.3861
35	-11.3863
▁Mil	-11.3867
▁Musical	-11.3873
▁Meri	-11.3879
▁Susan	-11.3879
oundation	-11.3892
▁Was	-11.3892
erald	-11.3908
▁dispers	-11.3913
ois	-11.3924
▁Hear	-11.3925
▁Yang	-11.3927
otte	-11.3928
▁sheet	-11.3934
▁sword	-11.3938
▁carriage	-11.3942
▁gale	-11.3943
▁Rafa	-11.3947
tus	-11.3949
▁Ow	-11.3956
▁Rocke	-11.3962
room	-11.3964
▁114	-11.3972
▁chas	-11.3975
rah	-11.3977
▁astronom	-11.3998
▁Toni	-11.4
cash	-11.4001
▁01	-11.4008
▁opt	-11.401
▁welcome	-11.402
▁cal	-11.4027
▁matur	-11.4029
▁Ches	-11.4029
▁Highland	-11.403
▁Moro	-11.4033
ood	-11.4033
ba	-11.4035
▁Devi	-11.4035
▁Crow	-11.4035
axonom	-11.4046
etrieve	-11.4048
oval	-11.4048
▁guerrilla	-11.4048
▁Ganganelli	-11.4048
▁ceiling	-11.4048
▁Concert	-11.4048
▁disguise	-11.4049
▁palace	-11.4049
▁blend	-11.4049
▁particle	-11.4049
▁riot	-11.4049
otal	-11.4049
▁sweet	-11.4049
▁Support	-11.4049
▁unrest	-11.4049
▁labour	-11.4049
▁drift	-11.4049
▁metallic	-11.4049
▁prestig	-11.405
▁casemate	-11.405
▁mirror	-11.4051
▁Kick	-11.4051
▁alarm	-11.4051
▁outstanding	-11.4052
▁Bloom	-11.4052
▁Labor	-11.4053
▁Merri	-11.4053
▁innocen	-11.4053
tact	-11.4054
▁terrorist	-11.4054
▁Level	-11.4054
▁Outside	-11.4054
▁transmitt	-11.4054
▁Cadet	-11.4055
▁737	-11.4055
▁milk	-11.4058
▁Sidon	-11.4058
▁clergy	-11.4059
ging	-11.4059
▁boiler	-11.4062
▁conviction	-11.4063
▁interrupt	-11.4065
▁tempo	-11.4066
▁muscle	-11.4066
▁outcome	-11.4067
▁Hay	-11.4068
▁Belt	-11.4069
▁chest	-11.407
▁collector	-11.4071
▁operator	-11.4071
▁backward	-11.4073
▁Trade	-11.4074
▁flame	-11.4075
▁Sri	-11.4076
▁bombs	-11.4084
▁Dick	-11.4089
▁relevan	-11.4089
▁Feeling	-11.4093
▁wire	-11.4096
▁lion	-11.4098
▁Kid	-11.4098
▁181	-11.41
anya	-11.4102
▁shortage	-11.4104
▁Large	-11.4109
▁Hawk	-11.411
▁Ferd	-11.4119
ack	-11.412
▁commun	-11.4135
ink	-11.4136
▁limb	-11.4136
▁Libert	-11.4142
▁fatalit	-11.4144
jib	-11.4153
▁hate	-11.4154
▁corpse	-11.4154
▁Brun	-11.4154
▁ecolog	-11.4159
▁Austr	-11.416
▁integrat	-11.4162
▁compose	-11.4168
▁functional	-11.4168
▁Gene	-11.417
▁Dead	-11.417
vana	-11.4171
▁harm	-11.4174
▁Bra	-11.4179
▁Allie	-11.4181
▁emphasize	-11.4182
opy	-11.4182
▁overwhelming	-11.4183
ibi	-11.4184
weight	-11.4185
▁Rod	-11.4186
fire	-11.4188
echo	-11.4189
▁Christians	-11.4199
erz	-11.42
ci	-11.42
▁Timb	-11.422
▁Shu	-11.422
▁poetic	-11.4228
▁consum	-11.4229
▁165	-11.4234
▁commissioner	-11.4237
▁antiquit	-11.4249
▁flock	-11.4251
▁bias	-11.4253
▁Ji	-11.4254
▁Popula	-11.4256
▁Northwest	-11.4259
▁summar	-11.4267
▁legislat	-11.4269
hals	-11.4294
▁et	-11.43
▁Rad	-11.4307
▁aggregate	-11.4307
▁averag	-11.4315
aren	-11.4319
▁sl	-11.432
ican	-11.4323
▁Kenn	-11.4325
icken	-11.4326
▁Ruth	-11.4328
enou	-11.433
▁trader	-11.4341
▁Biograph	-11.435
ick	-11.4356
tors	-11.4357
▁Dec	-11.4364
hesh	-11.4367
80	-11.4367
▁typ	-11.4368
▁clima	-11.4369
▁commerc	-11.437
▁clip	-11.4371
▁disciple	-11.4371
▁necessit	-11.4371
▁virtue	-11.4371
▁envelope	-11.4371
▁pulp	-11.4371
veloc	-11.4371
▁collision	-11.4371
▁sediment	-11.4371
▁Jenkins	-11.4371
▁abnormal	-11.4371
▁sweep	-11.4371
▁Regard	-11.4371
▁ornament	-11.4371
▁Lorenz	-11.4371
▁desperate	-11.4371
▁Saxon	-11.4371
▁remake	-11.4371
▁Tribble	-11.4371
▁rumor	-11.4371
▁Vishnu	-11.4371
▁telephone	-11.4371
▁coffee	-11.4371
▁demographic	-11.4371
▁Symphon	-11.4372
▁civilization	-11.4372
▁Klein	-11.4372
▁Present	-11.4373
▁weakness	-11.4376
▁Buddhist	-11.4377
▁relay	-11.4378
▁Sister	-11.4378
▁Grant	-11.4379
▁Stew	-11.438
▁Off	-11.4381
▁unexpected	-11.4382
▁NO	-11.4383
▁incursion	-11.4383
▁Brother	-11.4384
▁persuade	-11.4384
▁wreck	-11.4388
lando	-11.4389
▁arise	-11.439
▁brain	-11.4391
▁Buen	-11.4393
▁stole	-11.4393
▁grace	-11.4394
▁hung	-11.4395
▁Chop	-11.4397
▁evacuate	-11.4402
▁Pl	-11.4406
bone	-11.4408
llosaur	-11.4408
▁Comb	-11.4414
▁gene	-11.4415
▁Que	-11.4419
▁DE	-11.442
▁indirect	-11.4429
▁Trial	-11.443
▁Fr	-11.4434
▁Jeremi	-11.4437
bar	-11.444
▁Ground	-11.4445
▁ambition	-11.4447
▁zoo	-11.4448
▁racis	-11.4455
▁modes	-11.4459
▁assassin	-11.4464
ipel	-11.4464
▁Harris	-11.4467
▁Chai	-11.447
pector	-11.4477
▁descen	-11.4485
▁Galli	-11.4488
Nichol	-11.4489
▁ceme	-11.4495
▁mini	-11.4496
brush	-11.4498
pson	-11.4499
▁tier	-11.4502
▁phenomen	-11.4503
pack	-11.4504
astra	-11.4507
▁cameo	-11.4513
▁surpass	-11.4525
ue	-11.4527
space	-11.4528
nton	-11.4532
né	-11.4534
▁seize	-11.4534
like	-11.4536
ME	-11.4542
▁Airb	-11.4543
▁Anna	-11.4559
▁Gross	-11.4559
▁neo	-11.4561
▁captiv	-11.4563
▁Beat	-11.4577
til	-11.4593
▁exceed	-11.4597
▁Gilbe	-11.4614
▁Choi	-11.4617
▁identi	-11.462
▁binar	-11.4625
hang	-11.4629
▁CG	-11.4647
▁Publish	-11.465
vel	-11.4651
▁Gam	-11.4655
▁Program	-11.4661
▁whi	-11.4667
▁volunteers	-11.4669
hua	-11.4676
▁slip	-11.4682
▁prefer	-11.4682
▁remo	-11.4686
tage	-11.4693
▁Northumb	-11.4696
▁fatal	-11.4697
▁lit	-11.47
xecutive	-11.4701
ghan	-11.4701
▁Lyn	-11.4702
igon	-11.4704
▁affiliate	-11.4704
▁antagonist	-11.4704
▁counterattack	-11.4704
▁ghost	-11.4704
▁memoir	-11.4704
▁solitaire	-11.4704
▁Amylostere	-11.4704
▁Representative	-11.4704
▁censor	-11.4704
▁proclaim	-11.4704
▁PopMa	-11.4705
▁intensify	-11.4705
▁abolish	-11.4705
▁Student	-11.4705
▁conifer	-11.4705
▁legislature	-11.4705
▁barrel	-11.4705
▁presum	-11.4706
▁lifestyle	-11.4706
▁amaz	-11.4706
shmi	-11.4707
▁blockade	-11.4708
▁logistic	-11.4709
▁Eps	-11.4709
▁premise	-11.4709
▁navigation	-11.471
▁gunner	-11.4711
▁manual	-11.4712
▁fulfill	-11.4713
▁Karl	-11.4713
▁accusation	-11.4713
▁Damage	-11.4713
▁terrace	-11.4717
▁tent	-11.4717
▁Stand	-11.4718
▁recommendation	-11.4719
▁activat	-11.472
▁specialist	-11.4722
▁hypothesi	-11.4723
▁Mon	-11.4725
▁Va	-11.4733
▁Shaw	-11.4736
pa	-11.4738
▁commentar	-11.474
▁Via	-11.4741
leans	-11.4743
▁limitation	-11.4745
▁McMa	-11.4746
erine	-11.4747
▁remin	-11.4751
▁Arika	-11.4752
▁pecki	-11.4753
▁efficient	-11.4754
▁Wins	-11.4757
▁consolidat	-11.4758
▁Boom	-11.476
asco	-11.4766
▁Lui	-11.4769
lro	-11.4771
▁Beau	-11.4775
than	-11.4778
▁reinforc	-11.478
ecur	-11.4781
▁bold	-11.4789
▁mac	-11.4793
▁troop	-11.4793
▁Delan	-11.4794
▁advocat	-11.4794
▁trench	-11.4794
▁mono	-11.4794
▁corresponden	-11.4795
iamond	-11.4798
nmark	-11.4798
▁Exe	-11.4801
▁beak	-11.4802
appen	-11.4808
▁Emil	-11.4811
▁Barne	-11.4824
▁Set	-11.4828
▁nau	-11.4832
▁resist	-11.4834
▁invite	-11.4838
▁Forb	-11.4839
▁waste	-11.4843
reth	-11.4848
elite	-11.486
▁interne	-11.4862
tro	-11.4871
▁Gri	-11.4872
ath	-11.4876
bris	-11.4877
SU	-11.4879
orrow	-11.4888
▁manufacture	-11.4897
AV	-11.4898
lar	-11.49
▁163	-11.4901
▁par	-11.4901
▁bath	-11.4913
▁fitting	-11.4914
▁chancel	-11.4914
lix	-11.4916
ctor	-11.4917
▁arena	-11.4929
▁br	-11.4931
▁toleran	-11.4936
▁wet	-11.494
ille	-11.4941
scrib	-11.4945
▁Ola	-11.4951
▁Drama	-11.4953
hren	-11.4954
▁Beth	-11.4957
▁circulati	-11.4965
ara	-11.4965
▁undertake	-11.4965
▁Let	-11.4973
▁specializ	-11.4981
▁musc	-11.4985
▁Brav	-11.4992
▁chronic	-11.5015
▁tonne	-11.5026
▁electro	-11.5026
▁confiden	-11.5027
▁quot	-11.5027
win	-11.5028
▁sum	-11.5036
▁Character	-11.5038
▁rad	-11.5041
▁ecc	-11.5041
lephant	-11.5044
lliance	-11.5045
lectronic	-11.5046
▁Commo	-11.5046
temporary	-11.5048
proxim	-11.5049
▁Consequen	-11.5049
▁alcohol	-11.5049
▁extraordinar	-11.5049
▁lawsuit	-11.5049
▁Ferrari	-11.5049
▁harsh	-11.5049
▁parrot	-11.5049
▁Treasur	-11.5049
▁incredibl	-11.5049
▁marble	-11.5049
▁decisive	-11.5049
▁Moritz	-11.5049
sboro	-11.5049
▁corridor	-11.5049
▁gorilla	-11.505
▁enact	-11.505
▁Tan	-11.505
▁Flag	-11.505
▁Tape	-11.505
▁coalition	-11.505
▁routine	-11.505
▁bronze	-11.505
▁conquest	-11.505
▁Draft	-11.5051
▁Theater	-11.5052
▁Destroyer	-11.5052
▁signature	-11.5052
▁Electric	-11.5052
▁Loyal	-11.5053
▁crack	-11.5054
▁Slea	-11.5055
▁confrontation	-11.5055
▁deteriorat	-11.5055
roll	-11.5057
▁crusader	-11.5057
▁fr	-11.5058
▁divert	-11.5058
▁1893	-11.506
▁alert	-11.5061
▁Tuck	-11.5062
▁outlet	-11.5062
▁expectation	-11.5064
▁bush	-11.5065
akim	-11.5065
oulder	-11.5067
▁Fear	-11.5068
▁Chance	-11.5069
▁automatic	-11.5069
▁Broad	-11.5069
▁bread	-11.507
▁recipe	-11.507
▁revision	-11.5071
▁Clay	-11.5072
▁calculat	-11.5073
OS	-11.5074
▁stake	-11.5074
▁155	-11.5075
▁Julie	-11.5081
▁eligib	-11.5081
▁synthesi	-11.5082
▁Barb	-11.5082
▁Lithuanian	-11.5084
▁plantation	-11.5084
▁Flow	-11.5087
▁Hou	-11.5092
▁gang	-11.5094
▁mistaken	-11.5095
umpt	-11.51
▁Card	-11.5101
resco	-11.5102
▁imaginati	-11.5105
▁dressing	-11.5113
▁boss	-11.5117
▁Ford	-11.5118
▁symbolic	-11.5119
▁Aki	-11.5119
▁Sher	-11.5121
▁affection	-11.5124
▁instrumental	-11.5127
full	-11.5132
tel	-11.5135
lore	-11.5138
▁Nik	-11.5143
▁Tell	-11.5146
▁ignore	-11.5157
▁anonymous	-11.5159
nation	-11.517
▁commenc	-11.5176
erior	-11.5177
▁tactical	-11.519
ual	-11.5196
▁Dor	-11.5197
ovac	-11.5208
▁swing	-11.521
▁loyalt	-11.5211
▁partners	-11.5216
uz	-11.5218
▁Lar	-11.5222
▁Pok	-11.5231
long	-11.5235
sque	-11.5235
tzo	-11.5235
ella	-11.524
cade	-11.5245
OM	-11.5252
join	-11.5254
▁Levin	-11.5256
▁Origin	-11.5259
rchbishop	-11.5264
▁assur	-11.5268
rix	-11.5269
▁informal	-11.5278
▁shoe	-11.5281
▁Crim	-11.5287
rez	-11.5304
▁Ment	-11.5306
▁VI	-11.5309
▁dubi	-11.5314
▁Sus	-11.5314
▁trans	-11.5314
▁Reserve	-11.5316
▁Lowe	-11.5317
ja	-11.5325
▁ji	-11.5329
face	-11.5337
ountain	-11.5342
ept	-11.5343
▁Fif	-11.5345
dor	-11.535
fell	-11.5354
player	-11.5355
▁radiati	-11.5357
rban	-11.5357
▁align	-11.5358
rivate	-11.5366
▁Leo	-11.5368
▁microscop	-11.5368
▁Sche	-11.5369
▁Lithuania	-11.537
▁commit	-11.5371
rya	-11.5373
▁psycholog	-11.5375
▁cooperati	-11.5376
▁dia	-11.5378
hk	-11.5378
▁conspira	-11.5382
▁literat	-11.5383
▁Pam	-11.5386
▁speculate	-11.5395
▁bite	-11.5395
▁contradict	-11.5397
▁Cruise	-11.5398
bbie	-11.5399
▁Bel	-11.5403
▁prefect	-11.5406
▁ANZAC	-11.5406
▁Expedition	-11.5406
▁repetiti	-11.5406
▁burrow	-11.5406
▁swallow	-11.5406
▁gendarme	-11.5406
▁terribl	-11.5406
▁stalk	-11.5406
▁horizontal	-11.5406
▁fierce	-11.5406
▁phylogen	-11.5406
▁sulfide	-11.5406
▁Religio	-11.5406
▁accent	-11.5406
▁fluid	-11.5407
▁presbyterian	-11.5407
▁Yoko	-11.5407
▁exceptional	-11.5407
▁Condom	-11.5407
▁telescope	-11.5407
▁pagoda	-11.5407
▁analyze	-11.5407
▁uneven	-11.5408
▁Hama	-11.5408
▁jam	-11.5408
▁estuar	-11.5408
▁Harmon	-11.5409
▁Hib	-11.5409
▁uncover	-11.5409
▁missile	-11.541
▁barrack	-11.541
▁Af	-11.541
▁Ragh	-11.5411
▁license	-11.5411
▁screenplay	-11.5411
▁retro	-11.5411
▁hatch	-11.5412
▁Motor	-11.5412
▁texture	-11.5413
▁Talk	-11.5413
▁Half	-11.5413
▁shall	-11.5414
▁insult	-11.5414
▁servant	-11.5415
iri	-11.5415
▁Diamond	-11.5415
▁drummer	-11.5416
▁Market	-11.5416
▁shout	-11.5416
▁torpedoe	-11.5417
▁tough	-11.5419
▁statute	-11.5419
▁Berge	-11.5421
▁glider	-11.5422
ark	-11.5422
▁uprising	-11.5423
▁grassland	-11.5425
rtz	-11.5425
▁goat	-11.5426
▁subordinate	-11.5426
▁besieg	-11.5427
▁Loc	-11.543
▁licens	-11.543
▁arrange	-11.5431
▁slipp	-11.5431
▁cream	-11.5433
tt	-11.5436
▁progressive	-11.5438
▁Adrian	-11.5439
▁ambush	-11.5444
▁remixes	-11.5447
▁inventor	-11.5449
▁Kar	-11.5456
▁conversi	-11.5457
▁Abd	-11.5457
▁wis	-11.5459
▁Bear	-11.5461
▁deny	-11.5463
▁Gra	-11.5465
▁Kau	-11.5467
FL	-11.5471
imer	-11.5474
32	-11.5476
▁satire	-11.5476
▁lun	-11.548
bourn	-11.548
quake	-11.5484
▁Sale	-11.5484
▁Dodge	-11.5486
▁Dunn	-11.5487
ig	-11.5494
▁moor	-11.5494
▁129	-11.5494
▁dish	-11.5497
▁Walla	-11.5501
▁curv	-11.5509
▁bypass	-11.5511
▁Ort	-11.5514
die	-11.5517
▁na	-11.5517
▁marker	-11.5518
cena	-11.5523
▁Cor	-11.5523
dv	-11.5525
▁facilitate	-11.553
alph	-11.5532
▁riff	-11.5534
rate	-11.5534
▁readi	-11.5547
▁Trip	-11.5557
▁cannon	-11.5595
▁RO	-11.5608
▁Fi	-11.5614
▁sy	-11.5618
duction	-11.5626
▁Grec	-11.5628
telligen	-11.563
▁Pipe	-11.5637
▁Analys	-11.5642
▁commence	-11.5643
▁albe	-11.566
▁Era	-11.5664
▁shrub	-11.5666
▁carving	-11.5667
▁Montag	-11.567
▁Parks	-11.5671
▁Bena	-11.5671
▁wage	-11.5673
rman	-11.5685
▁harmon	-11.5691
▁Anton	-11.5694
▁Typ	-11.5702
▁cur	-11.5704
▁rout	-11.5705
arrow	-11.5705
ilk	-11.5714
▁Apart	-11.5716
▁Mov	-11.5716
▁Magn	-11.5718
▁heroin	-11.5718
▁trunk	-11.5719
▁hid	-11.5719
▁Genera	-11.5721
▁Jai	-11.5722
▁Cob	-11.5725
aria	-11.5731
▁gran	-11.5732
▁IR	-11.5741
tribution	-11.5764
▁Breed	-11.5766
▁mu	-11.5766
▁overlap	-11.5772
▁spine	-11.5772
▁Advance	-11.5777
▁Scandinavia	-11.5777
▁corrupt	-11.5777
▁explanation	-11.5777
▁hemmema	-11.5777
▁relax	-11.5777
▁venom	-11.5777
▁Pioneer	-11.5777
▁throat	-11.5777
▁jail	-11.5777
▁recount	-11.5777
▁Chemical	-11.5777
▁Current	-11.5777
▁cartoon	-11.5777
▁drown	-11.5777
▁kitchen	-11.5777
▁militia	-11.5777
▁Fletch	-11.5777
▁compartment	-11.5777
▁Recreation	-11.5777
▁harvest	-11.5777
▁critique	-11.5777
▁conceal	-11.5777
▁Kahn	-11.5777
▁Whit	-11.5777
▁sitcom	-11.5778
▁triumph	-11.5778
▁Horizon	-11.5778
▁discard	-11.5778
▁Hospitaller	-11.5778
▁trademark	-11.5778
▁Element	-11.5778
▁viewpoint	-11.5778
▁Winter	-11.5779
▁racial	-11.5779
▁Stud	-11.5779
▁capabilit	-11.5779
sank	-11.578
▁Phillip	-11.5781
▁fumble	-11.5781
▁symmetr	-11.5781
▁Clement	-11.5784
▁Mitsu	-11.5784
zzo	-11.5785
▁silent	-11.5786
▁Chile	-11.5787
▁stern	-11.5789
▁alteration	-11.579
▁1863	-11.579
▁Meta	-11.5792
▁delight	-11.5793
ender	-11.5797
▁translate	-11.5799
▁Ferry	-11.5799
▁Des	-11.58
iscus	-11.58
▁thread	-11.5801
▁chronicle	-11.5801
▁Hond	-11.5803
▁mansion	-11.5804
▁Crush	-11.5805
precedent	-11.5809
▁Schm	-11.5809
▁lab	-11.581
▁provok	-11.581
▁Emma	-11.5813
▁hurdle	-11.5815
▁taxi	-11.5816
▁battles	-11.5817
▁rocket	-11.5818
rice	-11.5819
ngue	-11.5822
▁Rena	-11.5823
▁calm	-11.5824
▁heaven	-11.5825
▁boot	-11.5833
▁Manor	-11.5833
selm	-11.5839
ag	-11.5842
▁winners	-11.5847
nia	-11.5849
oid	-11.585
▁invention	-11.5856
▁spann	-11.5857
▁philosopher	-11.5859
nk	-11.5859
rance	-11.5863
▁prevalen	-11.5865
▁vine	-11.5871
bling	-11.5874
▁Dev	-11.5884
▁Observat	-11.5886
▁rod	-11.5886
▁chem	-11.5888
dining	-11.5894
▁Staff	-11.5897
▁Tal	-11.5898
▁Yama	-11.5909
mann	-11.5909
▁Harsha	-11.5912
▁focuse	-11.5916
gi	-11.592
▁slot	-11.5922
▁pore	-11.5924
▁dancer	-11.5924
tant	-11.5931
do	-11.5943
▁Fisher	-11.5952
▁Fro	-11.5952
chan	-11.5955
▁nominate	-11.5958
▁Mona	-11.596
point	-11.596
▁Medic	-11.5961
▁plat	-11.5963
music	-11.5963
lster	-11.5965
97	-11.5978
nder	-11.5978
▁poly	-11.5979
▁Found	-11.598
tter	-11.6007
▁Sue	-11.6012
▁Llan	-11.602
▁stepp	-11.6022
▁builder	-11.6023
▁kee	-11.6042
▁prolif	-11.6043
▁Southeast	-11.6043
▁companion	-11.605
▁Activi	-11.6058
▁constitute	-11.6059
▁mil	-11.6063
▁Had	-11.6067
avanna	-11.6067
erman	-11.6073
ert	-11.6084
▁127	-11.6085
▁Barre	-11.6092
▁corps	-11.6092
wall	-11.6093
▁108	-11.6094
▁asset	-11.61
▁Normand	-11.6104
oke	-11.6106
stian	-11.6116
▁Soli	-11.6119
▁spokes	-11.612
mount	-11.6122
▁Vern	-11.613
▁permit	-11.6132
▁mixing	-11.614
▁spike	-11.6142
▁Kra	-11.6142
ki	-11.6149
▁depress	-11.6152
avan	-11.6153
▁Vet	-11.6153
zh	-11.6154
▁strange	-11.6155
nfluence	-11.6156
▁Fruit	-11.6161
▁Hoysala	-11.6161
▁Immortal	-11.6161
▁Veeru	-11.6161
▁algorithm	-11.6161
▁Source	-11.6161
▁Volume	-11.6161
▁bibli	-11.6161
▁blind	-11.6161
▁Complete	-11.6161
▁Wilfri	-11.6161
▁Viking	-11.6162
▁tur	-11.6162
▁prolong	-11.6162
▁profound	-11.6162
▁cyto	-11.6162
▁fortifi	-11.6162
▁ylide	-11.6162
▁Confederate	-11.6162
▁Describ	-11.6162
▁annoy	-11.6162
▁virus	-11.6163
▁facult	-11.6163
▁facade	-11.6163
▁Protect	-11.6164
▁outlaw	-11.6164
nie	-11.6164
pectator	-11.6165
▁allegation	-11.6165
▁peaceful	-11.6165
▁Rush	-11.6167
▁renovation	-11.6167
▁attendant	-11.6168
▁accomplishment	-11.6168
▁swamp	-11.6169
▁dirt	-11.617
▁teenager	-11.617
▁inaugurat	-11.6171
▁Shan	-11.6171
▁mobil	-11.6172
▁installation	-11.6172
▁roost	-11.6173
▁worse	-11.6175
▁elegan	-11.6175
▁bug	-11.6176
▁layout	-11.6176
▁drought	-11.6179
▁750	-11.618
▁merc	-11.618
▁Laboratory	-11.6181
▁rig	-11.6181
▁proof	-11.6182
▁township	-11.6184
▁confident	-11.6187
▁dull	-11.6187
▁monaster	-11.6193
▁steer	-11.6197
ontrol	-11.62
ith	-11.6202
▁blast	-11.6203
▁Fis	-11.6204
mack	-11.6205
anka	-11.6205
▁Eno	-11.6207
emble	-11.6207
▁distinction	-11.6212
star	-11.6214
▁ambitio	-11.6215
etter	-11.622
apoli	-11.622
▁Manager	-11.6227
▁litter	-11.6228
▁establishe	-11.6235
▁morpholog	-11.6237
▁Valentin	-11.6238
▁Hil	-11.6241
▁elde	-11.6243
▁intentional	-11.6248
ardo	-11.6252
▁Leon	-11.6252
▁Gambi	-11.6259
▁vers	-11.6263
▁Make	-11.6271
▁Gle	-11.6274
▁nurser	-11.6275
▁compil	-11.6279
▁106	-11.6283
▁Beer	-11.6286
▁Tai	-11.6288
▁Scots	-11.6295
▁Fann	-11.6299
tigo	-11.6303
uarte	-11.6305
▁Concept	-11.6306
▁extract	-11.6308
▁ban	-11.6309
▁glob	-11.6313
▁Bree	-11.6324
▁Boo	-11.6326
hol	-11.6334
▁periodical	-11.6336
▁AP	-11.6338
▁utiliz	-11.6339
▁Orso	-11.6344
TA	-11.6348
▁caps	-11.6366
mma	-11.6368
▁Sid	-11.6372
59	-11.6377
pus	-11.6385
▁Develop	-11.6388
▁ero	-11.6389
▁Spirit	-11.6391
▁refugee	-11.6397
ector	-11.6397
▁Memor	-11.6398
egg	-11.6401
▁Flo	-11.6401
▁Willi	-11.6404
▁resume	-11.6406
▁lecture	-11.6408
▁Jenni	-11.6408
▁op	-11.6411
▁Inde	-11.6414
ntine	-11.6414
▁frontal	-11.6415
▁Rook	-11.642
▁Nam	-11.6423
PF	-11.6429
▁CO	-11.643
▁accord	-11.6442
bil	-11.645
▁kiss	-11.6458
▁photography	-11.6462
▁migrat	-11.6464
▁Author	-11.6467
▁Xe	-11.6482
▁Hip	-11.6483
▁Bach	-11.6485
sock	-11.6485
▁Tit	-11.6485
▁Brigad	-11.6486
▁pad	-11.6487
imo	-11.6491
▁ease	-11.6501
▁emb	-11.6502
▁Alb	-11.6504
▁151	-11.651
▁Fat	-11.651
▁jewel	-11.6521
▁crystal	-11.6524
▁Lang	-11.6524
▁Gaz	-11.653
▁beta	-11.6534
▁nationalist	-11.6537
▁swimm	-11.6538
▁proceeding	-11.654
▁nuclei	-11.6542
rosaur	-11.6548
▁intercept	-11.6552
▁MP	-11.6553
ffensive	-11.6554
▁amphibi	-11.6555
▁ap	-11.6558
▁stall	-11.6558
▁prosecut	-11.6558
ett	-11.6559
▁tutor	-11.656
tious	-11.6561
▁unemploy	-11.6561
▁Investigation	-11.6561
▁acquisition	-11.6561
▁ecosystem	-11.6561
▁ironclad	-11.6561
▁judicia	-11.6561
▁maneuver	-11.6561
▁recapture	-11.6561
▁theologian	-11.6561
▁constituenc	-11.6561
▁sporadic	-11.6561
▁Volunteer	-11.6561
▁obsole	-11.6561
▁sanction	-11.6561
▁Odysse	-11.6561
▁jealous	-11.6561
▁prosper	-11.6561
▁width	-11.6561
▁cultivat	-11.6561
▁discharge	-11.6561
anagi	-11.6561
▁embryo	-11.6561
▁Fiction	-11.6561
▁Trouble	-11.6562
▁Muhammad	-11.6562
▁Jacque	-11.6562
▁modification	-11.6562
▁hairstyle	-11.6562
▁Sylv	-11.6562
▁metaphor	-11.6562
▁parodie	-11.6562
▁sect	-11.6562
▁plent	-11.6562
▁massacre	-11.6562
▁phosphor	-11.6562
▁endanger	-11.6562
▁Airlines	-11.6562
▁betray	-11.6562
▁LED	-11.6562
▁scout	-11.6562
▁nasal	-11.6563
▁trigger	-11.6563
▁sprint	-11.6563
▁Galile	-11.6563
▁Ban	-11.6563
▁random	-11.6563
▁pour	-11.6564
▁Homar	-11.6564
▁sensation	-11.6564
▁hurt	-11.6565
▁consultant	-11.6565
▁Veera	-11.6565
▁concurrent	-11.6565
▁Round	-11.6565
▁rely	-11.6566
▁Arena	-11.6566
▁landf	-11.6567
▁certification	-11.6567
▁Sieg	-11.6567
▁excessive	-11.6569
▁Scha	-11.657
▁insurgent	-11.657
▁stallion	-11.6571
▁Herb	-11.6571
▁mound	-11.6571
▁pretend	-11.6571
▁thorough	-11.6572
▁Elliot	-11.6574
▁Pear	-11.6574
▁Publication	-11.6575
ouser	-11.6577
▁102	-11.6579
▁kit	-11.658
▁breast	-11.6583
▁indoor	-11.6587
▁Drive	-11.6589
ogue	-11.659
▁Kubic	-11.6591
▁intimate	-11.6591
gate	-11.6591
▁prayer	-11.6593
▁Syn	-11.6595
▁Lev	-11.6595
mantle	-11.6597
▁Denis	-11.6598
▁swell	-11.66
losa	-11.6601
▁Tre	-11.6606
▁HM	-11.6607
oft	-11.6609
ef	-11.661
▁Harbo	-11.6613
▁Hungar	-11.6614
▁Isla	-11.6616
▁Beside	-11.6616
▁appreciat	-11.6618
▁Hast	-11.662
MI	-11.6625
33	-11.6627
castle	-11.6634
▁Morav	-11.6637
▁leaf	-11.6641
▁Schu	-11.6643
▁Gree	-11.6644
▁criticize	-11.6644
urrender	-11.6645
inaw	-11.665
▁clan	-11.6651
▁satisfy	-11.6653
▁Rodd	-11.6656
▁Authorit	-11.6659
RIA	-11.6659
▁fade	-11.666
▁Zealander	-11.6661
opia	-11.6665
▁harbo	-11.6667
▁traveler	-11.6674
▁mast	-11.6674
ophy	-11.6679
▁Blo	-11.6688
llen	-11.6691
▁Lars	-11.6693
▁terminal	-11.6703
hy	-11.6709
▁discusse	-11.671
▁ow	-11.6712
▁rivalr	-11.6713
▁expose	-11.6714
aro	-11.6719
gar	-11.672
▁Cod	-11.6732
▁pron	-11.6734
ament	-11.6737
▁dan	-11.6741
▁marine	-11.6742
ried	-11.6742
▁Juda	-11.6751
▁Upp	-11.6754
▁reliev	-11.6754
▁notion	-11.6755
continu	-11.6758
▁und	-11.6762
▁municipalit	-11.6763
▁cock	-11.6766
eign	-11.677
▁Sey	-11.6772
▁bo	-11.6775
▁manipulat	-11.6775
number	-11.6777
continent	-11.6777
▁commemorate	-11.6777
cycle	-11.6778
limit	-11.6779
critic	-11.6779
assign	-11.678
cock	-11.6783
▁patch	-11.6786
▁McDo	-11.6787
eller	-11.6787
▁Cu	-11.6789
burg	-11.6789
▁Mall	-11.679
▁Ord	-11.6799
IV	-11.68
IAA	-11.6802
▁negotiate	-11.6806
va	-11.6807
▁tim	-11.6808
ael	-11.6809
ged	-11.6814
96	-11.6817
▁Mann	-11.6817
▁seed	-11.6829
▁118	-11.6838
▁echo	-11.6849
▁empt	-11.6851
witt	-11.6852
▁Domo	-11.6856
▁Hein	-11.6857
▁differentiat	-11.6862
▁Duch	-11.6864
vor	-11.6867
▁wo	-11.6871
ative	-11.6873
▁footballer	-11.6879
▁Notabl	-11.6885
mission	-11.6893
94	-11.6895
▁basal	-11.6895
▁branche	-11.6901
anga	-11.6906
▁contemporar	-11.6907
▁sur	-11.6908
▁174	-11.6914
nam	-11.6914
▁Nu	-11.6914
▁Munic	-11.6917
▁Connecti	-11.6919
▁pun	-11.6927
leasure	-11.6929
▁Lou	-11.6943
▁Industri	-11.6947
van	-11.6947
had	-11.6947
▁pseudon	-11.6953
▁ext	-11.6965
▁summari	-11.6965
▁manag	-11.6965
▁synthesize	-11.6968
▁reconstruct	-11.6969
overeign	-11.697
aland	-11.6972
uzz	-11.6974
rystal	-11.6977
▁educat	-11.6977
▁sculpt	-11.6977
▁Constantinople	-11.6978
▁Huguenot	-11.6978
▁Pitcairn	-11.6978
▁Scleroderma	-11.6978
▁consequent	-11.6978
▁enterprise	-11.6978
▁epithet	-11.6978
▁fascinat	-11.6978
▁incorrect	-11.6978
▁violacea	-11.6978
▁Micros	-11.6978
▁Municipal	-11.6978
▁Broadcast	-11.6978
▁Junior	-11.6978
▁confine	-11.6978
▁pocket	-11.6978
▁freight	-11.6978
▁grammar	-11.6978
▁groove	-11.6978
▁steamboat	-11.6978
▁stunt	-11.6978
▁consort	-11.6978
▁Period	-11.6978
▁rumour	-11.6979
▁burst	-11.6979
▁dissent	-11.6979
▁vague	-11.6979
▁warrant	-11.6979
▁songwriting	-11.6979
▁Lyric	-11.6979
▁Iberia	-11.6979
▁haunt	-11.6979
▁suspens	-11.698
▁Ghat	-11.698
▁bottle	-11.698
▁pla	-11.6981
▁dignit	-11.6981
▁stag	-11.6983
▁barrow	-11.6983
▁convenien	-11.6983
▁Wonder	-11.6983
▁disagreement	-11.6983
▁Nature	-11.6984
▁GameSp	-11.6984
▁reproduction	-11.6984
▁displacement	-11.6984
▁oversee	-11.6986
▁Sicil	-11.6987
▁Rule	-11.6987
▁Ranger	-11.6988
gow	-11.6988
▁comedian	-11.6989
▁intent	-11.6989
▁Studi	-11.6989
▁Vol	-11.6989
▁foul	-11.6989
▁deadline	-11.6991
▁hymn	-11.6992
▁barge	-11.6992
▁Shang	-11.6993
▁replay	-11.6997
▁Assistan	-11.6997
▁detective	-11.6997
amaic	-11.6998
▁cliff	-11.7
rsenal	-11.7002
view	-11.7004
▁cure	-11.7005
▁honest	-11.7009
▁unlock	-11.7009
▁sortie	-11.7012
▁clinical	-11.7015
▁melt	-11.7018
▁Eye	-11.7018
▁Clear	-11.702
▁oak	-11.702
▁Bour	-11.7022
▁synth	-11.7022
▁assessment	-11.7025
▁hyph	-11.7028
▁Aval	-11.7032
▁explode	-11.7035
imi	-11.7036
▁academ	-11.7036
mp	-11.7037
▁Fund	-11.704
▁consumer	-11.7041
▁Fant	-11.7043
▁twist	-11.7044
▁Thi	-11.7046
▁135	-11.7048
▁persona	-11.705
▁Fu	-11.7061
▁Huai	-11.7065
▁tract	-11.7068
▁Hadd	-11.7071
▁trailer	-11.7072
▁Adria	-11.7072
ruiserweight	-11.7072
iers	-11.7077
▁Solo	-11.7079
▁Daw	-11.708
desh	-11.7087
▁Walk	-11.7088
▁Loch	-11.7088
▁Gera	-11.7088
▁container	-11.7095
▁organism	-11.7101
ah	-11.7103
▁treasure	-11.7108
▁Patter	-11.7109
▁reside	-11.7109
▁Bal	-11.7109
▁Cave	-11.7114
usa	-11.7116
ption	-11.7119
anyan	-11.7127
lastic	-11.7133
raba	-11.714
▁negotiat	-11.7144
apy	-11.7151
▁Kend	-11.7151
▁refuge	-11.7153
marca	-11.7156
▁carriages	-11.7158
▁breach	-11.7159
23	-11.7171
▁BM	-11.7174
amil	-11.7177
▁gay	-11.7184
ird	-11.719
isle	-11.7191
▁missionar	-11.7192
▁torn	-11.7194
dding	-11.7201
spective	-11.7202
▁ru	-11.7205
▁Jewel	-11.7206
▁arrow	-11.7206
▁Parad	-11.7208
▁loyal	-11.721
ines	-11.7211
nta	-11.7212
world	-11.7214
▁gri	-11.7214
visibl	-11.7216
▁Bron	-11.7217
▁Winds	-11.7223
▁emphasiz	-11.7229
tland	-11.7234
ographic	-11.7239
18	-11.7241
▁delica	-11.7241
key	-11.7242
▁sighting	-11.7244
▁AL	-11.7245
▁Harve	-11.7251
essa	-11.7265
▁invade	-11.7269
▁Mora	-11.7286
annad	-11.7295
▁Rom	-11.7307
▁reserves	-11.7325
aking	-11.7333
▁nucleo	-11.7334
▁Mode	-11.7334
▁Bann	-11.7347
▁Finn	-11.7356
▁jun	-11.7356
▁Steven	-11.7358
▁hostilit	-11.7359
▁archer	-11.7359
inus	-11.736
▁southwester	-11.736
mart	-11.736
aur	-11.7366
▁Nige	-11.737
▁unrel	-11.7374
▁Berm	-11.7377
▁Laur	-11.7378
tters	-11.7388
LC	-11.7388
▁Transit	-11.7392
▁Direct	-11.7396
▁Bede	-11.7401
▁orient	-11.7402
▁dome	-11.7402
▁marrie	-11.7405
lude	-11.7407
▁Suss	-11.7409
▁adjust	-11.7411
iscount	-11.7411
erdict	-11.7412
▁Range	-11.7412
▁Abraham	-11.7413
▁Senior	-11.7413
▁jurisdiction	-11.7413
▁lobster	-11.7413
▁pianist	-11.7413
▁unanimous	-11.7413
▁undergraduate	-11.7413
▁Pompe	-11.7413
▁Siberia	-11.7413
▁prognos	-11.7413
▁Patriarch	-11.7413
▁unveil	-11.7413
▁Method	-11.7413
▁constrain	-11.7413
▁surprising	-11.7413
▁Abram	-11.7413
▁Affair	-11.7413
▁licence	-11.7413
▁substrate	-11.7413
▁Promot	-11.7413
▁agaric	-11.7413
▁decree	-11.7413
▁grape	-11.7413
▁mosque	-11.7413
▁resort	-11.7413
▁spider	-11.7413
▁identification	-11.7413
▁Sugar	-11.7413
▁harass	-11.7413
▁annex	-11.7413
▁expir	-11.7413
▁galax	-11.7413
▁proud	-11.7414
▁Reaction	-11.7414
▁legitimate	-11.7414
▁flashback	-11.7414
▁Idol	-11.7414
▁comparative	-11.7414
▁Theodor	-11.7414
▁chef	-11.7414
▁metropoli	-11.7414
▁gauge	-11.7414
▁distress	-11.7415
▁sparse	-11.7416
▁Townsville	-11.7416
▁Claw	-11.7416
▁golf	-11.7417
▁boost	-11.7417
▁Believ	-11.7417
▁Glen	-11.7418
▁naturalist	-11.7419
▁Metall	-11.7419
▁lord	-11.742
▁rework	-11.742
▁destin	-11.742
▁taxonom	-11.7421
▁owl	-11.7421
▁Palen	-11.7421
▁brass	-11.7422
▁Midland	-11.7422
▁prae	-11.7422
▁antholog	-11.7422
▁Centur	-11.7422
▁compensat	-11.7422
▁retaliat	-11.7423
▁geograph	-11.7424
▁Moham	-11.7424
▁Holland	-11.7424
▁ideolog	-11.7426
▁funnel	-11.7426
▁Cro	-11.7426
▁Palmyr	-11.7428
▁Personnel	-11.743
▁nerv	-11.743
▁Toward	-11.7431
▁Locat	-11.7431
▁Tribun	-11.7433
▁cor	-11.7438
▁wonder	-11.7438
▁Andr	-11.7439
AC	-11.7439
▁imagin	-11.744
cious	-11.7442
▁178	-11.7445
▁assignment	-11.7446
ient	-11.7447
▁escap	-11.7451
▁donor	-11.7453
▁Henri	-11.7456
▁prose	-11.746
▁pressing	-11.7462
▁Herman	-11.7467
▁utter	-11.7467
▁tag	-11.747
▁evaluat	-11.7471
omit	-11.7472
▁Edd	-11.7476
▁Highlander	-11.7478
▁Edit	-11.7479
▁operative	-11.7481
▁integr	-11.7485
isual	-11.7487
oyage	-11.7488
raid	-11.7494
▁Chenn	-11.7497
Donald	-11.7497
antho	-11.7499
ating	-11.7504
loph	-11.7506
▁Kit	-11.7512
li	-11.7514
▁teache	-11.752
▁Johann	-11.7526
ncos	-11.7534
▁Malaya	-11.7542
▁Plato	-11.7543
▁Luci	-11.7546
▁vari	-11.755
uke	-11.7551
▁Prest	-11.7553
▁Fus	-11.756
▁capp	-11.7561
▁myelo	-11.7569
▁var	-11.7571
onvention	-11.7571
▁exceeding	-11.7575
▁Hamp	-11.7583
rypt	-11.7588
▁Olivi	-11.7591
bark	-11.7596
▁waterway	-11.7597
▁oral	-11.76
▁resolv	-11.76
cFarlan	-11.7602
ogle	-11.7615
▁WC	-11.762
DT	-11.7624
iate	-11.7627
acco	-11.7632
▁imagine	-11.7637
▁temperat	-11.7646
▁Sep	-11.7646
53	-11.7655
▁Gerr	-11.7656
▁Core	-11.7656
tor	-11.7657
uma	-11.7662
▁scan	-11.7665
Down	-11.7667
WC	-11.7669
ours	-11.7669
color	-11.7681
obile	-11.7687
▁Fri	-11.7688
▁Div	-11.7694
gent	-11.7698
▁Cl	-11.7704
rnissart	-11.7708
greement	-11.7726
▁inclin	-11.7729
▁Hand	-11.7735
▁barr	-11.7736
▁Barbi	-11.7736
acre	-11.7738
▁Dub	-11.7739
▁Sali	-11.7742
ceratops	-11.7749
icon	-11.7751
▁Indo	-11.7752
ature	-11.7753
erson	-11.7753
▁Iran	-11.7754
▁Shi	-11.7754
qua	-11.7757
uchi	-11.776
NS	-11.7763
▁111	-11.7778
▁Ari	-11.7778
dale	-11.7795
▁Pic	-11.7813
ib	-11.782
eum	-11.7821
▁Kings	-11.7822
ilda	-11.7823
▁Bran	-11.7825
▁widen	-11.7828
▁Strat	-11.7836
▁invent	-11.7838
▁Geograph	-11.7844
▁Zh	-11.7847
▁pray	-11.785
▁Massa	-11.785
oma	-11.7853
opsi	-11.7857
éra	-11.7861
▁Cove	-11.7863
endar	-11.7865
▁feat	-11.7867
▁Environment	-11.7867
▁irrigat	-11.7867
▁Agricultur	-11.7867
▁Arbeider	-11.7867
▁immense	-11.7867
▁Vaishnav	-11.7867
▁client	-11.7867
▁privilege	-11.7867
▁reluctan	-11.7867
▁deserve	-11.7867
▁eager	-11.7867
▁Prussia	-11.7867
▁spectac	-11.7867
▁niche	-11.7868
▁pilgrim	-11.7868
▁Oswal	-11.7868
▁compell	-11.7868
▁Certificat	-11.7868
▁stiff	-11.7868
▁Dinosaur	-11.7868
▁jacket	-11.7868
▁Strong	-11.7868
▁treason	-11.7868
▁triangle	-11.7868
▁ghat	-11.7868
avelin	-11.7868
▁Cabr	-11.7868
▁unpopular	-11.7868
▁butterfl	-11.7868
croft	-11.7869
▁Flood	-11.7869
▁outdoor	-11.7869
▁Karamok	-11.7869
▁torture	-11.7869
▁courage	-11.7869
▁persistent	-11.7869
▁WWE	-11.7869
▁remaster	-11.7869
▁Strait	-11.7869
dge	-11.7871
▁joy	-11.7871
▁cheap	-11.7872
▁dictator	-11.7872
▁Borea	-11.7872
▁Eugen	-11.7873
▁Hydn	-11.7873
▁Money	-11.7874
▁Elephant	-11.7874
▁Proto	-11.7875
▁Hispani	-11.7875
▁Fashi	-11.7876
▁sovereign	-11.7877
▁calculation	-11.7878
▁Bryan	-11.7879
▁enthusiastic	-11.7879
▁flightless	-11.7879
eff	-11.788
extraterrestrial	-11.7881
▁idol	-11.7882
▁novelist	-11.7882
▁gull	-11.7882
▁Flash	-11.7882
▁flatten	-11.7883
▁Tang	-11.7883
▁Devon	-11.7884
▁lament	-11.7885
▁Thanh	-11.7885
▁bag	-11.7886
▁chip	-11.7887
▁Shar	-11.7888
▁leap	-11.789
▁sperm	-11.7892
▁overcom	-11.7893
▁1820	-11.7893
▁supervisor	-11.7894
▁bunker	-11.7895
▁nude	-11.7897
▁prediction	-11.7897
▁degrad	-11.7897
▁ceremoni	-11.7898
▁keyboard	-11.7904
nown	-11.7905
▁Ono	-11.7906
▁Ltd	-11.7908
▁affirm	-11.7911
▁Mun	-11.7912
▁gear	-11.7913
▁quest	-11.7913
▁Store	-11.7913
▁mint	-11.7916
▁Toy	-11.7921
▁northwester	-11.7923
▁hail	-11.7924
▁arcade	-11.7924
▁Pla	-11.7926
▁Kras	-11.793
▁expel	-11.7931
▁Chester	-11.7934
uzzle	-11.7937
▁rector	-11.7939
▁Baye	-11.7941
▁devi	-11.7945
moto	-11.7948
▁Peronis	-11.795
Shar	-11.7953
isto	-11.7954
▁Mick	-11.7955
▁ge	-11.7956
tender	-11.7959
▁theoretical	-11.7961
▁tribe	-11.7964
▁Vo	-11.7964
▁Edm	-11.7966
▁matri	-11.7967
▁va	-11.7967
▁Spy	-11.7985
atherin	-11.7987
▁Commissioner	-11.7988
▁commando	-11.7989
nza	-11.7998
▁consume	-11.8002
art	-11.8007
▁regulate	-11.8012
▁Bute	-11.8012
pedi	-11.8012
▁penetrat	-11.8013
▁Linds	-11.8015
▁optimis	-11.8015
▁ironic	-11.8015
▁popula	-11.8017
▁sto	-11.8028
▁Madr	-11.803
▁replica	-11.8032
ommercial	-11.8038
nounce	-11.8042
pot	-11.8046
bot	-11.8054
iped	-11.8056
rank	-11.8065
▁graves	-11.8066
▁Belle	-11.8066
▁suite	-11.8067
▁labell	-11.8068
▁Map	-11.8068
nel	-11.8073
▁Marty	-11.8073
lov	-11.808
▁Bun	-11.8087
▁worshippe	-11.809
live	-11.8091
▁pal	-11.8094
▁Kerr	-11.8095
hand	-11.8096
lik	-11.8098
▁Jess	-11.8103
▁Pay	-11.811
PR	-11.811
ru	-11.8113
▁outrage	-11.8113
▁Bab	-11.8115
ura	-11.8115
▁Writer	-11.812
▁Ger	-11.8127
merg	-11.8128
▁Econom	-11.8131
▁Waterf	-11.8135
ibilit	-11.8135
28	-11.8141
illan	-11.8142
market	-11.8144
strong	-11.8144
opper	-11.8146
akes	-11.8146
▁fertil	-11.8149
▁Holli	-11.815
ednes	-11.8151
▁Corn	-11.8165
bride	-11.8167
▁meal	-11.8167
▁dresse	-11.8172
▁poster	-11.8172
▁Strange	-11.8175
▁Ran	-11.8176
oul	-11.8178
▁satisf	-11.8182
lant	-11.8184
sex	-11.8186
▁fisher	-11.819
▁Luk	-11.8195
thor	-11.8197
▁modell	-11.8197
▁Sign	-11.8199
mbassador	-11.8201
Art	-11.8203
▁166	-11.8203
eba	-11.8205
▁Chang	-11.8218
▁accumulat	-11.8221
▁Roos	-11.8222
▁temper	-11.8232
▁Kor	-11.824
▁pret	-11.824
▁Lauren	-11.8245
61	-11.8249
▁Esse	-11.8251
▁McG	-11.8256
ozo	-11.8279
▁Mat	-11.8293
▁pledge	-11.83
ayana	-11.8304
mediate	-11.831
▁Indiana	-11.831
▁Produc	-11.8316
▁Nic	-11.8316
▁Domini	-11.8317
onso	-11.8317
eville	-11.8319
otten	-11.832
▁posts	-11.8321
▁prominen	-11.8322
arch	-11.8323
▁persuad	-11.8324
▁chor	-11.8327
issan	-11.8332
Xe	-11.8334
▁Fig	-11.8337
▁candida	-11.8342
▁Continent	-11.8344
▁resurrect	-11.8344
▁Certain	-11.8344
▁Cossack	-11.8344
▁Hubbard	-11.8344
▁Individual	-11.8344
▁accommodation	-11.8344
▁migrant	-11.8344
▁pirate	-11.8344
▁rehabilitat	-11.8344
▁bacteria	-11.8344
▁democra	-11.8344
▁superficial	-11.8344
▁Klingon	-11.8344
▁Sleep	-11.8344
▁vigorous	-11.8344
▁Benedict	-11.8344
▁vassal	-11.8344
▁gravitational	-11.8344
▁Appeal	-11.8344
▁patent	-11.8344
▁grasp	-11.8344
▁Buckingham	-11.8344
pulc	-11.8344
▁Dangerous	-11.8344
▁vicar	-11.8344
▁stamp	-11.8344
▁Nottingham	-11.8344
▁eucalypt	-11.8344
▁XeF	-11.8344
▁Standard	-11.8344
▁Petit	-11.8344
▁olive	-11.8344
▁wonderful	-11.8345
▁outpost	-11.8345
▁Faith	-11.8345
▁tech	-11.8345
▁breath	-11.8345
▁supernova	-11.8345
▁scream	-11.8345
▁obligation	-11.8345
▁Nichols	-11.8346
ortrait	-11.8346
▁Planet	-11.8346
▁etymolog	-11.8346
▁distortion	-11.8346
▁Laud	-11.8346
▁textile	-11.8346
Octa	-11.8347
▁Burt	-11.8347
▁Borg	-11.8347
▁crescen	-11.8347
▁purpl	-11.8347
▁punish	-11.8348
▁Mott	-11.8348
▁luck	-11.8348
▁lamin	-11.8348
▁Vocal	-11.8349
▁Bullet	-11.8349
▁tyre	-11.8349
Tun	-11.8349
wyn	-11.8349
▁calculator	-11.835
▁wheat	-11.835
▁laser	-11.835
▁philosophical	-11.8351
▁Indoor	-11.8352
etta	-11.8353
▁cement	-11.8353
▁lung	-11.8353
jiang	-11.8354
▁occurrence	-11.8354
▁Traditional	-11.8355
uran	-11.8357
▁Phoenicia	-11.8358
▁bio	-11.8359
▁Animal	-11.836
▁Benson	-11.8362
urnpike	-11.8362
▁web	-11.8364
▁ram	-11.8364
▁accelerat	-11.8364
▁Doc	-11.8367
▁prehistor	-11.8368
▁percussion	-11.8369
▁undert	-11.837
▁Fighter	-11.8371
▁corona	-11.8371
pi	-11.8372
▁testif	-11.8374
▁Bosnian	-11.8375
▁procedure	-11.8375
aja	-11.8377
▁280	-11.8378
▁Tamp	-11.8379
▁pile	-11.8379
▁insight	-11.8381
izard	-11.8385
tsu	-11.8388
▁nonsens	-11.8388
▁sociolog	-11.8389
▁indication	-11.8391
ugal	-11.8395
pagan	-11.8398
▁inspect	-11.8398
▁Abo	-11.84
▁innovation	-11.8405
▁prince	-11.8406
▁screening	-11.8409
▁Raide	-11.8409
▁gle	-11.841
▁Zap	-11.841
▁Mongolia	-11.8417
▁ditch	-11.8417
gestion	-11.8419
▁distribute	-11.8426
gon	-11.8427
▁Safe	-11.843
hill	-11.8434
▁conscien	-11.8435
hiban	-11.8439
auna	-11.8442
▁patroll	-11.8446
ug	-11.8448
cover	-11.8448
▁Futur	-11.8457
▁gag	-11.846
zor	-11.846
▁Brent	-11.8467
▁violat	-11.8469
▁blown	-11.8478
▁shorten	-11.8483
▁pav	-11.8484
▁152	-11.8485
▁168	-11.8494
building	-11.8497
▁Side	-11.8498
▁demoli	-11.8504
blad	-11.8507
▁Draw	-11.8509
▁priorit	-11.851
nick	-11.8511
erti	-11.8515
▁drunk	-11.8524
pani	-11.8527
mour	-11.8533
▁Figg	-11.8536
oll	-11.8537
agan	-11.8543
tish	-11.8548
▁captive	-11.8552
▁Wein	-11.8552
▁Mau	-11.8552
▁liber	-11.8553
▁seasonal	-11.8554
▁Vat	-11.8554
▁intermedi	-11.8558
▁beneficia	-11.8564
roth	-11.8569
▁judg	-11.8569
▁Christophe	-11.8569
▁Brand	-11.8576
▁Ce	-11.8577
▁comfortabl	-11.8598
▁1.	-11.8604
▁infant	-11.8608
▁Novel	-11.8608
▁organizer	-11.8618
otype	-11.8619
pez	-11.8625
zen	-11.8626
▁input	-11.8629
▁stretche	-11.8632
▁pap	-11.8632
▁file	-11.8642
ST	-11.8642
aki	-11.8647
▁Kho	-11.8657
▁localiz	-11.8659
▁unus	-11.8659
ec	-11.8664
▁excite	-11.8665
▁Oliv	-11.8668
▁refere	-11.8668
range	-11.867
tr	-11.8674
▁oppose	-11.8676
rsal	-11.8678
▁Sant	-11.8678
incar	-11.8679
▁Ab	-11.8685
▁forbid	-11.8696
zel	-11.87
▁seas	-11.8701
▁lease	-11.8706
▁motivat	-11.8707
saur	-11.8709
▁dece	-11.8711
▁GB	-11.8713
ission	-11.872
▁Elle	-11.8744
▁scal	-11.8752
▁cons	-11.8761
▁rescu	-11.8764
▁Aret	-11.8767
dra	-11.8769
ignment	-11.8769
▁Berli	-11.8769
▁worri	-11.8769
ole	-11.877
▁atmospher	-11.8772
▁Cris	-11.8778
sville	-11.8781
▁disab	-11.8782
▁user	-11.8784
manda	-11.8791
▁smok	-11.8794
ologist	-11.8797
▁Mend	-11.8801
▁robe	-11.8801
▁Rei	-11.8802
▁161	-11.8807
▁Ci	-11.8809
▁Barra	-11.8814
▁forag	-11.8823
zer	-11.8828
rn	-11.8842
▁embarrass	-11.8844
▁Communication	-11.8844
▁Nguy	-11.8844
▁Tamaulipas	-11.8844
▁artifact	-11.8844
▁authentic	-11.8844
▁diminish	-11.8844
▁dreadnought	-11.8844
▁kilogram	-11.8844
▁larva	-11.8844
▁manoeuvre	-11.8844
▁syllable	-11.8844
▁trivial	-11.8844
▁postpone	-11.8844
▁Templar	-11.8844
▁emplacement	-11.8844
▁notorious	-11.8844
▁engrav	-11.8844
▁motive	-11.8844
▁sewer	-11.8844
cumb	-11.8844
▁Mozambican	-11.8844
▁Discover	-11.8844
▁HBO	-11.8844
▁vowel	-11.8845
▁Window	-11.8845
▁misunderst	-11.8845
▁preference	-11.8845
▁Armour	-11.8845
▁trauma	-11.8845
▁courtyard	-11.8846
▁Quarter	-11.8846
▁Diam	-11.8846
agoda	-11.8846
▁crypt	-11.8846
▁Rid	-11.8847
val	-11.8847
▁faithful	-11.8847
smith	-11.8847
▁Wolver	-11.8848
▁megalith	-11.8849
▁partition	-11.8849
▁rebound	-11.885
pit	-11.8851
▁Warwick	-11.8852
▁morel	-11.8855
▁detonat	-11.8857
▁admission	-11.8858
▁invertebrate	-11.8859
position	-11.8859
▁prostitute	-11.886
▁hinder	-11.886
▁Pig	-11.8861
▁Hollow	-11.8861
▁Creation	-11.8861
▁testimon	-11.8862
▁generator	-11.8863
▁institute	-11.8863
azi	-11.8865
▁laud	-11.8867
▁absen	-11.8867
▁mould	-11.8869
▁Architectur	-11.8871
▁traverse	-11.8872
▁Dre	-11.8874
▁Non	-11.8876
▁mason	-11.8878
▁criteri	-11.8879
owing	-11.888
▁Clan	-11.8883
▁chees	-11.8883
▁Ras	-11.8885
lli	-11.8886
▁Angle	-11.8887
ferr	-11.8888
hestnut	-11.8888
▁endorse	-11.8888
▁fret	-11.8889
▁compatib	-11.8891
anzani	-11.8892
▁Rey	-11.8893
▁await	-11.8894
▁bleed	-11.8896
▁mold	-11.8897
▁Cassin	-11.8898
apilla	-11.8904
▁Vie	-11.8905
▁hitter	-11.891
▁befriend	-11.8913
uku	-11.8915
▁Gen	-11.8915
▁Ami	-11.8922
▁folklor	-11.8922
▁pathway	-11.8923
▁dismissal	-11.8924
▁Nap	-11.8925
sty	-11.8925
▁Oil	-11.8927
▁induc	-11.8927
▁guitars	-11.8927
▁Beeth	-11.8928
▁Hild	-11.8937
▁Wom	-11.8941
▁320	-11.8942
▁Alban	-11.8943
▁Tyr	-11.8945
▁clade	-11.8946
harp	-11.8948
▁tap	-11.8949
▁propell	-11.8954
▁migrate	-11.8958
▁Nue	-11.896
▁desir	-11.8961
▁keeper	-11.8962
▁Bod	-11.8967
▁VH	-11.8976
▁peni	-11.8986
▁Tau	-11.8988
▁equall	-11.8993
fric	-11.8993
chi	-11.8995
pe	-11.9002
abo	-11.9011
▁Finch	-11.9011
▁wel	-11.9012
lane	-11.9021
▁Bor	-11.9029
andis	-11.9032
▁clash	-11.9041
cks	-11.9044
okan	-11.9047
elia	-11.9047
ency	-11.9049
hold	-11.9054
▁Kash	-11.9061
▁rider	-11.9061
cat	-11.9062
▁Cann	-11.9067
▁Dalm	-11.9077
▁Sem	-11.908
▁enclos	-11.9082
ambu	-11.9086
▁Tur	-11.9087
▁camel	-11.9091
▁attacker	-11.9092
▁panthe	-11.911
onia	-11.9116
hat	-11.9121
▁Collin	-11.9122
▁Thirt	-11.9122
▁Any	-11.9124
hei	-11.9132
keeper	-11.9134
▁Pit	-11.9136
000	-11.9136
Z	-11.915
rad	-11.9156
soft	-11.9159
▁gentle	-11.916
▁Reta	-11.916
▁Lim	-11.9161
▁Puppet	-11.9164
powder	-11.9164
born	-11.9167
parts	-11.9168
wage	-11.9169
sufficient	-11.917
litter	-11.9174
game	-11.918
yclone	-11.9184
55	-11.9188
▁ag	-11.9191
ition	-11.9202
entral	-11.9203
nake	-11.9206
▁Karn	-11.921
▁153	-11.9213
emic	-11.9219
llor	-11.9224
▁dissolve	-11.9234
▁Sabo	-11.9237
mach	-11.9238
hem	-11.9246
dia	-11.9254
▁Qu	-11.9255
▁addresse	-11.9256
oca	-11.9256
▁etc	-11.9263
▁stripe	-11.9264
ast	-11.9268
▁satir	-11.927
RE	-11.9271
▁Sp	-11.9273
slot	-11.9281
▁destruct	-11.9281
▁auto	-11.9285
▁Cho	-11.929
uan	-11.9291
▁aw	-11.9301
▁pot	-11.9314
▁Ost	-11.9315
▁contend	-11.9319
bab	-11.9319
till	-11.9319
uckle	-11.932
▁Kill	-11.932
▁Mani	-11.9324
dad	-11.933
airie	-11.9334
▁enhanc	-11.9336
▁Demo	-11.9337
times	-11.9338
ffin	-11.9342
▁submit	-11.9342
▁stro	-11.9349
▁Pie	-11.9358
▁teenage	-11.936
▁Sw	-11.9361
HF	-11.9361
▁tracking	-11.9361
▁distract	-11.9362
▁robot	-11.9364
▁Phoe	-11.9366
▁bombard	-11.9367
▁autonom	-11.9368
▁Fight	-11.9368
ootleg	-11.9368
isappear	-11.9368
▁cre	-11.937
▁ESPN	-11.937
▁hazard	-11.937
grenadier	-11.937
▁Antarctic	-11.937
▁Hundred	-11.937
▁Sovetsk	-11.937
▁Statistic	-11.937
▁bankrupt	-11.937
▁clutch	-11.937
▁eukaryot	-11.937
▁librett	-11.937
▁reptile	-11.937
▁revelation	-11.937
▁Diarma	-11.937
▁burden	-11.937
▁recipient	-11.937
▁exaggerat	-11.937
efact	-11.937
siastical	-11.937
▁Kristians	-11.937
▁Rodrigue	-11.937
▁Pilot	-11.937
▁nutrient	-11.937
▁Orchestra	-11.937
▁Eurasia	-11.937
▁ultra	-11.937
▁craz	-11.937
▁clerk	-11.937
▁Lisbon	-11.937
▁spontaneous	-11.937
▁pharaoh	-11.937
▁derivative	-11.937
▁spoil	-11.937
▁Explor	-11.937
▁pollut	-11.937
▁Kumar	-11.9371
▁earthstar	-11.9371
▁DeGro	-11.9371
▁odor	-11.9371
▁Folk	-11.9371
▁plaque	-11.9371
▁Whig	-11.9371
▁bulkhead	-11.9371
▁veil	-11.9371
▁bucket	-11.9372
▁loot	-11.9372
▁receptor	-11.9372
▁classroom	-11.9372
▁Dirt	-11.9372
▁strand	-11.9372
▁analog	-11.9373
▁Update	-11.9373
▁wander	-11.9373
▁depot	-11.9373
▁ballot	-11.9373
▁endorsement	-11.9373
▁Recent	-11.9375
▁slab	-11.9376
▁midfielder	-11.9378
▁Calder	-11.9379
▁flotilla	-11.9379
▁wetland	-11.938
▁Net	-11.938
▁Ur	-11.938
▁Kawa	-11.9381
▁Sim	-11.9381
▁realm	-11.9382
▁punctu	-11.9382
▁Hank	-11.9382
▁vein	-11.9384
alo	-11.9384
▁Observation	-11.9384
▁Julia	-11.9385
▁refit	-11.9386
▁dominan	-11.9386
▁Soft	-11.9388
▁Gof	-11.939
unnel	-11.9393
chand	-11.9394
▁Milan	-11.9395
▁southward	-11.9396
▁embodi	-11.9396
▁propeller	-11.9398
▁wield	-11.9398
▁Vision	-11.9399
▁Jeffer	-11.9399
▁Elect	-11.9401
▁approve	-11.9402
▁initiate	-11.9405
▁gait	-11.9405
▁diversion	-11.9406
▁tendenc	-11.9407
▁ethic	-11.9408
▁protector	-11.9408
▁rope	-11.941
▁adorn	-11.9412
▁Word	-11.9414
▁advise	-11.9416
▁leukemi	-11.9416
▁Biographer	-11.9418
▁postur	-11.9418
quet	-11.9421
viv	-11.9422
▁bead	-11.9424
enic	-11.9429
▁stripp	-11.943
▁Put	-11.9433
ovement	-11.944
▁Date	-11.944
sha	-11.9443
atomic	-11.9443
▁div	-11.9444
▁spinn	-11.9447
▁Trav	-11.9452
mise	-11.9452
▁Lao	-11.9458
▁residue	-11.9462
▁ye	-11.9463
▁SF	-11.9464
▁chromosome	-11.9468
inz	-11.9469
rmal	-11.9471
▁royalt	-11.9473
▁Byr	-11.9478
▁Oah	-11.9484
▁assumption	-11.9486
evel	-11.9486
▁revol	-11.9494
pple	-11.9502
wa	-11.9503
mation	-11.9506
▁forecast	-11.9508
aphor	-11.9509
▁Nf	-11.9513
▁Bre	-11.9515
▁Anim	-11.9522
ua	-11.9524
tine	-11.9528
bilit	-11.9532
▁recit	-11.9543
▁sho	-11.9544
▁stabiliz	-11.9553
▁Cushi	-11.9554
car	-11.9556
▁subdivi	-11.9559
▁Qin	-11.9561
idel	-11.9567
uki	-11.957
▁forget	-11.9572
ria	-11.9578
▁mixe	-11.9579
▁envis	-11.9579
▁154	-11.9581
▁Sang	-11.9583
mmer	-11.9585
▁mud	-11.9591
▁Gla	-11.9599
▁afr	-11.9619
▁Ibar	-11.962
stance	-11.9622
pover	-11.9625
lese	-11.9635
▁drag	-11.964
ash	-11.9641
▁FO	-11.9643
▁Samp	-11.9646
grove	-11.9648
▁Touris	-11.9648
WA	-11.9651
▁portal	-11.9662
▁Pink	-11.9663
▁Def	-11.9663
▁glo	-11.9667
pan	-11.9673
▁Hale	-11.9674
▁ser	-11.9679
amine	-11.9683
▁obsess	-11.9684
identifi	-11.9685
54	-11.9698
▁originate	-11.9701
hai	-11.9706
▁Kr	-11.9707
Pol	-11.9711
▁169	-11.9713
▁Stol	-11.9715
▁em	-11.9716
lace	-11.9723
chill	-11.9725
necessar	-11.9725
Music	-11.9726
ction	-11.9728
realm	-11.9728
▁Judg	-11.9728
chair	-11.973
tara	-11.973
▁viewer	-11.9739
ores	-11.9741
▁troph	-11.9743
rough	-11.9745
aver	-11.975
ouche	-11.9751
ult	-11.9752
thick	-11.9757
gge	-11.9758
▁mobili	-11.9762
▁comfort	-11.9763
▁Za	-11.9767
21	-11.977
▁rushe	-11.9772
▁Cent	-11.9772
▁Jak	-11.9773
hal	-11.9782
▁Poe	-11.9782
mateur	-11.9784
▁103	-11.9786
▁Doub	-11.9787
gle	-11.9794
shi	-11.9802
angz	-11.9803
mare	-11.9804
gh	-11.9806
war	-11.9811
▁dot	-11.9814
▁oxid	-11.9816
▁surve	-11.9828
▁lobb	-11.9828
▁Tin	-11.983
▁citizen	-11.983
▁pave	-11.9832
▁cuts	-11.9837
▁Phi	-11.984
▁Pict	-11.9843
neas	-11.9844
▁qua	-11.9847
hoo	-11.9848
▁antiqu	-11.9852
hon	-11.9857
▁aft	-11.9858
▁seam	-11.9861
▁consecrat	-11.9869
▁Bend	-11.9873
▁Pal	-11.9876
▁keyboards	-11.9884
▁Worth	-11.9887
▁Bosnia	-11.9889
▁Ice	-11.9889
▁tea	-11.989
▁custo	-11.9891
▁allegi	-11.9895
▁strings	-11.9899
▁Aero	-11.9904
zt	-11.9905
▁maker	-11.9905
▁mail	-11.9907
▁Crusade	-11.9911
▁observer	-11.9917
▁Montenegr	-11.9918
llah	-11.9919
nati	-11.992
UC	-11.9921
oulevard	-11.9924
▁abrupt	-11.9925
▁Previous	-11.9925
▁Venezuela	-11.9925
▁disadvantage	-11.9925
▁hybrid	-11.9925
▁lavish	-11.9925
▁millimetre	-11.9925
▁mosaic	-11.9925
▁thunderstorm	-11.9925
▁immortal	-11.9925
▁staircase	-11.9925
▁configur	-11.9925
▁augment	-11.9925
▁flexib	-11.9925
▁solitar	-11.9925
▁Acre	-11.9925
▁Cornwall	-11.9925
▁humiliat	-11.9926
▁sulfur	-11.9926
▁sawmill	-11.9926
▁smell	-11.9926
▁evoke	-11.9926
▁maskray	-11.9926
▁nomad	-11.9926
▁Honour	-11.9926
▁interval	-11.9926
▁Fortune	-11.9926
▁oath	-11.9926
▁sprite	-11.9926
▁prefecture	-11.9926
▁Pas	-11.9927
▁storytell	-11.9927
▁plaster	-11.9927
▁Elvi	-11.9927
▁manifestation	-11.9927
▁mourn	-11.9927
▁Match	-11.9927
▁republic	-11.9928
▁dump	-11.9928
▁Bluff	-11.9928
▁Ecolog	-11.9928
▁workshop	-11.9928
▁nestling	-11.9928
ovenant	-11.9929
▁eminent	-11.9929
▁Stalin	-11.9929
▁merit	-11.9929
▁Jesuit	-11.993
▁Totten	-11.9931
▁instructor	-11.9932
▁fluorescen	-11.9932
▁bestow	-11.9933
▁Dard	-11.9933
▁nominal	-11.9933
▁referend	-11.9933
incin	-11.9933
▁pew	-11.9933
▁Luther	-11.9934
▁physicist	-11.9935
▁Julius	-11.9936
▁Asc	-11.9936
▁medicine	-11.9937
▁instant	-11.9937
▁Dragon	-11.9938
assl	-11.9938
visa	-11.9939
▁Loft	-11.9939
▁Imag	-11.994
▁millenni	-11.994
▁canyon	-11.994
▁collid	-11.9941
▁bitter	-11.9942
▁filmmaker	-11.9943
▁Influence	-11.9944
▁Peck	-11.9946
▁Hoo	-11.9946
▁Snell	-11.9946
▁abolition	-11.9947
▁Luck	-11.9947
▁Alam	-11.9947
▁Zone	-11.9949
42	-11.9949
▁disruption	-11.9953
▁verbal	-11.9954
kra	-11.9955
▁pastor	-11.9956
▁Driver	-11.9956
▁convers	-11.9957
bust	-11.9958
▁clearance	-11.9961
▁Hardco	-11.9964
▁Fir	-11.9964
▁downward	-11.9965
▁obe	-11.9967
▁buff	-11.9968
▁intensive	-11.997
yat	-11.9971
▁Robot	-11.9971
▁dismay	-11.9973
▁Worthing	-11.9973
▁pig	-11.9983
sel	-11.9985
neumo	-11.9987
wamp	-11.9989
asket	-11.999
▁outline	-11.9993
▁compensate	-11.9996
▁Quit	-11.9996
▁microscopic	-11.9997
▁Nir	-11.9997
▁Grave	-11.9999
▁fond	-12.0002
mble	-12.0002
▁advert	-12.0004
IT	-12.0005
litz	-12.0005
gott	-12.0006
kov	-12.0006
▁diocese	-12.0008
nagar	-12.0008
adi	-12.0011
▁upward	-12.0015
▁Plann	-12.0017
▁bin	-12.0022
▁Moth	-12.0023
▁vint	-12.0027
▁Bona	-12.0027
▁watche	-12.0028
▁Amp	-12.0032
ception	-12.0032
▁logg	-12.0033
▁Gia	-12.0034
▁divinit	-12.0034
▁Grim	-12.0038
▁Buck	-12.0039
demic	-12.0041
▁tow	-12.0042
▁Reco	-12.0042
enne	-12.0042
▁imply	-12.0044
▁Jell	-12.0052
mate	-12.0056
▁interactiv	-12.006
▁Body	-12.0061
▁refin	-12.0061
▁stimulat	-12.0064
▁imm	-12.0064
uras	-12.0068
stick	-12.007
▁accumulate	-12.0071
amous	-12.0074
▁reunite	-12.0074
nnual	-12.008
ene	-12.0088
cted	-12.0089
▁Providen	-12.0089
▁Cort	-12.0091
lo	-12.0091
▁faste	-12.0099
▁Chuck	-12.01
▁Coloni	-12.0101
ube	-12.0102
▁lakes	-12.0106
▁fertiliz	-12.0113
▁interi	-12.0123
▁sca	-12.0125
▁Agne	-12.0126
DR	-12.0131
▁illuminat	-12.0136
▁furni	-12.0144
▁Werne	-12.015
ollo	-12.0158
▁spare	-12.0162
▁Theme	-12.0164
▁Bridges	-12.0164
▁Isa	-12.0165
▁taxa	-12.0165
▁Dry	-12.0172
▁sampl	-12.0177
▁reactiv	-12.0182
▁Tad	-12.0185
▁evolve	-12.0189
▁115	-12.0195
omplex	-12.0198
▁Wad	-12.0209
strum	-12.021
urti	-12.0212
▁fl	-12.0213
lotte	-12.0213
▁Traf	-12.022
▁Kin	-12.0221
chel	-12.0232
▁alternat	-12.0232
▁Java	-12.0236
▁barb	-12.0239
wig	-12.0244
ht	-12.0245
agh	-12.0251
▁Eli	-12.0261
▁Camero	-12.0267
▁geologic	-12.0272
▁dr	-12.0272
▁exercis	-12.0273
▁teen	-12.0275
sibilit	-12.0276
ester	-12.0284
43	-12.0288
arta	-12.0294
▁Dare	-12.0297
icia	-12.0304
▁packag	-12.0305
▁regulat	-12.0312
rk	-12.0313
original	-12.0314
spring	-12.0315
force	-12.0315
folk	-12.0316
finger	-12.0318
ani	-12.0319
▁excavat	-12.032
▁Sou	-12.0321
▁Spani	-12.0324
▁accessib	-12.033
▁Croat	-12.0334
Eu	-12.0337
▁revive	-12.0339
illo	-12.0343
49	-12.0344
▁rails	-12.0345
structure	-12.035
▁thematic	-12.0351
▁por	-12.0353
▁Amy	-12.0354
▁reunit	-12.0359
▁Alexandr	-12.037
pproximate	-12.0372
▁lean	-12.0377
▁Surre	-12.0388
happ	-12.0399
▁Yea	-12.04
corporate	-12.04
▁Paper	-12.0406
teen	-12.041
aire	-12.0415
riff	-12.0421
▁appreciate	-12.043
▁troubles	-12.0436
ipp	-12.0438
▁sphere	-12.0439
inc	-12.0445
▁Qui	-12.0447
▁Mana	-12.0447
HA	-12.0452
▁Lem	-12.0455
iation	-12.0458
▁cruis	-12.046
▁glaci	-12.0463
clam	-12.0463
▁equat	-12.0464
▁Kita	-12.0465
hapter	-12.0469
▁relian	-12.0471
▁Rut	-12.0472
▁Cop	-12.0479
▁Polyt	-12.048
▁provoke	-12.048
▁Twic	-12.049
▁Princip	-12.0493
olka	-12.05
▁Suf	-12.0501
ip	-12.0503
▁Hi	-12.0504
solith	-12.0506
▁prec	-12.0506
▁conform	-12.051
▁Im	-12.051
stin	-12.0512
▁advent	-12.0512
▁Mond	-12.0512
▁Extinct	-12.0514
▁Frankfurt	-12.0514
▁Ibrahim	-12.0514
▁Ishmael	-12.0514
▁Zimmerman	-12.0514
▁aristocra	-12.0514
▁confiscate	-12.0514
▁ingredient	-12.0514
▁reclaim	-12.0514
▁shadow	-12.0514
▁subplot	-12.0514
▁suspicion	-12.0514
▁virtuos	-12.0514
▁nominee	-12.0514
▁sleeve	-12.0514
▁Shield	-12.0514
▁UCL	-12.0514
▁cottage	-12.0514
▁exemplifie	-12.0514
▁Article	-12.0514
▁Agust	-12.0514
▁qualification	-12.0514
▁Sab	-12.0514
▁Seventeen	-12.0514
▁Tsuba	-12.0514
▁cosmetic	-12.0514
hemica	-12.0514
aceae	-12.0514
▁cardinal	-12.0514
▁plural	-12.0514
▁latitude	-12.0514
▁potato	-12.0514
▁faint	-12.0514
▁unchang	-12.0514
elope	-12.0514
▁humid	-12.0514
▁inexperience	-12.0514
▁Dhangar	-12.0515
▁reinstate	-12.0515
▁cruel	-12.0515
▁bubble	-12.0515
▁Narv	-12.0515
▁compress	-12.0515
▁Motherwell	-12.0515
▁graz	-12.0515
▁girlfriend	-12.0515
owder	-12.0515
▁unofficial	-12.0515
▁Isabel	-12.0516
▁Fleming	-12.0516
▁jag	-12.0516
▁lieutenant	-12.0516
▁Armenia	-12.0517
▁Guang	-12.0517
▁amendment	-12.0517
▁Break	-12.0517
▁Kitty	-12.0517
▁Habit	-12.0517
▁pigment	-12.0517
▁columnist	-12.0518
▁trustee	-12.0518
▁swift	-12.0518
▁spillway	-12.0518
▁prosecutor	-12.0518
▁Language	-12.0519
▁Panther	-12.0519
▁relic	-12.052
▁Otto	-12.052
▁Hunt	-12.052
▁fascist	-12.052
▁Economic	-12.0521
▁Cause	-12.0521
▁patern	-12.0522
▁Legion	-12.0522
▁rotat	-12.0522
▁guardian	-12.0523
▁Wake	-12.0523
▁Casa	-12.0523
▁furious	-12.0524
▁tann	-12.0525
▁Vita	-12.0526
ambiguous	-12.0527
▁installment	-12.0528
cane	-12.0529
▁contemplat	-12.0529
▁conformation	-12.0531
▁glor	-12.0531
nine	-12.0531
▁scarce	-12.0531
▁Utta	-12.0532
▁technological	-12.0532
▁encompass	-12.0533
▁synthesizer	-12.0535
▁galley	-12.0535
▁Prison	-12.0535
▁stranger	-12.0535
▁dar	-12.0536
▁Surviv	-12.0536
▁Griffi	-12.0537
void	-12.0538
▁910	-12.054
▁Pitch	-12.054
▁Franciscan	-12.0541
▁adverse	-12.0541
▁whistle	-12.0541
ér	-12.0542
rett	-12.0543
▁distributor	-12.0543
▁Buff	-12.0543
▁Historian	-12.0543
▁iconograph	-12.0544
▁immun	-12.0545
▁mural	-12.0547
▁flare	-12.0547
▁hostage	-12.0549
▁petrol	-12.0549
ictionar	-12.0549
minent	-12.055
▁emitt	-12.055
▁Ster	-12.055
▁spouse	-12.0552
▁Pond	-12.0554
▁suck	-12.0557
▁overt	-12.0558
iago	-12.0562
king	-12.0565
pp	-12.0565
▁gener	-12.0566
iano	-12.0566
▁plead	-12.0567
▁specification	-12.057
ould	-12.0571
▁Fork	-12.0573
▁HD	-12.0576
▁corporation	-12.0578
▁Quest	-12.0579
▁styl	-12.0583
▁addict	-12.0587
▁wrestler	-12.0587
▁Cabin	-12.0591
▁obscure	-12.0592
▁Wir	-12.0593
▁Mug	-12.0593
▁Terri	-12.0595
▁Muti	-12.0599
▁pes	-12.0603
▁Serge	-12.0604
▁jewelle	-12.0605
▁Publisher	-12.0611
▁128	-12.0622
▁cleric	-12.0626
cus	-12.0627
▁Levi	-12.0638
▁beque	-12.0639
raig	-12.064
affle	-12.0642
▁realise	-12.0642
▁lineage	-12.0643
erra	-12.0643
▁chao	-12.0648
▁Kre	-12.0657
▁Friend	-12.0657
▁selective	-12.0659
▁Herr	-12.0663
▁inf	-12.0667
▁lyric	-12.0668
▁Sau	-12.0675
▁sa	-12.0677
▁NM	-12.0682
▁serializ	-12.0685
▁presenter	-12.0689
▁motoris	-12.069
▁Bha	-12.0694
path	-12.0695
▁Chay	-12.0695
▁Semiti	-12.0696
▁reliabl	-12.0705
▁bout	-12.0709
tz	-12.0715
▁Donn	-12.0723
▁finishe	-12.0726
▁Glori	-12.0727
▁convincing	-12.0728
aj	-12.0728
ague	-12.0729
▁Carrie	-12.0739
▁vin	-12.0744
▁Lon	-12.0745
▁Wilder	-12.0748
▁ordina	-12.0749
▁fringe	-12.075
▁mis	-12.0753
stract	-12.0759
▁XII	-12.0765
▁murderer	-12.0767
▁impri	-12.0771
▁stel	-12.078
▁Sacr	-12.078
▁Poll	-12.0784
▁Hartle	-12.0786
atti	-12.0793
▁Nai	-12.0794
▁classifie	-12.0794
▁Kno	-12.0802
▁Sch	-12.0804
ampto	-12.0807
ussel	-12.0822
BE	-12.0823
▁terminat	-12.0827
▁Blacks	-12.0829
▁rendering	-12.0834
fume	-12.0836
ronze	-12.0839
▁trib	-12.084
▁Unico	-12.0841
gamer	-12.0841
trench	-12.0847
▁104	-12.0848
▁curio	-12.0851
▁mandat	-12.0876
mother	-12.0881
▁elector	-12.0886
▁polar	-12.0887
nial	-12.089
okie	-12.089
▁Event	-12.0892
▁confess	-12.0892
▁116	-12.0893
▁voic	-12.0895
▁cart	-12.0895
▁bedro	-12.0895
▁sage	-12.0896
flow	-12.09
▁interfere	-12.09
yang	-12.0901
▁citation	-12.0904
▁Moors	-12.091
ii	-12.0912
▁Brando	-12.0919
▁triangula	-12.092
▁subtl	-12.0922
Der	-12.0923
ffman	-12.0927
strov	-12.0931
▁commend	-12.0931
▁Dela	-12.0938
▁Cooke	-12.0941
▁penetrate	-12.0942
▁freeze	-12.0946
NH	-12.0948
▁Circu	-12.0948
q	-12.0949
fair	-12.0955
▁demons	-12.0967
▁innovat	-12.0967
▁Convers	-12.0968
▁mari	-12.0968
▁redevelop	-12.0973
▁u	-12.0973
▁vertebra	-12.0973
▁RF	-12.0979
iel	-12.098
istinguish	-12.0983
drop	-12.0989
▁progresse	-12.099
▁Kara	-12.0994
▁arche	-12.1001
▁dive	-12.1002
▁financ	-12.1003
ragon	-12.1007
▁lov	-12.1021
▁Sham	-12.1021
▁cub	-12.1029
▁ambi	-12.103
▁reconcile	-12.1031
▁cha	-12.1033
▁Verm	-12.104
aq	-12.1062
▁symbolis	-12.1088
raw	-12.109
▁mort	-12.1098
ges	-12.1099
▁MI	-12.1103
aff	-12.1103
▁reuse	-12.1106
owitz	-12.1107
rch	-12.111
▁arsen	-12.1113
▁lett	-12.1116
▁renovat	-12.1117
lz	-12.1117
▁heli	-12.1119
terrestrial	-12.112
▁charg	-12.112
sad	-12.1121
olat	-12.1123
▁mounting	-12.1128
éda	-12.1128
erdale	-12.1128
aughter	-12.113
ometr	-12.1131
liation	-12.1131
▁Abbot	-12.1131
icard	-12.1132
xperience	-12.1134
entine	-12.1137
▁accura	-12.1137
eral	-12.1138
Spisevognselskap	-12.1139
▁Alternative	-12.1139
▁Behavio	-12.1139
▁Continu	-12.1139
▁Ethiopia	-12.1139
▁Penguin	-12.1139
▁Ptolem	-12.1139
▁Restaurant	-12.1139
▁articulate	-12.1139
▁bulb	-12.1139
▁contaminat	-12.1139
▁lambeosaurine	-12.1139
▁mitochondria	-12.1139
▁pamphlet	-12.1139
▁procure	-12.1139
▁solicit	-12.1139
▁splinter	-12.1139
▁Kitsune	-12.1139
▁Lanois	-12.1139
▁vulgar	-12.1139
▁unwilling	-12.1139
▁Worcester	-12.1139
▁Zombie	-12.1139
▁transept	-12.1139
▁wagon	-12.1139
▁hadrosaurid	-12.1139
▁discourage	-12.1139
▁mercenar	-12.1139
▁truncat	-12.1139
▁clever	-12.1139
▁floodplain	-12.1139
▁cartridge	-12.1139
▁choreograph	-12.1139
▁Edwin	-12.1139
▁curricul	-12.1139
▁ridiculous	-12.1139
▁Puritan	-12.1139
▁Robbie	-12.1139
▁shatter	-12.1139
▁enclosure	-12.1139
▁apologize	-12.1139
▁Disaster	-12.1139
▁classify	-12.1139
▁deplet	-12.1139
▁embroi	-12.1139
▁Doug	-12.114
▁copyright	-12.114
▁haul	-12.114
▁discretion	-12.114
▁click	-12.114
▁Spence	-12.114
▁Everett	-12.114
▁decent	-12.114
▁catalogue	-12.114
▁vivi	-12.114
▁feasib	-12.1141
▁veto	-12.1141
▁implication	-12.1141
▁Sergi	-12.1141
▁autonomous	-12.1141
▁vegetable	-12.1141
▁Maclag	-12.1141
▁altitude	-12.1142
▁covenant	-12.1142
▁Chick	-12.1142
▁melanchol	-12.1143
▁pageant	-12.1143
nest	-12.1143
▁prescribe	-12.1144
▁Kalyan	-12.1144
▁Boliv	-12.1144
▁paperback	-12.1144
▁orientation	-12.1144
▁Preparation	-12.1144
▁cosmo	-12.1145
▁vow	-12.1145
▁quotation	-12.1145
▁Iceland	-12.1145
▁discern	-12.1145
▁attest	-12.1146
▁Lanka	-12.1147
▁sensor	-12.1149
▁Kv	-12.115
▁omni	-12.115
▁broadside	-12.1151
▁Scap	-12.1151
▁stela	-12.1155
▁Rare	-12.1155
▁contradiction	-12.1156
▁amend	-12.1156
▁auction	-12.1159
escue	-12.1159
▁coil	-12.116
bec	-12.1161
ergar	-12.1161
▁1660	-12.1162
▁allusion	-12.1163
▁Manga	-12.1165
▁cab	-12.1165
▁Gale	-12.1165
▁myc	-12.1165
▁vanish	-12.1166
asha	-12.1167
▁prop	-12.1168
▁specialis	-12.1169
▁Scholars	-12.117
▁1845	-12.1176
▁fus	-12.1177
▁Barr	-12.1178
▁Alliance	-12.1178
▁revert	-12.1182
▁FC	-12.1183
▁Rough	-12.1183
▁Travel	-12.1184
▁abdom	-12.1185
▁Ador	-12.1187
▁Dove	-12.1187
▁remed	-12.119
▁lend	-12.1191
▁showcase	-12.1191
▁Hartman	-12.1191
▁activate	-12.1193
▁Too	-12.1194
▁heredit	-12.1196
▁Devil	-12.1198
ikh	-12.1198
▁worsen	-12.1201
▁Armor	-12.1205
▁Kinne	-12.1205
▁ferry	-12.1207
▁cater	-12.121
▁facilitat	-12.1212
▁accompanie	-12.1213
▁gig	-12.1218
logo	-12.1223
▁priva	-12.1226
▁unb	-12.1236
▁138	-12.1236
▁receiver	-12.1237
▁Sav	-12.1244
▁pac	-12.1245
▁Mithra	-12.1246
aba	-12.1246
▁reconcil	-12.1247
▁172	-12.1249
▁adviser	-12.1257
▁Virgi	-12.1259
aged	-12.1259
▁insur	-12.1259
▁lobby	-12.1262
▁Nek	-12.1265
▁roundabout	-12.1266
▁Ame	-12.127
▁Ruf	-12.127
ran	-12.1271
▁maid	-12.1271
▁boxes	-12.1277
▁archive	-12.1279
▁civi	-12.1279
lich	-12.1281
▁Babylonia	-12.1282
lown	-12.1289
▁Bern	-12.129
▁Starr	-12.1293
lf	-12.1295
▁feminin	-12.1301
▁lens	-12.1302
stitution	-12.1307
▁Morocc	-12.1307
▁Isi	-12.1311
▁Rosa	-12.1315
▁shake	-12.132
ras	-12.1323
▁dispos	-12.1324
eft	-12.1325
▁Hod	-12.1327
▁Claud	-12.1335
▁McK	-12.1336
▁assemble	-12.1338
mel	-12.1338
wal	-12.1339
▁Num	-12.134
▁Traff	-12.134
herent	-12.134
prising	-12.1346
rude	-12.1352
ulf	-12.1353
▁173	-12.1354
▁Forge	-12.1355
▁Liber	-12.1361
▁emigrat	-12.1365
▁Lac	-12.1366
▁Foot	-12.1369
ank	-12.1374
▁Vida	-12.1379
▁powder	-12.1391
▁Mackina	-12.1393
▁Sai	-12.1402
▁Bard	-12.1405
▁Cass	-12.1409
irp	-12.1418
estig	-12.1419
▁applie	-12.142
▁Monda	-12.1421
▁hydr	-12.1423
▁Tempe	-12.1423
olia	-12.1434
▁projection	-12.1435
▁Ob	-12.1436
▁proph	-12.1438
new	-12.1438
pri	-12.1439
22	-12.1439
▁Ledge	-12.144
▁Lear	-12.1442
ku	-12.1442
care	-12.1442
▁marginal	-12.1446
▁Tra	-12.1446
▁Drum	-12.1447
▁Franc	-12.1455
▁manipulate	-12.1458
▁Nicola	-12.1465
▁moralit	-12.1467
▁Wo	-12.1467
ky	-12.1472
tze	-12.1474
▁cele	-12.1475
matic	-12.1475
▁Calv	-12.1476
▁Raw	-12.1482
iya	-12.1483
scot	-12.1485
▁Georg	-12.1495
vier	-12.1498
▁utilize	-12.15
▁drains	-12.1503
wap	-12.1507
▁Northeast	-12.1507
umi	-12.151
▁Treb	-12.151
rapper	-12.1516
▁mod	-12.1516
▁Administrat	-12.1522
lain	-12.1525
▁Notes	-12.1525
▁worm	-12.1526
▁mediate	-12.153
▁Physic	-12.1532
nuclea	-12.1536
▁gal	-12.1536
▁Kala	-12.1538
▁infest	-12.1545
▁differentiate	-12.1547
▁accuse	-12.1548
▁employer	-12.1553
▁offend	-12.1556
▁Lone	-12.1568
acht	-12.1572
bodie	-12.1579
▁Mul	-12.1585
semen	-12.1587
▁Swans	-12.1587
anama	-12.159
tzpa	-12.159
vad	-12.1594
▁Compar	-12.1596
Chuck	-12.16
▁blu	-12.1601
▁Aid	-12.1605
appropriate	-12.1605
ultimate	-12.1605
common	-12.1609
finish	-12.1609
hawk	-12.1609
▁Cour	-12.161
releas	-12.1612
▁communicate	-12.1617
erous	-12.162
▁GM	-12.1622
▁resid	-12.1624
▁Rac	-12.1624
ruz	-12.1629
fight	-12.163
rades	-12.1631
stage	-12.1633
▁Eval	-12.1637
▁Manda	-12.1638
GT	-12.1638
▁femini	-12.1638
▁rob	-12.1645
▁156	-12.1648
through	-12.1649
▁exo	-12.165
▁statistical	-12.1655
GA	-12.1658
▁Glo	-12.1659
▁squat	-12.1661
chievement	-12.1663
▁Farr	-12.1668
ud	-12.1669
jin	-12.167
rio	-12.167
stra	-12.1682
▁Kon	-12.1693
bi	-12.1694
▁popul	-12.1695
style	-12.1697
▁Came	-12.17
▁choos	-12.1701
▁Mongol	-12.1702
homa	-12.1716
▁obscur	-12.1717
▁Bi	-12.1719
iocese	-12.1728
itsu	-12.1731
▁calculate	-12.1735
▁Kiss	-12.1736
▁clinic	-12.1745
PL	-12.1747
▁Interacti	-12.1758
iett	-12.176
▁Vers	-12.1761
▁Coul	-12.1765
▁intro	-12.1765
▁Harv	-12.1768
hor	-12.1769
uta	-12.1771
urvivor	-12.1772
▁profession	-12.1773
nate	-12.1774
▁hom	-12.1776
▁enthusias	-12.1779
▁liberat	-12.178
▁Rao	-12.1781
▁efficien	-12.1783
mash	-12.1785
punct	-12.179
▁disast	-12.1792
▁vacan	-12.1792
▁micro	-12.1794
▁snap	-12.1795
▁practi	-12.1795
▁certificat	-12.1796
▁Marv	-12.1799
anuel	-12.18
itz	-12.1801
xchange	-12.1802
utla	-12.1803
▁accelerate	-12.1804
▁justifi	-12.1805
▁Competiti	-12.1805
▁Amendment	-12.1805
▁Scientologist	-12.1805
▁Sihanouk	-12.1805
▁Thousand	-12.1805
▁adolescen	-12.1805
▁apprentice	-12.1805
▁constituent	-12.1805
▁disgust	-12.1805
▁ectomycorrhiza	-12.1805
▁extravagan	-12.1805
▁fracture	-12.1805
▁magistrate	-12.1805
▁messenger	-12.1805
▁paratrooper	-12.1805
▁persecut	-12.1805
▁plagiari	-12.1805
▁quarterfinal	-12.1805
▁reproduce	-12.1805
▁transplant	-12.1805
▁typewriter	-12.1805
quois	-12.1805
▁Croydon	-12.1805
▁crater	-12.1805
▁hierarch	-12.1805
▁Firecr	-12.1805
▁Scratch	-12.1805
▁despatche	-12.1805
▁overthrow	-12.1805
▁peripher	-12.1805
▁registr	-12.1805
▁cytogenetic	-12.1805
▁grenade	-12.1805
▁psychi	-12.1805
▁Anatolia	-12.1805
▁inevitabl	-12.1805
▁gesture	-12.1805
▁cinematograph	-12.1805
▁transcribe	-12.1805
▁invok	-12.1805
▁lodge	-12.1805
▁subtype	-12.1805
▁warehouse	-12.1805
▁Eduard	-12.1806
▁glamo	-12.1806
tymolog	-12.1806
▁marsh	-12.1806
▁landslide	-12.1806
▁database	-12.1806
▁Egyptologist	-12.1806
▁GPU	-12.1806
▁Moresby	-12.1806
▁levee	-12.1806
▁unfortunate	-12.1806
▁reorganis	-12.1806
▁sociologist	-12.1806
▁Kamala	-12.1806
▁Runn	-12.1806
▁regret	-12.1807
▁pillar	-12.1807
▁classmate	-12.1807
▁Innocen	-12.1807
▁splash	-12.1807
▁Stela	-12.1807
▁torso	-12.1807
▁Borderers	-12.1808
▁fledgling	-12.1808
▁hetero	-12.1808
▁urgent	-12.1808
▁Maje	-12.1808
opter	-12.1809
▁computation	-12.1809
▁submission	-12.1809
▁Mysore	-12.1809
▁pierc	-12.181
▁Jump	-12.181
▁reef	-12.181
▁Alpha	-12.181
▁renumber	-12.181
▁exert	-12.1811
▁skeptic	-12.1811
▁vacation	-12.1811
▁Kaj	-12.1813
▁gallon	-12.1813
▁epi	-12.1814
▁Jamaica	-12.1814
▁federation	-12.1815
▁Larg	-12.1815
▁Speak	-12.1816
amlet	-12.1817
logical	-12.1817
▁Steff	-12.1817
▁motivation	-12.1817
omestic	-12.1817
▁passport	-12.1818
▁duck	-12.182
▁shipyard	-12.182
▁subgen	-12.1821
▁glow	-12.1823
lé	-12.1825
▁milestone	-12.1825
▁Tata	-12.1825
▁absor	-12.1827
▁cylinder	-12.1828
▁Milk	-12.1828
▁Kress	-12.1829
▁Wide	-12.1829
▁Northumbria	-12.183
▁Broom	-12.183
▁Hum	-12.183
▁Programme	-12.183
dyll	-12.1831
zzar	-12.1831
▁Factor	-12.1831
▁Atkin	-12.1832
▁gamma	-12.1838
▁prohibition	-12.1838
▁pier	-12.1842
▁angel	-12.1842
▁Eyes	-12.1843
trick	-12.1844
▁stunning	-12.1844
▁geni	-12.1845
▁cheer	-12.1846
▁Manning	-12.1846
▁Bahr	-12.1846
▁Financ	-12.1848
▁combatant	-12.1848
▁Letter	-12.1849
▁Poem	-12.185
▁Athen	-12.1851
eur	-12.1851
▁SM	-12.1851
▁replicate	-12.1851
ctari	-12.1852
▁alloy	-12.1852
▁equalise	-12.1853
ankle	-12.1853
▁167	-12.1854
▁crust	-12.1856
▁conc	-12.1856
▁speckle	-12.1856
▁eSport	-12.1863
▁equator	-12.1863
aragua	-12.1863
▁Afterward	-12.1865
▁arra	-12.1867
▁Eri	-12.1867
▁pledg	-12.1868
elbac	-12.1872
▁Aca	-12.1873
▁fraction	-12.1882
▁Priv	-12.1882
tail	-12.1883
▁theorist	-12.1885
▁Could	-12.1888
▁aesthetic	-12.1889
unami	-12.1891
▁Roch	-12.1892
▁favourabl	-12.1895
▁Alg	-12.1902
ibn	-12.1902
▁Southwest	-12.1904
▁presid	-12.1908
▁Kav	-12.191
cybe	-12.191
kind	-12.1912
▁erod	-12.193
▁dune	-12.1933
▁Format	-12.1943
▁Hob	-12.1946
▁Xin	-12.1946
▁Len	-12.1947
▁presiden	-12.1948
▁Vill	-12.1951
▁Springs	-12.1958
▁outlin	-12.196
▁antibod	-12.1962
aker	-12.1965
▁Shear	-12.1965
▁lonel	-12.1967
▁Brahma	-12.1968
hub	-12.1969
ander	-12.197
tille	-12.1971
▁lone	-12.1978
▁Crew	-12.198
▁Jen	-12.1985
▁fake	-12.1987
pocalyp	-12.1989
rner	-12.1991
▁109	-12.1998
▁Hutch	-12.2006
▁fence	-12.2006
▁inhal	-12.201
story	-12.2012
▁degenerate	-12.2019
▁wasp	-12.2019
▁repelle	-12.202
▁proportional	-12.203
▁Pett	-12.2031
▁Gy	-12.2032
▁sil	-12.2036
atory	-12.2038
aig	-12.204
▁corners	-12.2041
limina	-12.2042
▁fram	-12.2045
uble	-12.205
▁sentenc	-12.2054
▁Charit	-12.2055
▁plu	-12.2057
▁lateral	-12.2057
PH	-12.2058
▁attende	-12.2059
▁avia	-12.2062
▁package	-12.2063
▁stin	-12.2064
▁stimulate	-12.2066
cribe	-12.2073
▁AAA	-12.2076
▁Cand	-12.2077
▁venerat	-12.2081
▁Nobod	-12.2085
vant	-12.2098
▁photos	-12.2099
▁Carn	-12.2099
doubt	-12.2102
ison	-12.2102
icea	-12.2109
▁spher	-12.2111
▁chi	-12.2115
atche	-12.2117
altar	-12.2118
▁Abe	-12.2118
▁genero	-12.2121
▁Lands	-12.2127
hant	-12.2129
isation	-12.213
rofessional	-12.2135
of	-12.2138
affo	-12.2139
▁Find	-12.2143
▁rulers	-12.2145
▁laps	-12.2146
iga	-12.2149
▁Vanc	-12.2153
▁urge	-12.2165
▁Mons	-12.2168
osa	-12.217
▁replie	-12.217
▁meteorologi	-12.2174
CP	-12.2183
▁refiner	-12.2185
▁spir	-12.2194
▁Manu	-12.2195
umming	-12.22
▁133	-12.2203
uilt	-12.2203
eman	-12.221
▁Recordings	-12.2216
▁freez	-12.2221
▁Pray	-12.2223
▁Por	-12.2223
▁Jeffr	-12.2224
form	-12.2235
▁brush	-12.224
▁Boa	-12.2243
handler	-12.2246
stile	-12.225
sterda	-12.2252
ini	-12.226
cri	-12.2262
deo	-12.2266
▁Gala	-12.2272
▁axi	-12.2277
ét	-12.2279
horn	-12.2283
▁airpla	-12.2291
piece	-12.2297
▁Lil	-12.2299
elong	-12.2301
Connor	-12.2309
Q	-12.231
vacha	-12.2311
opulation	-12.2315
limb	-12.2315
▁CA	-12.2317
adequate	-12.2317
supply	-12.232
normal	-12.232
▁mob	-12.2322
rrent	-12.233
ohn	-12.2334
▁Roth	-12.2343
▁denot	-12.2343
▁nurs	-12.2349
woman	-12.235
▁Ramo	-12.2351
ane	-12.2351
▁vo	-12.2369
▁definiti	-12.237
pen	-12.2371
acy	-12.2374
▁scratch	-12.2376
eacon	-12.2377
ulan	-12.2378
roe	-12.2384
OR	-12.2386
▁spr	-12.2388
▁Bil	-12.2396
▁implie	-12.2396
▁Warn	-12.2399
utomobile	-12.24
▁Bobca	-12.2401
▁Sex	-12.2406
liberation	-12.2408
ider	-12.2409
parte	-12.2415
▁mut	-12.2427
cation	-12.2435
▁stip	-12.2442
▁nitr	-12.2448
ramp	-12.2452
▁Shawn	-12.246
▁contr	-12.2461
▁Timo	-12.247
▁emit	-12.2482
▁Raid	-12.2482
▁ep	-12.2483
curr	-12.2485
igue	-12.2486
▁Hunting	-12.2488
affect	-12.2491
iest	-12.2492
▁Nazis	-12.2494
SD	-12.2495
▁210	-12.2497
nath	-12.2498
▁echoe	-12.2498
Allis	-12.2499
▁smuggl	-12.25
▁Bio	-12.2501
▁octa	-12.2503
LI	-12.2505
triu	-12.2506
lotilla	-12.2507
▁reproducti	-12.251
▁unifi	-12.2512
▁Ott	-12.2513
▁inhibit	-12.2514
▁Marqu	-12.2515
▁bounc	-12.2515
▁cavit	-12.2516
▁blank	-12.2516
▁Confedera	-12.2516
limate	-12.2517
▁ordinat	-12.2518
lihood	-12.2518
▁improper	-12.252
▁intermittent	-12.252
▁quadrup	-12.252
▁Gloucester	-12.252
▁Presbyterian	-12.252
▁Selenite	-12.252
▁administrator	-12.252
▁constellation	-12.252
▁enlighten	-12.252
▁erroneous	-12.252
▁landowner	-12.252
▁outflank	-12.252
▁precursor	-12.252
▁refurbish	-12.252
▁reggae	-12.252
▁segregat	-12.252
▁spruce	-12.252
▁vizier	-12.252
▁voluntar	-12.252
▁Audio	-12.252
▁Dharm	-12.252
hinke	-12.252
▁Soldier	-12.252
▁goalscor	-12.252
▁tentative	-12.252
▁chlori	-12.252
▁creep	-12.252
▁proponent	-12.252
▁flavor	-12.252
▁masterpiece	-12.252
ricate	-12.252
▁Atomic	-12.252
▁Reuter	-12.252
▁Mead	-12.252
▁Guer	-12.252
▁signify	-12.2521
▁behave	-12.2521
▁Culver	-12.2521
▁tribble	-12.2521
▁recycl	-12.2521
▁spear	-12.2521
▁shortlist	-12.2521
▁arbitra	-12.2521
▁resent	-12.2522
▁volley	-12.2522
bbot	-12.2522
▁flourish	-12.2522
▁embass	-12.2522
▁incense	-12.2522
ricula	-12.2523
▁shade	-12.2523
▁Amazon	-12.2523
urnal	-12.2523
▁luc	-12.2523
▁Confederation	-12.2523
▁Rubin	-12.2524
▁Technical	-12.2524
▁Arri	-12.2524
▁howitzer	-12.2524
▁nymph	-12.2524
▁Jovi	-12.2525
▁frill	-12.2525
▁Typical	-12.2525
iker	-12.2525
▁screenwriter	-12.2525
▁volcano	-12.2526
▁rehearsal	-12.2526
▁councillor	-12.2526
▁Ti	-12.2527
▁striv	-12.2527
▁hopeful	-12.2528
arnival	-12.2528
SS	-12.2529
▁newborn	-12.2529
▁bullet	-12.2529
▁Maid	-12.2531
▁contraceptive	-12.2531
▁collaborator	-12.2531
▁overlapp	-12.2531
▁thriv	-12.2532
▁Gavin	-12.2532
▁1868	-12.2533
ciation	-12.2533
▁inspection	-12.2534
▁claw	-12.2535
▁Bhai	-12.2536
▁1770	-12.2536
▁jar	-12.2538
▁Owl	-12.254
bile	-12.254
▁Measure	-12.2541
iris	-12.2542
ratin	-12.2542
evival	-12.2543
▁spout	-12.2544
▁restless	-12.2544
NN	-12.2545
▁sac	-12.2545
cca	-12.2547
▁detector	-12.2549
▁waterfall	-12.2549
▁hardco	-12.255
▁Raph	-12.2551
▁Feature	-12.2552
▁Trott	-12.2553
▁setback	-12.2555
hamp	-12.2556
thumb	-12.2559
▁Learn	-12.2561
▁stereotype	-12.2561
▁worry	-12.2562
▁periodic	-12.2563
▁Lans	-12.2567
▁robber	-12.2569
▁cooperat	-12.2571
rometric	-12.2572
▁Engle	-12.2573
▁Das	-12.2573
mascu	-12.2574
ngle	-12.2575
lepi	-12.2575
vas	-12.2577
▁steeple	-12.2579
▁Lex	-12.2579
▁Glenn	-12.2581
▁publicize	-12.2582
egalith	-12.2583
phili	-12.2585
▁regulator	-12.259
▁Johannes	-12.2592
▁Jur	-12.2593
▁tick	-12.2595
▁Nott	-12.2595
▁Peru	-12.2598
▁serialis	-12.2601
▁Axe	-12.2606
▁soc	-12.2607
▁contractor	-12.2607
▁clar	-12.2609
ending	-12.2611
▁ambulance	-12.2613
▁raft	-12.2617
▁clarifi	-12.2618
▁Rog	-12.2619
ashi	-12.2619
igm	-12.262
▁outward	-12.2627
▁Hyp	-12.2633
▁Andh	-12.2638
▁Malco	-12.2638
▁Tyn	-12.264
▁Maur	-12.2641
▁geographical	-12.2642
▁mystic	-12.2643
▁Mara	-12.2643
ishna	-12.2643
yaku	-12.2644
▁Else	-12.2647
nfortunate	-12.2648
roc	-12.2649
▁Oz	-12.2651
▁Cover	-12.2655
iable	-12.2656
▁Take	-12.2657
▁iodi	-12.2658
▁aggregat	-12.2666
mmediate	-12.2667
▁sol	-12.2668
▁Gabo	-12.267
▁incidental	-12.2671
▁202	-12.2677
▁patrioti	-12.2678
vapor	-12.2689
▁lowland	-12.2691
▁inherent	-12.2693
▁innovati	-12.2699
ears	-12.2704
▁anthropolog	-12.2706
▁Hano	-12.2709
▁dissolv	-12.2709
▁Pel	-12.271
▁Xia	-12.2712
▁plume	-12.2712
▁denote	-12.2713
13	-12.2714
▁batch	-12.2715
▁stemm	-12.2725
ody	-12.2731
▁fledg	-12.2736
uri	-12.2743
▁emptie	-12.2746
▁Crime	-12.2746
▁Roche	-12.2746
▁accessor	-12.2746
allas	-12.2747
▁Cran	-12.275
anor	-12.275
genes	-12.275
▁slit	-12.2753
▁nucleol	-12.2771
action	-12.2779
lamp	-12.278
▁Kelle	-12.2791
odon	-12.2795
▁tir	-12.2801
▁melodrama	-12.2801
26	-12.2805
▁constitut	-12.2816
▁holder	-12.2817
▁gentlem	-12.2817
▁muster	-12.2819
ool	-12.2824
▁Arg	-12.2824
▁scores	-12.2827
annit	-12.2829
mire	-12.2829
▁cas	-12.2832
▁Din	-12.2833
▁McCo	-12.2842
dition	-12.2845
unning	-12.2847
▁Perc	-12.2849
▁Primar	-12.285
▁Sk	-12.2852
▁repris	-12.2855
ometric	-12.2859
▁Coli	-12.286
itter	-12.2862
▁Sola	-12.2865
▁expresse	-12.2865
▁bor	-12.2868
▁Glor	-12.288
▁Strach	-12.288
▁Simm	-12.2887
▁Tuf	-12.2888
▁acro	-12.2897
▁Hug	-12.2899
rmed	-12.2901
mani	-12.2906
▁procession	-12.2909
▁Dominic	-12.291
▁bik	-12.2911
▁Dogge	-12.2917
runner	-12.2919
tive	-12.2927
iler	-12.293
▁Kowa	-12.2936
▁Ve	-12.2941
orda	-12.2943
▁governors	-12.2946
istress	-12.2948
▁Marya	-12.2954
▁unite	-12.2967
lage	-12.2974
▁107	-12.2974
▁Terror	-12.2974
▁AM	-12.2975
ops	-12.2982
egislature	-12.2982
▁erra	-12.2983
▁Nico	-12.2984
kan	-12.2985
▁157	-12.2986
▁Cri	-12.299
▁Adil	-12.299
raine	-12.2992
dministration	-12.2995
▁trainer	-12.2995
▁popularis	-12.2997
▁Hui	-12.2998
▁Yar	-12.3001
▁Mech	-12.301
bon	-12.3014
ourage	-12.3019
ave	-12.302
nterior	-12.3026
lle	-12.3029
▁touris	-12.3035
tman	-12.3036
▁impose	-12.3038
hara	-12.3041
▁venge	-12.3044
▁execute	-12.3051
ju	-12.3052
vention	-12.3054
morph	-12.3068
▁terminate	-12.3075
develop	-12.3087
▁Ki	-12.3087
▁brave	-12.3088
effective	-12.3089
publish	-12.3091
uru	-12.3093
accept	-12.3093
achus	-12.3099
▁dev	-12.31
tional	-12.31
former	-12.3101
raged	-12.3104
HU	-12.3104
▁hospitaliz	-12.3107
▁Heath	-12.3108
▁reprise	-12.3111
▁kin	-12.3127
mind	-12.3131
08	-12.3131
voy	-12.3132
▁Scen	-12.3139
▁fa	-12.314
awling	-12.3143
niec	-12.3144
hope	-12.3144
eri	-12.3147
ssault	-12.3148
boom	-12.3149
▁contin	-12.3155
▁Recon	-12.3156
▁Pent	-12.3158
poor	-12.3159
ij	-12.3165
mpress	-12.3165
ingti	-12.3168
▁forb	-12.3171
anni	-12.3177
▁che	-12.319
▁Seg	-12.3192
▁mimic	-12.3194
structur	-12.3202
▁Cage	-12.3206
▁forg	-12.321
▁appar	-12.3211
▁Vick	-12.3219
▁Hono	-12.322
▁Cardinals	-12.3222
▁Gin	-12.3224
lux	-12.3229
seldo	-12.3232
ilke	-12.3234
▁embrac	-12.3236
visor	-12.3237
▁grip	-12.3238
▁Sna	-12.324
▁Lind	-12.3241
▁Grac	-12.3246
ila	-12.3247
dolph	-12.3249
▁peri	-12.3252
shine	-12.3255
ambo	-12.326
▁cylind	-12.3262
▁educate	-12.3269
▁crusade	-12.3271
▁Natal	-12.3272
ulat	-12.3273
ovation	-12.3276
umour	-12.3277
cientific	-12.3281
▁exam	-12.3283
Pau	-12.3284
xample	-12.3286
pposed	-12.3287
▁Occupation	-12.3289
▁terrif	-12.3289
elecommunication	-12.3289
▁Concern	-12.3289
▁Controvers	-12.3289
▁Cougar	-12.3289
▁astronaut	-12.3289
▁caricature	-12.3289
▁cladogram	-12.3289
▁disembark	-12.3289
▁excommunicat	-12.3289
▁leisure	-12.3289
▁microphone	-12.3289
▁nightclub	-12.3289
▁patriarch	-12.3289
▁rendezvous	-12.3289
▁unpredictab	-12.3289
▁violin	-12.3289
▁Establish	-12.3289
▁crab	-12.3289
▁pencil	-12.3289
▁premature	-12.3289
▁accolade	-12.3289
▁ceratopsid	-12.3289
▁inconsistenc	-12.3289
▁martyr	-12.3289
▁polytheis	-12.3289
▁scuttl	-12.3289
▁revamp	-12.3289
▁falcon	-12.3289
▁hectare	-12.3289
▁lounge	-12.3289
▁undefe	-12.3289
cendi	-12.3289
▁utilit	-12.3289
▁antelope	-12.3289
▁boycott	-12.3289
▁Parrot	-12.3289
▁applau	-12.3289
▁propulsi	-12.3289
▁bolster	-12.3289
▁undertaking	-12.3289
▁Sparta	-12.3289
▁commute	-12.3289
▁Tiber	-12.3289
▁Sloven	-12.3289
▁Apostoli	-12.3289
▁peasant	-12.3289
▁polygamist	-12.3289
▁sacrament	-12.3289
▁cohesi	-12.3289
▁Stephan	-12.3289
▁pornograph	-12.3289
▁ninja	-12.329
▁dialect	-12.329
▁flint	-12.329
▁acquaintance	-12.329
musement	-12.329
▁viper	-12.329
▁griev	-12.329
▁ribbon	-12.329
wych	-12.329
▁Gonzale	-12.329
nclave	-12.329
▁subfamil	-12.3291
dience	-12.3291
▁Provision	-12.3291
▁dentist	-12.3291
▁monkey	-12.3291
▁toilet	-12.3291
▁detract	-12.3291
▁filter	-12.3292
▁contestant	-12.3294
▁nail	-12.3294
▁turnpike	-12.3294
▁bench	-12.3294
▁Sabre	-12.3295
▁stirr	-12.3295
▁punch	-12.3296
▁Keep	-12.3296
urname	-12.3296
▁systematic	-12.3296
adys	-12.3297
▁revisit	-12.3297
rigger	-12.3298
▁Wr	-12.3298
pg	-12.3298
▁Slav	-12.3298
▁lust	-12.3298
▁Epi	-12.3298
▁orphan	-12.3299
▁Fun	-12.3299
▁Montenegrin	-12.3299
▁urn	-12.3299
mala	-12.33
▁scripture	-12.33
▁turnover	-12.3302
▁smash	-12.3303
▁desk	-12.3304
▁Model	-12.3304
▁wrapp	-12.3304
▁confession	-12.3306
athed	-12.3307
▁populariz	-12.3307
ournament	-12.3308
▁Should	-12.3308
▁Settle	-12.3309
▁Alek	-12.3309
itual	-12.3309
guan	-12.331
▁chee	-12.3311
nau	-12.3311
▁unpa	-12.3312
▁716	-12.3313
haracteristics	-12.3313
▁blessing	-12.3313
▁disk	-12.3315
▁allegor	-12.3315
▁Craw	-12.3315
▁Statu	-12.3315
▁Patrol	-12.3317
▁Step	-12.3317
▁Colton	-12.3317
▁Husse	-12.3317
rero	-12.3319
balla	-12.332
▁posthumously	-12.332
▁vent	-12.3322
wrink	-12.3325
▁Santo	-12.3326
▁Mata	-12.3326
▁Duma	-12.3327
bade	-12.3327
▁Buchan	-12.3332
▁dose	-12.3332
▁Marco	-12.3332
▁airb	-12.3336
▁nut	-12.3342
mac	-12.3343
▁conspi	-12.3344
▁Stup	-12.3348
▁Ahm	-12.3352
▁grind	-12.3354
▁defect	-12.3354
cell	-12.3354
▁centr	-12.3356
▁Bud	-12.3357
▁Aut	-12.3358
▁Trap	-12.3359
▁Singer	-12.3362
▁aide	-12.3364
▁nitro	-12.3369
▁metaboli	-12.3369
▁reservation	-12.3371
verness	-12.3376
▁Flemi	-12.3377
▁Eat	-12.3379
▁naya	-12.338
▁Wid	-12.3383
▁Fé	-12.3384
eater	-12.3385
▁contracepti	-12.3386
▁compu	-12.3393
rf	-12.3394
pert	-12.3395
▁overrun	-12.3396
use	-12.3396
▁ioniz	-12.3396
▁Marcell	-12.3398
▁Whe	-12.3403
FC	-12.3403
▁admirer	-12.3404
▁Anup	-12.3406
fish	-12.3421
▁anatom	-12.3421
axa	-12.3422
▁justif	-12.3423
88	-12.3427
▁Waldo	-12.3429
▁specifi	-12.3434
uman	-12.3438
PC	-12.3442
▁herbivore	-12.3442
nelli	-12.3444
▁taper	-12.3446
▁Halla	-12.3447
▁Maids	-12.345
▁myceli	-12.3452
▁spo	-12.3452
▁Petri	-12.3457
▁Shand	-12.3457
▁Halle	-12.3458
▁enforc	-12.346
▁Save	-12.3463
▁clad	-12.3463
▁MM	-12.3465
oundtrack	-12.3466
tations	-12.3467
▁refine	-12.3469
▁flora	-12.347
iage	-12.3474
▁ribosome	-12.3478
aron	-12.3478
▁pic	-12.3481
inae	-12.3486
▁cello	-12.3489
▁categori	-12.3496
SH	-12.3498
anxi	-12.35
▁communicat	-12.3502
oliday	-12.3504
gale	-12.3505
▁Uday	-12.3505
cu	-12.3509
▁uni	-12.3511
▁elevate	-12.3512
corn	-12.3513
▁Macke	-12.3521
▁forgive	-12.3522
▁Mine	-12.3523
econstruction	-12.3527
▁gro	-12.354
esert	-12.3544
tude	-12.3551
MA	-12.3554
▁Fitz	-12.3555
▁traveller	-12.3557
▁Leg	-12.3558
▁Change	-12.3561
rek	-12.3562
arriage	-12.3563
▁Bla	-12.3567
ub	-12.3567
CI	-12.3572
▁Pont	-12.3573
▁Nol	-12.3579
▁plea	-12.3581
▁casua	-12.3593
▁weir	-12.3594
▁Gal	-12.3603
▁fare	-12.3606
nym	-12.3607
▁Lyd	-12.3608
▁lambs	-12.3618
span	-12.3626
crub	-12.3626
ntry	-12.3627
▁infiltrate	-12.363
▁Trans	-12.3631
▁Shank	-12.3634
AP	-12.364
▁volt	-12.3649
▁stowa	-12.365
aak	-12.3652
▁Fac	-12.3655
fold	-12.3655
ute	-12.366
ulation	-12.3661
▁Mol	-12.3662
romiscu	-12.3667
▁recur	-12.3674
▁annu	-12.3675
gras	-12.3676
▁Salm	-12.3678
▁Plant	-12.3683
arm	-12.3687
▁discus	-12.3714
▁Evi	-12.3714
▁Beatt	-12.3716
▁dop	-12.3719
epe	-12.3722
▁Hern	-12.3725
openha	-12.3733
▁aux	-12.3744
▁prophe	-12.3747
▁purit	-12.3748
▁burge	-12.375
▁nomen	-12.3752
▁Osa	-12.3758
itul	-12.376
band	-12.3762
direct	-12.3771
hiro	-12.3779
▁phenomena	-12.378
ffect	-12.3781
▁substitut	-12.3784
▁Fil	-12.3785
▁Administrati	-12.3795
▁instinct	-12.3799
▁Fre	-12.3802
kla	-12.3804
▁duel	-12.3808
▁Rev	-12.3817
devil	-12.3827
▁CB	-12.3829
▁characterize	-12.3831
▁134	-12.3831
sign	-12.3841
▁relocate	-12.3842
▁Heron	-12.3847
fol	-12.3848
rical	-12.3848
▁Rotte	-12.3852
nacle	-12.3857
rigg	-12.3859
▁Unc	-12.3878
▁mo	-12.388
▁mess	-12.389
▁Minerv	-12.3895
▁Suzu	-12.3897
unge	-12.3903
wild	-12.3912
▁inflat	-12.3916
lateral	-12.3917
moor	-12.392
▁Masa	-12.3921
court	-12.3922
WB	-12.3922
Africa	-12.3923
memorial	-12.3923
▁Astr	-12.3923
accessib	-12.3924
discover	-12.3926
ust	-12.393
TO	-12.3931
Paul	-12.3932
▁Rum	-12.3932
▁Bl	-12.3934
▁geolog	-12.3935
▁contra	-12.3945
▁Bate	-12.3949
▁Ying	-12.3952
▁uno	-12.3963
unders	-12.397
▁allude	-12.3973
▁revolve	-12.3973
▁Buddh	-12.3973
▁Twel	-12.398
lent	-12.3981
pine	-12.3982
▁Candidat	-12.3985
▁tar	-12.399
▁subsid	-12.3996
gassi	-12.4002
▁coordinate	-12.4005
▁Feel	-12.401
▁Palest	-12.4014
IF	-12.4014
nan	-12.4021
undar	-12.4021
▁eclipse	-12.4022
▁Ivor	-12.4023
▁Kes	-12.4027
▁scen	-12.4031
CM	-12.4031
▁Lite	-12.4032
▁bidd	-12.4033
▁Nest	-12.4034
▁Gros	-12.4038
erran	-12.4048
onal	-12.405
▁monast	-12.4057
▁referenc	-12.4061
▁digit	-12.407
▁automat	-12.4073
imeter	-12.4076
▁hypothe	-12.4076
▁mall	-12.4077
rdan	-12.4077
▁cyclo	-12.4078
▁revolv	-12.408
▁shower	-12.4081
▁delegat	-12.4085
▁denie	-12.4085
hari	-12.4085
RS	-12.4089
affir	-12.4093
master	-12.4093
ivor	-12.4095
eration	-12.4096
toba	-12.4097
▁beard	-12.4097
▁Rou	-12.4097
▁Tac	-12.4097
ectar	-12.4108
▁Khe	-12.4108
▁equi	-12.411
▁erupt	-12.4112
libr	-12.4113
weig	-12.4116
scopic	-12.4116
ounterfeit	-12.412
ollaboration	-12.412
asualties	-12.412
▁Cope	-12.4122
▁Reflecti	-12.4122
▁catastroph	-12.4122
▁disillusion	-12.4122
▁Beaufighter	-12.4122
▁Conflict	-12.4122
▁GCSE	-12.4122
▁Illustrated	-12.4122
▁Increasing	-12.4122
▁Inspir	-12.4122
▁Neoscapteriscus	-12.4122
▁Roadblock	-12.4122
▁disgrace	-12.4122
▁forfeit	-12.4122
▁indulge	-12.4122
▁lanthanide	-12.4122
▁meadow	-12.4122
▁mislead	-12.4122
▁monologue	-12.4122
▁overshadow	-12.4122
▁peptide	-12.4122
▁predominate	-12.4122
▁stegosauri	-12.4122
▁utilis	-12.4122
▁Kaufman	-12.4122
▁deprecati	-12.4122
▁dissatisf	-12.4122
▁Ancona	-12.4122
▁Antiquit	-12.4122
▁affiliation	-12.4122
▁cistern	-12.4122
▁bayonet	-12.4122
▁Citizen	-12.4122
▁frighten	-12.4122
▁pedestrian	-12.4122
▁cautious	-12.4122
▁Astronom	-12.4122
▁mechaniz	-12.4122
▁impersonati	-12.4122
▁indenture	-12.4122
▁paradox	-12.4122
▁ceramic	-12.4122
▁linebacker	-12.4122
▁Gibbons	-12.4122
▁minigame	-12.4122
▁Bengal	-12.4122
▁clue	-12.4122
▁jersey	-12.4122
▁miniature	-12.4122
▁precinct	-12.4122
▁Propert	-12.4122
▁Murchad	-12.4122
▁Predator	-12.4123
édér	-12.4123
▁rewrit	-12.4123
▁intruder	-12.4123
▁Muang	-12.4123
▁Gryllotalpa	-12.4123
▁clause	-12.4123
▁Multi	-12.4123
vigat	-12.4123
▁Turtle	-12.4123
▁overpass	-12.4123
anasi	-12.4123
▁african	-12.4123
▁Knowles	-12.4124
▁Scho	-12.4124
venir	-12.4124
▁Narayan	-12.4124
▁quarry	-12.4124
▁episcopa	-12.4124
▁dockyard	-12.4124
▁Glid	-12.4124
▁simulator	-12.4124
▁guess	-12.4124
▁relent	-12.4124
▁Naples	-12.4125
▁screw	-12.4125
▁Nubia	-12.4125
▁Scra	-12.4125
▁Edmonto	-12.4125
▁tilt	-12.4125
udders	-12.4125
brittle	-12.4125
▁magnate	-12.4125
▁boulevard	-12.4126
▁Guti	-12.4126
elief	-12.4126
▁subord	-12.4126
▁immers	-12.4127
▁119	-12.4127
▁Senna	-12.4127
▁Shrine	-12.4127
▁craftsman	-12.4127
▁spectroscop	-12.4128
GS	-12.4128
▁undermine	-12.4129
▁MeV	-12.4129
▁emission	-12.413
tirtha	-12.413
pplicant	-12.413
▁Zionis	-12.4131
▁Moto	-12.4131
▁Editor	-12.4131
▁Gaul	-12.4132
deroga	-12.4133
aving	-12.4134
▁uphold	-12.4134
▁carnival	-12.4135
▁mutin	-12.4135
▁luxur	-12.4135
▁Spot	-12.4136
▁Pesca	-12.4136
▁moth	-12.4136
▁Tjo	-12.4136
▁Grow	-12.4136
▁Enriqu	-12.4137
▁animator	-12.4138
▁Falcon	-12.4138
▁Tsar	-12.4139
▁cheat	-12.414
▁anxi	-12.414
▁investigator	-12.414
▁Direction	-12.4141
TB	-12.4141
▁rational	-12.4143
ozi	-12.4143
▁Nara	-12.4144
cepti	-12.4146
▁Rodr	-12.4146
▁Soma	-12.4146
▁centen	-12.4147
▁intrigu	-12.4148
drome	-12.4149
▁Location	-12.4149
▁hacker	-12.415
▁Cai	-12.4151
kward	-12.4153
▁archa	-12.4155
▁flip	-12.4156
▁claimant	-12.4156
demn	-12.4156
geon	-12.4157
▁Coron	-12.4159
▁Chul	-12.4159
HO	-12.4159
▁hil	-12.4159
ridge	-12.416
▁dip	-12.4162
Dyne	-12.4164
▁ferre	-12.4164
▁contributor	-12.4166
▁navigat	-12.4166
▁TH	-12.4167
▁Brom	-12.4167
▁trawl	-12.4168
▁facto	-12.4169
▁Licen	-12.417
polis	-12.4171
anche	-12.4171
▁radiat	-12.4173
assic	-12.4173
▁sple	-12.4174
▁composit	-12.4177
▁offence	-12.4178
▁chant	-12.4179
▁Summ	-12.4182
ongregationalist	-12.4183
▁vest	-12.4186
▁fluoride	-12.4187
iful	-12.4188
ropagand	-12.419
deacon	-12.4192
Fix	-12.4194
▁Academic	-12.4194
▁Kama	-12.4195
▁Screen	-12.4195
▁cooperate	-12.4197
▁flags	-12.4198
dden	-12.4199
▁grat	-12.42
▁Pick	-12.4202
▁fuck	-12.4202
rctic	-12.4203
▁swimmer	-12.4204
▁discriminat	-12.4205
▁Usu	-12.4211
▁Alder	-12.4214
▁spurr	-12.4217
▁playground	-12.4222
▁Aware	-12.4222
peat	-12.4224
▁Lucia	-12.4226
▁centimeter	-12.4228
lles	-12.4232
▁supplier	-12.4237
essel	-12.424
rake	-12.4254
▁fibre	-12.4256
▁analyse	-12.4261
▁Sv	-12.4261
▁Emmet	-12.4261
▁Petr	-12.4261
anjeev	-12.4263
▁rigg	-12.4265
▁tire	-12.4266
▁Candidate	-12.4269
▁abus	-12.4274
pard	-12.4278
▁impli	-12.4279
▁casualt	-12.4281
▁Vin	-12.4281
rvis	-12.4283
▁expend	-12.4284
▁Tar	-12.429
▁oars	-12.4295
▁Serbia	-12.4299
▁Wilt	-12.43
apse	-12.4303
▁economical	-12.4305
▁Jona	-12.4307
▁Mw	-12.4311
▁Boot	-12.432
ollar	-12.4326
▁Lea	-12.4327
▁rever	-12.4329
▁yea	-12.433
ik	-12.4334
▁cry	-12.4336
▁Heat	-12.4346
▁Shoe	-12.435
▁conscript	-12.435
▁Marin	-12.4352
mplain	-12.4352
lder	-12.4353
▁Monte	-12.4357
▁dub	-12.4359
▁Pand	-12.4359
▁Pet	-12.436
▁Malt	-12.4366
▁simulate	-12.4368
▁salv	-12.4372
▁Ein	-12.4372
avia	-12.4373
artbreak	-12.4384
▁Carolin	-12.4385
ost	-12.4387
▁hawk	-12.4391
daga	-12.4393
▁Scotti	-12.4396
▁wit	-12.44
ime	-12.4405
▁encod	-12.4411
▁Andre	-12.4418
idt	-12.4418
▁mal	-12.4422
▁herb	-12.4427
DA	-12.4428
zam	-12.4431
▁Nois	-12.4434
▁improvis	-12.4439
▁hind	-12.444
▁Nurs	-12.444
BI	-12.4441
▁confer	-12.4451
▁sponsors	-12.4452
rop	-12.4454
▁Dami	-12.4454
ragg	-12.4455
▁nett	-12.4457
44	-12.4462
▁afore	-12.4463
▁pr	-12.4464
▁Tyl	-12.4466
ei	-12.4467
▁Bu	-12.4468
mede	-12.4471
KO	-12.4474
apa	-12.4478
torial	-12.4485
nette	-12.449
▁Wilk	-12.4493
▁reasonabl	-12.4493
▁ent	-12.4496
▁Try	-12.4501
late	-12.4506
ora	-12.4512
lick	-12.4517
▁Mayo	-12.4523
▁Chao	-12.4526
amas	-12.453
▁patche	-12.4531
▁Please	-12.4536
▁Neo	-12.4549
▁RE	-12.4554
▁Rous	-12.4554
▁Chun	-12.4557
▁Rud	-12.4559
▁Structure	-12.4561
anches	-12.4561
▁Ag	-12.4567
ignificant	-12.4576
▁NA	-12.4576
standing	-12.4582
▁Barbad	-12.4586
▁Archi	-12.4597
▁Pap	-12.4597
▁Ker	-12.4599
tar	-12.4601
▁vibra	-12.4607
▁Romantic	-12.4613
tones	-12.4617
▁Colum	-12.4617
nic	-12.4618
▁Kova	-12.4619
ps	-12.462
egal	-12.4622
lugg	-12.4625
▁Tami	-12.4626
tto	-12.4626
egie	-12.4633
iracle	-12.4634
▁infiltrat	-12.464
36	-12.4642
version	-12.4646
polit	-12.4648
each	-12.4649
▁foreigner	-12.4656
NU	-12.4658
▁Iz	-12.4663
▁Khme	-12.4664
▁wav	-12.4666
fu	-12.4667
▁Use	-12.4671
▁donate	-12.4672
orian	-12.4673
▁tun	-12.4674
▁noct	-12.4683
▁Commerc	-12.4687
rest	-12.4693
▁Jama	-12.4693
troph	-12.4694
▁Hom	-12.4696
▁stud	-12.47
▁Johan	-12.4708
▁Cliff	-12.4711
▁viole	-12.4712
▁RP	-12.4728
algar	-12.473
▁stabilize	-12.4732
robe	-12.4737
▁induce	-12.4739
itness	-12.474
▁spli	-12.4741
uperior	-12.4747
▁caste	-12.475
▁happi	-12.4753
ador	-12.4755
▁ul	-12.4761
front	-12.4764
obia	-12.4771
▁behead	-12.4772
intend	-12.4775
▁longitud	-12.4783
qualifi	-12.4784
▁Seas	-12.4803
▁126	-12.4816
wine	-12.4821
▁Blanc	-12.4821
▁lu	-12.4823
wheel	-12.483
pool	-12.4831
valid	-12.4831
fleet	-12.4832
plus	-12.4832
consistent	-12.4832
connect	-12.4832
film	-12.4832
grow	-12.4833
enber	-12.4835
chemical	-12.4836
agger	-12.4837
ppen	-12.4837
27	-12.4837
▁imag	-12.4841
resisti	-12.4846
llier	-12.4847
▁Saw	-12.485
clos	-12.4851
zo	-12.4852
▁woo	-12.4853
▁repl	-12.4866
▁stylist	-12.4866
ckes	-12.4868
▁dipp	-12.4875
▁mous	-12.4876
BM	-12.4877
▁Naga	-12.4882
gg	-12.4882
▁Helleni	-12.4884
omato	-12.4894
stop	-12.4896
vann	-12.4899
▁Barn	-12.49
▁Cur	-12.4901
arcelo	-12.4904
▁explod	-12.4905
▁penal	-12.4911
▁Spi	-12.4913
cuse	-12.4916
▁Saf	-12.4917
urious	-12.4919
▁fibr	-12.4922
stina	-12.4923
hook	-12.4923
poly	-12.4928
aux	-12.4934
▁Heid	-12.4934
▁relativ	-12.4935
cope	-12.4936
▁Slo	-12.4947
ogen	-12.4952
▁Cruiser	-12.4961
▁suppose	-12.4961
▁Bibl	-12.4962
▁Gua	-12.4963
turmo	-12.4968
▁Chad	-12.497
▁lip	-12.4971
wing	-12.4972
▁310	-12.4972
▁linguist	-12.4973
▁pill	-12.4976
ump	-12.4977
emia	-12.498
fork	-12.4983
▁rim	-12.4984
brough	-12.4988
▁chari	-12.4988
▁stereotyp	-12.4988
atric	-12.4988
▁lik	-12.4992
▁App	-12.4994
▁salvage	-12.4998
▁predat	-12.5004
▁physi	-12.5005
base	-12.5006
▁Altar	-12.5006
▁ob	-12.5007
llt	-12.5013
olera	-12.5016
▁Webb	-12.5018
▁kidnap	-12.5019
▁Advertis	-12.502
derland	-12.502
▁skelet	-12.5021
▁exempt	-12.5021
imultaneous	-12.5023
▁quarte	-12.5023
▁volcan	-12.5024
▁infra	-12.5025
irror	-12.5026
▁Athlet	-12.5026
▁Specific	-12.5027
▁sock	-12.5029
▁Relations	-12.5031
▁Experiment	-12.5031
▁Graphic	-12.5031
▁Husband	-12.5031
▁Kaspar	-12.5031
▁Polynesia	-12.5031
▁Prefecture	-12.5031
▁Shropshire	-12.5031
▁appellation	-12.5031
▁camouflage	-12.5031
▁counsel	-12.5031
▁deprive	-12.5031
▁discredit	-12.5031
▁folktale	-12.5031
▁inflammat	-12.5031
▁merchandis	-12.5031
▁regeneration	-12.5031
▁reissue	-12.5031
▁serpent	-12.5031
▁surreal	-12.5031
▁unconscious	-12.5031
▁unsuit	-12.5031
▁Biscay	-12.5031
▁Episode	-12.5031
▁Tasmania	-12.5031
▁Zartan	-12.5031
▁bureaucra	-12.5031
▁purported	-12.5031
▁Application	-12.5031
▁honeyeater	-12.5031
▁theropod	-12.5031
▁nostalgi	-12.5031
▁Lombard	-12.5031
▁abdicat	-12.5031
▁cigarette	-12.5031
▁ellip	-12.5031
▁steroid	-12.5031
▁ligament	-12.5031
▁snip	-12.5031
▁Essay	-12.5031
▁Border	-12.5031
▁Expert	-12.5031
▁illusion	-12.5031
▁sublim	-12.5031
▁STD	-12.5031
▁versatil	-12.5031
▁blog	-12.5031
▁intoxicat	-12.5031
▁Liberator	-12.5032
▁racquet	-12.5032
▁barbette	-12.5032
▁Faust	-12.5032
▁Taiwan	-12.5032
▁Pampa	-12.5032
▁drastic	-12.5032
▁Sudan	-12.5032
▁blond	-12.5032
▁Thrill	-12.5032
▁Resident	-12.5032
oneymoon	-12.5032
▁Vincent	-12.5032
▁tornado	-12.5032
▁cadet	-12.5032
▁Sophi	-12.5033
▁incapa	-12.5033
▁lubrica	-12.5033
▁riddle	-12.5033
▁pause	-12.5033
▁Fortuna	-12.5033
▁vector	-12.5033
▁proposition	-12.5033
▁gangster	-12.5033
cysti	-12.5033
▁beetle	-12.5033
▁Alleg	-12.5033
▁Birkin	-12.5033
▁microlight	-12.5034
▁dictatorship	-12.5034
▁Leaf	-12.5034
rebrand	-12.5034
▁genom	-12.5034
▁balloon	-12.5035
gara	-12.5035
▁brake	-12.5036
▁frau	-12.5036
▁Stamp	-12.5036
▁Darling	-12.5036
▁surf	-12.5037
▁Meso	-12.5037
▁tiger	-12.5038
▁diverge	-12.5039
▁minist	-12.5039
▁Normal	-12.504
▁Ports	-12.504
▁superb	-12.5041
▁finer	-12.5041
▁Mouse	-12.5041
▁Norsk	-12.5041
▁restraint	-12.5041
▁stale	-12.5041
▁exemption	-12.5041
▁parall	-12.5042
▁Zim	-12.5042
▁Horro	-12.5042
▁catechism	-12.5043
ogns	-12.5044
▁kidnapp	-12.5044
93	-12.5045
▁Guill	-12.5045
▁Otra	-12.5046
▁Title	-12.5048
▁banish	-12.5048
▁Magnus	-12.5048
▁pawn	-12.5048
▁Webber	-12.5049
ucket	-12.505
▁Eisen	-12.505
▁Airways	-12.5052
▁fable	-12.5053
▁snapp	-12.5053
▁grad	-12.5054
▁Pré	-12.5056
▁Winche	-12.5058
▁Turn	-12.5059
▁curtai	-12.5059
▁exchang	-12.506
▁auditor	-12.5061
huan	-12.5061
▁lance	-12.5061
▁Raven	-12.5062
▁deci	-12.5063
▁Salaa	-12.5063
gau	-12.5063
▁chronicler	-12.5063
nderson	-12.5064
▁modernize	-12.5064
▁caes	-12.507
▁verif	-12.507
▁minus	-12.507
▁hare	-12.5072
▁Relat	-12.5073
rtha	-12.5075
uk	-12.5077
▁cosm	-12.5079
▁Hab	-12.508
▁Musician	-12.5081
dian	-12.5081
▁pri	-12.5082
▁aborti	-12.5087
▁Mosc	-12.5088
▁Ganga	-12.5088
▁Miran	-12.5088
walk	-12.5091
▁Novo	-12.5093
▁Corner	-12.5095
▁HMC	-12.5096
▁Chel	-12.51
inawa	-12.5101
▁Tulli	-12.5101
tron	-12.5102
▁Lenin	-12.5104
▁Crimin	-12.5105
▁Demon	-12.5105
▁Lat	-12.5107
▁McGu	-12.5108
▁fertilis	-12.5108
▁prow	-12.5108
▁Duck	-12.5112
▁objector	-12.5113
▁ascetic	-12.5115
▁Tactic	-12.5116
ockyard	-12.5116
▁NP	-12.5116
▁Bethe	-12.5121
▁col	-12.5121
▁Jaya	-12.5121
▁bolt	-12.5122
▁352	-12.5126
▁Thorn	-12.5134
▁Angu	-12.5136
▁Punt	-12.5136
▁expressive	-12.5137
▁Million	-12.5138
▁horribl	-12.5139
▁Yat	-12.514
esel	-12.5142
▁Wilbur	-12.5142
▁mandate	-12.5143
▁Lana	-12.5144
▁herald	-12.5144
▁seme	-12.5145
gua	-12.5145
▁pitche	-12.5147
▁Jor	-12.5147
▁typesett	-12.5147
▁tile	-12.5148
▁pos	-12.5148
▁Dreams	-12.5149
▁Genev	-12.515
tom	-12.5151
▁amass	-12.5153
▁stadi	-12.5154
ving	-12.5155
▁Shru	-12.5159
▁neur	-12.5159
igma	-12.5163
▁aggress	-12.5163
▁Irv	-12.5163
▁271	-12.5164
▁Musc	-12.5164
▁influ	-12.5165
▁fool	-12.5165
hange	-12.5166
▁tort	-12.5168
▁depos	-12.5169
▁Wend	-12.517
▁vacanc	-12.5171
▁Teng	-12.5176
▁Palac	-12.518
▁prot	-12.5181
etus	-12.5182
▁Dynam	-12.5183
rout	-12.5183
▁uter	-12.5187
▁intern	-12.5193
▁pel	-12.5194
iji	-12.5194
▁sideline	-12.5197
▁drumm	-12.5198
▁eva	-12.5202
▁lookout	-12.5207
▁Marle	-12.5208
our	-12.5211
▁abduct	-12.5213
▁Dunde	-12.5214
▁fol	-12.5216
▁automobile	-12.5224
aul	-12.5225
▁solidif	-12.5225
pin	-12.5228
▁Shiz	-12.5236
▁specialize	-12.5236
title	-12.5239
▁sulfo	-12.5239
▁synthe	-12.5243
▁Beav	-12.5244
▁devotee	-12.5247
▁norm	-12.5248
▁Frey	-12.5249
▁hym	-12.525
▁conn	-12.5258
enberg	-12.5262
jm	-12.5262
▁photographer	-12.5266
▁Capri	-12.5272
int	-12.5276
▁axe	-12.5277
▁parad	-12.5282
▁minds	-12.5283
▁Rank	-12.5285
▁silen	-12.5291
▁Cin	-12.5296
amia	-12.5299
▁Cag	-12.5307
▁localit	-12.5307
▁Denard	-12.5309
▁Roug	-12.531
▁recreate	-12.5312
uation	-12.5314
ircuit	-12.5317
sthetic	-12.5319
▁debat	-12.532
▁symbolize	-12.5321
thos	-12.5326
▁Pea	-12.5328
▁analyst	-12.5329
▁excavate	-12.5329
grass	-12.5334
▁Stern	-12.5335
teven	-12.5335
▁horrifi	-12.534
rington	-12.5341
▁lin	-12.5345
▁Sl	-12.5345
▁continual	-12.5348
▁Pris	-12.5348
▁Role	-12.5353
▁gu	-12.5366
▁Hold	-12.537
▁205	-12.5373
arcel	-12.5374
cing	-12.5375
▁catcher	-12.5377
▁minded	-12.5377
▁reserv	-12.5381
▁Spec	-12.5383
▁Casi	-12.5384
otta	-12.5385
▁Swan	-12.5393
bor	-12.5395
kh	-12.5397
▁node	-12.5398
tute	-12.54
ntiquari	-12.5409
▁covert	-12.5411
▁Jains	-12.5413
▁launches	-12.5413
oni	-12.5416
ygo	-12.5417
▁Dop	-12.542
erma	-12.5422
▁nick	-12.5425
VI	-12.5427
▁mapp	-12.5431
ulous	-12.5431
▁XV	-12.5439
▁cho	-12.5445
▁Hipp	-12.5446
▁Dollo	-12.5451
▁glu	-12.5451
▁Gr	-12.5455
▁Sites	-12.5458
▁Aske	-12.5464
▁disperse	-12.5465
eopard	-12.5467
leba	-12.5467
▁Gran	-12.5475
▁Balla	-12.5478
▁dung	-12.5479
esha	-12.5482
tje	-12.5483
mit	-12.5486
lett	-12.5491
▁burg	-12.5495
inta	-12.5499
ister	-12.5502
▁coating	-12.5502
▁Pinkne	-12.5503
▁q	-12.5503
▁noticeabl	-12.5503
bra	-12.5509
luk	-12.5509
ino	-12.551
ID	-12.5515
▁trac	-12.5518
▁sir	-12.552
▁spectra	-12.5522
avya	-12.5523
▁Rudol	-12.5528
▁narrate	-12.5534
arpa	-12.5534
▁bra	-12.5542
elve	-12.5545
▁Mosqu	-12.5548
doubted	-12.5548
ocal	-12.5552
etawa	-12.5565
rator	-12.5573
ruth	-12.5576
▁Florenc	-12.559
▁wa	-12.559
lide	-12.5591
achi	-12.5595
odu	-12.5599
▁knot	-12.56
▁owe	-12.5602
▁Prue	-12.5605
▁scru	-12.5605
viole	-12.5607
hen	-12.5613
abha	-12.5623
bei	-12.5636
▁Burg	-12.5637
▁Sell	-12.5639
▁denounc	-12.564
phobi	-12.5649
▁Thie	-12.5663
istance	-12.5666
▁catche	-12.5672
nez	-12.5678
▁Em	-12.5684
aum	-12.5686
lia	-12.5695
inder	-12.5697
Arts	-12.5705
idar	-12.5711
tte	-12.5711
elody	-12.5712
cub	-12.5714
▁repel	-12.5719
ppe	-12.572
▁Gab	-12.5726
aunt	-12.5729
▁Gru	-12.573
▁Hutchin	-12.5737
even	-12.5743
▁solu	-12.5743
▁Adol	-12.5746
dike	-12.5747
▁violate	-12.5748
series	-12.5749
rugg	-12.5751
▁manse	-12.5755
athl	-12.5756
▁Samo	-12.576
ffen	-12.5777
▁Schne	-12.5788
▁ribosom	-12.5788
▁Pola	-12.5791
classifi	-12.5791
ound	-12.5794
pair	-12.5795
sure	-12.5801
▁Augustin	-12.5805
▁fabric	-12.5806
▁slop	-12.5807
buck	-12.5811
▁seduct	-12.5813
chase	-12.5817
skirt	-12.5822
▁Democra	-12.583
▁spa	-12.583
tooth	-12.583
forward	-12.5832
tower	-12.5832
▁bla	-12.5838
deck	-12.5839
Pro	-12.584
GB	-12.5842
sleep	-12.5843
▁Lt	-12.5844
address	-12.5845
Rou	-12.585
person	-12.5852
▁ca	-12.5853
▁Brama	-12.5854
maker	-12.5854
ungi	-12.5855
FI	-12.5856
▁comet	-12.5861
▁Pur	-12.5861
Las	-12.5862
▁farthe	-12.5863
udd	-12.587
▁Nag	-12.587
▁adheren	-12.587
▁bridg	-12.5873
▁Rik	-12.5874
rtificial	-12.5889
into	-12.5892
▁Harri	-12.5892
▁Clar	-12.5896
endra	-12.5896
mbition	-12.5897
▁Vale	-12.5899
▁evaluate	-12.59
geant	-12.5903
▁dismisse	-12.5904
▁prom	-12.591
rap	-12.5915
▁imitat	-12.5916
▁Emer	-12.5916
▁chromati	-12.5922
▁Plat	-12.5924
look	-12.5927
neous	-12.5929
dash	-12.5938
▁Cres	-12.5942
▁Ava	-12.5944
▁easter	-12.5946
vestment	-12.5946
cou	-12.5951
▁Raj	-12.5952
▁possesse	-12.5953
▁Associate	-12.5956
ego	-12.5959
utton	-12.5961
▁Shab	-12.5962
her	-12.5965
▁harmonic	-12.5965
Vall	-12.5969
▁Colleg	-12.5972
▁creativ	-12.5976
▁Hari	-12.5979
▁rar	-12.5985
nik	-12.5988
list	-12.5988
▁conve	-12.5994
▁swim	-12.5996
▁precis	-12.5998
phae	-12.5999
▁intrigue	-12.6
flue	-12.6002
▁Ly	-12.6004
▁hack	-12.6006
▁diar	-12.6007
peake	-12.6009
▁glid	-12.6011
▁compli	-12.6012
ibar	-12.6013
▁transl	-12.6014
▁Kay	-12.6018
▁posit	-12.6018
▁descripti	-12.6021
▁rib	-12.6022
rke	-12.6023
elanchol	-12.6024
▁rema	-12.6026
mbass	-12.6029
maxilla	-12.603
▁Multipl	-12.603
▁symbio	-12.6031
▁disapprov	-12.6031
▁Asylum	-12.6031
▁Aurora	-12.6031
▁Entertainer	-12.6031
▁Manufactur	-12.6031
▁Mushroom	-12.6031
▁Newspaper	-12.6031
▁brainwash	-12.6031
▁clinch	-12.6031
▁correlat	-12.6031
▁effig	-12.6031
▁entrepreneur	-12.6031
▁handbag	-12.6031
▁hieroglyph	-12.6031
▁incompeten	-12.6031
▁militant	-12.6031
▁paleontologist	-12.6031
▁polypeptide	-12.6031
▁turbulen	-12.6031
▁unfavorabl	-12.6031
▁Brilliant	-12.6031
▁Philosoph	-12.6031
▁Tahiti	-12.6031
▁carpet	-12.6031
▁quarrel	-12.6031
▁Gentlem	-12.6031
▁saxophon	-12.6031
▁unjust	-12.6031
▁Pongola	-12.6031
▁instalment	-12.6031
▁sarsen	-12.6031
▁undeniabl	-12.6031
▁scroll	-12.6031
▁Mustang	-12.6031
▁avatar	-12.6031
▁Adapt	-12.6031
▁Balkan	-12.6031
▁organelle	-12.6031
▁precept	-12.6031
▁superstitio	-12.6031
▁Jakob	-12.6031
pecul	-12.6031
▁oblig	-12.6032
▁franc	-12.6032
▁Bharat	-12.6032
▁Session	-12.6032
▁spindle	-12.6032
▁Beaufort	-12.6032
▁Ceratopsia	-12.6032
▁Digg	-12.6032
▁Suc	-12.6032
▁negat	-12.6032
▁bracket	-12.6032
▁saloon	-12.6032
▁Fatima	-12.6032
▁Fourteen	-12.6032
▁cookbook	-12.6032
▁lizard	-12.6032
▁subdue	-12.6032
▁hoist	-12.6032
▁Isthm	-12.6032
▁envoy	-12.6032
▁standpoint	-12.6032
▁solemn	-12.6033
XX	-12.6033
alisade	-12.6033
▁grandios	-12.6033
▁Agaric	-12.6033
▁coffin	-12.6034
▁pub	-12.6034
▁livelihood	-12.6034
topol	-12.6034
utterfl	-12.6034
▁Rhine	-12.6034
▁preface	-12.6034
▁Fellow	-12.6035
▁discount	-12.6035
▁Octavia	-12.6035
▁lobe	-12.6035
▁carbonate	-12.6035
fune	-12.6035
▁corrosi	-12.6035
▁Protest	-12.6035
▁Rail	-12.6035
▁holster	-12.6036
▁Surya	-12.6036
▁obstruction	-12.6036
▁Wynn	-12.6036
▁disabilit	-12.6038
▁mathematician	-12.6038
▁caf	-12.6038
▁fundamentalist	-12.6038
▁elastic	-12.6038
▁Ghara	-12.6038
clusive	-12.6038
▁Termina	-12.6039
▁inhibitor	-12.6039
▁casin	-12.6039
spora	-12.6039
▁hyper	-12.6039
▁Fresh	-12.6039
▁Fan	-12.604
▁gall	-12.604
▁soloist	-12.604
ocre	-12.604
▁Humanit	-12.604
▁stup	-12.604
▁salvo	-12.604
▁puck	-12.604
▁Orient	-12.6041
▁Yog	-12.6042
emographic	-12.6042
▁Astro	-12.6042
▁purge	-12.6043
ermanent	-12.6043
▁waive	-12.6043
▁Steiner	-12.6045
▁silico	-12.6046
▁ferrie	-12.6046
adel	-12.6047
▁Index	-12.6047
▁dragg	-12.6048
▁Revel	-12.6048
▁Titan	-12.6049
▁Barba	-12.6049
▁Job	-12.6051
▁chicken	-12.6052
▁Shade	-12.6052
▁Weiss	-12.6053
▁berth	-12.6053
▁lords	-12.6054
▁Vai	-12.6054
atra	-12.6054
▁digest	-12.6055
rative	-12.6055
▁Luz	-12.6056
rath	-12.6058
▁Moza	-12.6058
▁cull	-12.6061
▁rot	-12.6062
ucas	-12.6063
▁vau	-12.6064
▁rite	-12.6064
▁Peak	-12.6064
▁Blaze	-12.6065
▁preacher	-12.6065
ambeosaur	-12.6065
▁pudding	-12.6066
▁polyg	-12.6066
▁Resor	-12.6066
▁Mono	-12.6067
maine	-12.6069
▁WN	-12.6069
▁indicator	-12.607
▁767	-12.6072
br	-12.6073
▁voca	-12.6073
▁flyby	-12.6074
▁Agent	-12.6074
▁emulat	-12.6074
▁mule	-12.6075
▁Proh	-12.6076
▁slam	-12.6077
▁Prov	-12.6078
▁champ	-12.6081
onna	-12.6083
▁Transition	-12.6083
▁comput	-12.6085
▁lure	-12.6085
▁Dad	-12.6086
▁Petro	-12.6086
arvin	-12.6087
▁isolate	-12.6088
▁Helg	-12.6089
▁intestine	-12.609
▁dwelling	-12.6092
▁agil	-12.6092
ilto	-12.6093
▁overtur	-12.6094
▁proton	-12.6095
▁taxon	-12.6096
▁Lima	-12.6098
▁Associat	-12.6098
cadi	-12.6099
▁embrace	-12.6102
▁numerical	-12.6103
▁Piz	-12.6104
▁Hida	-12.6109
▁Tarant	-12.6109
▁escalat	-12.6112
utic	-12.6114
▁Nc	-12.6118
riction	-12.612
itic	-12.6122
iles	-12.6124
▁pulse	-12.6125
▁contender	-12.6136
▁perch	-12.614
phan	-12.6141
▁Zong	-12.6142
▁Brew	-12.6144
esh	-12.6144
udding	-12.6145
auro	-12.6148
andler	-12.6148
▁sensu	-12.6148
▁Socialis	-12.6148
▁pent	-12.615
▁Dix	-12.6154
▁earnest	-12.6156
china	-12.6157
ripp	-12.6159
▁flax	-12.6163
▁desp	-12.6169
fia	-12.617
▁272	-12.6171
▁cogniti	-12.6175
distinguish	-12.6175
bias	-12.6175
▁satisfactor	-12.6177
▁penn	-12.6179
▁biolog	-12.6182
▁tab	-12.6183
▁Cell	-12.6191
ulk	-12.6196
scribe	-12.6196
spur	-12.6205
▁tre	-12.6208
lush	-12.6211
▁matte	-12.6212
spoke	-12.6215
▁Fift	-12.6223
▁ski	-12.6224
▁gentl	-12.6225
▁Elo	-12.6231
thorn	-12.6236
▁likeness	-12.6236
▁radiate	-12.6242
lp	-12.6244
▁tart	-12.6251
▁Zha	-12.6253
erunner	-12.6255
ple	-12.626
tern	-12.6266
▁Bolet	-12.6271
▁disuse	-12.6276
▁moss	-12.6281
dras	-12.6284
▁overture	-12.6285
rust	-12.6286
▁Cara	-12.629
iece	-12.6291
▁Jacobi	-12.6291
▁Bella	-12.6293
onymous	-12.63
estre	-12.63
verse	-12.6301
▁Osbo	-12.6304
adri	-12.6308
ardi	-12.6313
▁Ez	-12.6315
▁rower	-12.6315
▁polit	-12.6316
▁shine	-12.6317
ervoi	-12.6318
▁Hut	-12.6318
▁rev	-12.6321
urine	-12.6322
▁Iro	-12.6325
▁Banga	-12.6328
mail	-12.633
▁Emi	-12.6332
▁171	-12.6333
▁Connor	-12.6338
▁Grass	-12.6347
▁Wick	-12.6348
▁Paras	-12.635
▁Guards	-12.6354
▁Patti	-12.6355
hil	-12.6357
▁Scene	-12.636
▁iris	-12.6363
▁needle	-12.6363
▁Olive	-12.6364
tisem	-12.6365
▁Vish	-12.637
▁tu	-12.6372
rcade	-12.6382
valent	-12.6385
▁Eas	-12.6392
▁eclips	-12.6394
terior	-12.6395
ference	-12.6399
▁Benn	-12.6409
▁confesse	-12.6422
▁Coal	-12.643
▁Phan	-12.6431
▁285	-12.6433
▁lectur	-12.6439
▁Mack	-12.6441
uppeteer	-12.6444
▁ration	-12.6453
▁193	-12.6459
iar	-12.6461
ixteen	-12.6465
▁Psych	-12.6468
load	-12.6473
▁extras	-12.6478
▁baptis	-12.6483
tin	-12.6488
▁thinker	-12.6495
ello	-12.6496
▁Io	-12.6497
▁lamb	-12.6498
▁Paint	-12.65
osov	-12.6503
raja	-12.6507
▁Yal	-12.6508
▁premi	-12.6512
▁PS	-12.6537
▁Laws	-12.6538
monia	-12.6546
▁Alfons	-12.6549
▁Kil	-12.6557
ecca	-12.6559
▁plott	-12.6564
▁Clea	-12.6579
▁Insu	-12.6581
▁Squad	-12.6582
break	-12.6585
▁physici	-12.6586
▁diag	-12.6588
▁springs	-12.6588
ICE	-12.659
aya	-12.6591
▁siz	-12.6598
rious	-12.6601
▁smil	-12.6606
stated	-12.6608
essin	-12.661
ZA	-12.6616
▁fli	-12.662
▁Cros	-12.6632
▁Ant	-12.6632
arrier	-12.6637
mela	-12.6637
gli	-12.6639
▁Warne	-12.6646
fluent	-12.6656
▁McFa	-12.6659
▁linger	-12.6661
▁telegra	-12.6665
Clock	-12.6673
ved	-12.6678
roy	-12.6679
gic	-12.6679
▁139	-12.6691
ibal	-12.6696
▁Brod	-12.6703
▁vir	-12.6704
▁Luc	-12.6706
▁collaborate	-12.6707
▁Stopp	-12.6718
▁Dicke	-12.672
scene	-12.672
▁Gus	-12.6721
▁McCar	-12.6726
▁Boe	-12.6727
hop	-12.6728
▁drafts	-12.6733
▁poke	-12.6733
grat	-12.6746
rawl	-12.6749
shaw	-12.675
▁dredg	-12.6756
▁Bee	-12.6765
ancer	-12.6766
withstand	-12.6778
rrogate	-12.6785
▁circulate	-12.6786
▁Hens	-12.6789
nold	-12.6794
forth	-12.6796
zak	-12.6797
▁meta	-12.6798
itu	-12.6802
▁stib	-12.6809
▁tempera	-12.6812
ension	-12.6813
netic	-12.6822
atur	-12.6828
▁Ich	-12.6829
▁signifie	-12.683
▁nar	-12.6831
▁Bayer	-12.6837
spect	-12.6839
divid	-12.6841
xe	-12.6849
▁Abus	-12.6868
▁terror	-12.6869
ntire	-12.6876
twe	-12.6876
ousehold	-12.6881
▁Fronti	-12.6885
rard	-12.6885
▁keys	-12.6891
phore	-12.6892
▁mycelia	-12.6909
▁148	-12.6912
▁Kess	-12.6913
▁Piet	-12.6913
▁Sac	-12.6917
gha	-12.6919
▁herbivor	-12.6921
▁intervene	-12.6921
▁relie	-12.6922
▁anthropo	-12.6923
▁machi	-12.6924
▁Surf	-12.6924
▁ascen	-12.6927
▁casual	-12.6927
conclusive	-12.6931
MM	-12.6937
shrink	-12.6939
Carmel	-12.6941
safe	-12.6943
protect	-12.6943
law	-12.6944
ffle	-12.6949
pos	-12.6949
famous	-12.6955
purpose	-12.6956
asteroid	-12.6958
blanc	-12.6963
▁refra	-12.6964
offensive	-12.6965
▁Banks	-12.6967
gia	-12.6971
▁geographic	-12.6972
sworth	-12.6977
Day	-12.6979
▁dependenc	-12.6981
genit	-12.6984
mick	-12.6991
▁headlin	-12.6992
mbulance	-12.6996
▁compen	-12.7004
▁Hass	-12.7007
▁unle	-12.7009
▁Shir	-12.7013
▁Gat	-12.7013
rp	-12.7017
ppearances	-12.7018
▁mare	-12.7021
▁brigad	-12.7021
constitution	-12.7027
▁Conne	-12.7031
aves	-12.7041
ders	-12.7046
verge	-12.705
▁frog	-12.705
▁qualifie	-12.7051
pop	-12.7052
▁agr	-12.7054
▁reelect	-12.7058
▁stylis	-12.7058
rompt	-12.7059
iff	-12.706
▁sla	-12.7066
▁Wool	-12.7073
shot	-12.7075
trud	-12.7076
racks	-12.7077
av	-12.7077
location	-12.708
▁personifi	-12.7082
▁Spe	-12.7082
▁Scar	-12.7083
ylin	-12.7085
dex	-12.7094
▁boil	-12.7094
▁Wei	-12.7096
▁Pac	-12.7104
bane	-12.7105
igator	-12.7106
mere	-12.7106
[...]
