<unk>	0
<s>	0
</s>	0
▁	-2.79167
s	-3.1396
▁the	-3.14841
▁,	-3.32564
▁.	-3.64089
ed	-3.71539
▁of	-3.88327
▁and	-4.00719
▁in	-4.2116
▁to	-4.21999
▁a	-4.26316
ing	-4.41361
y	-4.51158
▁=	-4.54319
▁"	-4.58677
@	-4.86609
▁was	-4.88057
▁The	-4.96449
▁@	-4.99665
▁'	-5.01352
-	-5.08639
e	-5.11924
ly	-5.14747
d	-5.18435
▁that	-5.28132
▁on	-5.29302
▁with	-5.29741
▁for	-5.31463
▁as	-5.41202
▁by	-5.43507
▁)	-5.44474
(	-5.44574
m	-5.47301
▁is	-5.47652
▁be	-5.53155
n	-5.67702
▁his	-5.79515
.	-5.81008
▁at	-5.81814
▁fro	-5.82036
▁were	-5.93709
▁it	-5.94337
▁an	-6.03385
t	-6.07176
▁In	-6.09733
▁he	-6.12062
al	-6.18102
▁had	-6.18908
▁which	-6.21695
th	-6.34294
▁A	-6.36248
▁are	-6.38377
er	-6.38505
▁not	-6.41324
▁;	-6.48927
▁their	-6.5148
▁but	-6.52905
▁first	-6.54556
–	-6.5604
ies	-6.57306
▁:	-6.59349
▁her	-6.61148
▁or	-6.61404
a	-6.61468
also	-6.61895
▁I	-6.67087
▁who	-6.67811
▁have	-6.6914
▁its	-6.70636
▁has	-6.7224
▁one	-6.72582
▁been	-6.75078
▁two	-6.75515
▁He	-6.77796
st	-6.81985
▁year	-6.85584
this	-6.89863
ion	-6.92492
▁after	-6.92576
▁It	-6.92672
▁@,@	-6.93724
on	-6.9422
es	-6.94259
▁time	-6.97071
▁game	-6.97448
▁other	-6.99842
▁C	-7.00611
▁B	-7.00687
▁1	-7.03377
▁into	-7.03905
▁over	-7.03965
▁19	-7.04794
r	-7.06819
▁2	-7.07419
▁would	-7.07957
l	-7.08775
▁more	-7.09532
uch	-7.09593
▁f	-7.1182
o	-7.12151
mber	-7.13079
ce	-7.13437
▁S	-7.16263
▁all	-7.17576
▁she	-7.17997
▁D	-7.18297
▁when	-7.2097
in	-7.22179
▁dur	-7.22522
▁3	-7.23219
▁F	-7.23577
▁up	-7.23956
▁song	-7.24488
▁most	-7.25817
ish	-7.26009
▁play	-7.26488
▁includ	-7.2834
twee	-7.30335
▁only	-7.30688
ity	-7.3118
about	-7.31768
▁him	-7.31824
▁some	-7.32851
▁out	-7.33217
▁again	-7.33303
▁three	-7.33912
▁season	-7.3479
▁On	-7.3565
▁than	-7.36719
le	-7.37977
▁new	-7.38038
▁man	-7.38458
▁through	-7.3873
▁whil	-7.3905
us	-7.39717
ve	-7.40572
▁later	-7.40694
▁part	-7.41024
▁film	-7.42814
▁mad	-7.43099
▁U	-7.44687
▁us	-7.45219
ive	-7.47307
▁M	-7.47854
▁5	-7.48205
ic	-7.48303
an	-7.49292
▁large	-7.49459
▁where	-7.50059
▁second	-7.50696
able	-7.50819
▁New	-7.51587
▁E	-7.51764
▁number	-7.51852
▁4	-7.52691
▁follow	-7.53213
▁This	-7.53558
▁four	-7.54366
ary	-7.54369
▁record	-7.54606
▁call	-7.55201
▁day	-7.5547
▁000	-7.55562
se	-7.55794
▁work	-7.56067
▁before	-7.56194
land	-7.56384
h	-7.56753
▁under	-7.58175
▁use	-7.58195
▁no	-7.58731
▁R	-7.59659
▁can	-7.59925
▁album	-7.60661
▁18	-7.61302
▁end	-7.63561
out	-7.63683
▁being	-7.63759
came	-7.64125
known	-7.64301
▁high	-7.644
▁series	-7.6471
▁area	-7.64784
▁there	-7.6532
est	-7.65785
▁m	-7.66815
▁name	-7.67138
▁both	-7.67146
▁w	-7.68195
though	-7.69048
▁show	-7.69375
▁T	-7.69407
▁P	-7.69787
▁/	-7.69843
▁like	-7.69924
▁L	-7.69968
▁cit	-7.70046
▁6	-7.70157
▁well	-7.70725
▁episode	-7.70803
▁—	-7.71523
▁form	-7.72406
gan	-7.75124
▁found	-7.75254
▁United	-7.75382
▁long	-7.77003
▁century	-7.78374
cause	-7.79169
ever	-7.79587
▁al	-7.79897
▁After	-7.80015
▁them	-7.80309
son	-7.8048
▁sever	-7.80787
▁American	-7.80954
▁10	-7.81219
ation	-7.82777
▁final	-7.83294
▁team	-7.83301
▁John	-7.83817
▁near	-7.83836
ten	-7.84083
▁remain	-7.85164
▁so	-7.85341
▁Brit	-7.85401
i	-7.86429
▁could	-7.86743
▁did	-7.8746
▁20	-7.87579
▁She	-7.8932
▁along	-7.89457
▁un	-7.89707
en	-7.8984
round	-7.90132
▁force	-7.904
▁may	-7.90794
1	-7.91214
▁back	-7.913
▁character	-7.9231
▁release	-7.93332
other	-7.93947
▁War	-7.95047
▁unti	-7.95199
▁start	-7.95423
▁original	-7.96025
▁million	-7.962
▁place	-7.96606
▁As	-7.96734
▁sai	-7.97057
▁people	-7.97232
▁return	-7.97546
▁8	-7.97812
▁earl	-7.98027
▁O	-7.98063
▁km	-7.98224
▁player	-7.9845
▁May	-7.98797
▁main	-7.99151
2	-7.99151
ment	-7.99283
▁7	-7.99366
▁how	-8.00717
▁0	-8.01269
ry	-8.01519
▁North	-8.01803
▁August	-8.02204
▁down	-8.0234
▁South	-8.02359
▁12	-8.02394
▁9	-8.02425
▁ship	-8.02517
▁off	-8.02658
▁At	-8.03502
▁support	-8.03634
▁small	-8.05268
▁life	-8.05458
▁%	-8.0572
▁set	-8.06447
▁Al	-8.06633
▁group	-8.06747
▁Septe	-8.06755
▁de	-8.06816
▁any	-8.06923
▁each	-8.07222
▁point	-8.07284
▁lead	-8.07882
▁German	-8.08139
▁Jun	-8.08298
▁World	-8.08367
▁16	-8.0852
▁see	-8.09256
▁six	-8.09914
▁single	-8.10038
▁result	-8.10488
man	-8.10647
▁appear	-8.10946
ok	-8.11246
▁home	-8.12186
▁attack	-8.1248
ther	-8.12585
▁music	-8.13179
▁own	-8.13331
▁great	-8.13886
▁order	-8.15207
▁line	-8.15415
▁consider	-8.15423
▁state	-8.15443
▁major	-8.15621
▁since	-8.1575
▁do	-8.15752
▁J	-8.15956
if	-8.16046
rom	-8.16109
▁what	-8.17051
▁15	-8.17054
▁Dur	-8.17195
um	-8.17431
9	-8.17858
▁will	-8.1896
age	-8.19087
▁States	-8.1965
▁late	-8.19893
▁An	-8.19961
▁take	-8.20122
ley	-8.20317
ober	-8.20473
▁last	-8.20784
▁Oct	-8.20898
▁air	-8.21176
▁receiv	-8.21186
▁system	-8.21295
$	-8.21429
▁include	-8.21484
▁...	-8.21783
▁week	-8.21995
▁re	-8.22237
4	-8.2244
▁11	-8.22507
▁Jan	-8.22861
rote	-8.23224
▁Ap	-8.23348
[	-8.23442
▁]	-8.23442
▁York	-8.23714
▁famil	-8.24017
▁world	-8.24053
▁17	-8.24078
▁role	-8.24263
▁now	-8.24473
▁reach	-8.24568
▁war	-8.25544
▁won	-8.25586
6	-8.26046
▁child	-8.26121
ril	-8.26286
is	-8.26393
ical	-8.26671
▁due	-8.26698
▁N	-8.27046
▁allow	-8.27544
▁direct	-8.27562
▁run	-8.28225
▁death	-8.28312
very	-8.28404
▁sam	-8.28407
species	-8.2848
▁Be	-8.29064
ese	-8.29645
▁storm	-8.30017
uar	-8.30196
▁England	-8.30317
▁government	-8.30322
▁describ	-8.30446
▁left	-8.3061
▁video	-8.30754
▁short	-8.3083
▁north	-8.30833
ton	-8.31085
▁position	-8.31277
▁attempt	-8.31781
▁30	-8.32082
▁open	-8.32355
▁No	-8.32403
▁side	-8.32464
▁just	-8.3254
▁March	-8.32681
▁event	-8.3272
▁third	-8.32829
▁mov	-8.33225
▁title	-8.33353
▁general	-8.33629
▁Nove	-8.34023
▁previous	-8.34167
▁feature	-8.34382
▁become	-8.34475
▁book	-8.34691
ver	-8.34944
▁design	-8.35053
▁13	-8.3534
▁school	-8.35382
ren	-8.35468
▁make	-8.35977
▁H	-8.36448
▁Dece	-8.36606
▁Man	-8.36794
▁14	-8.37535
▁south	-8.37558
▁K	-8.37827
▁perform	-8.37941
▁develop	-8.38
▁water	-8.38079
▁buil	-8.38312
3	-8.38431
▁base	-8.38502
or	-8.38724
▁head	-8.38749
u	-8.38782
▁His	-8.38815
▁River	-8.38815
▁City	-8.38822
▁There	-8.39797
▁power	-8.3991
▁month	-8.39963
▁When	-8.40084
▁close	-8.40111
▁version	-8.40207
▁publish	-8.40234
▁go	-8.40285
▁G	-8.40318
▁25	-8.4096
▁period	-8.41118
▁men	-8.4135
▁2009	-8.41539
▁2010	-8.41698
▁even	-8.41832
▁local	-8.42184
▁2008	-8.42187
▁best	-8.42439
▁St	-8.43307
▁way	-8.43323
▁National	-8.43383
▁top	-8.43493
▁US	-8.43561
▁church	-8.43828
▁club	-8.44333
▁II	-8.44497
▁W	-8.44776
ance	-8.4478
▁By	-8.45047
▁public	-8.45154
▁still	-8.46362
▁career	-8.46568
5	-8.47015
f	-8.47018
▁100	-8.47021
opical	-8.47024
▁common	-8.47199
▁Jul	-8.47227
▁present	-8.47883
▁site	-8.48185
▁c	-8.48563
▁Howe	-8.48653
▁list	-8.48685
▁change	-8.48723
▁yard	-8.48756
▁old	-8.48832
ous	-8.48863
▁b	-8.49261
▁releas	-8.49345
▁few	-8.49348
company	-8.49645
▁establish	-8.49737
▁next	-8.49821
▁help	-8.49831
▁2007	-8.49834
S	-8.49969
▁led	-8.50148
▁complete	-8.50588
▁French	-8.50887
▁For	-8.50897
▁building	-8.51104
▁English	-8.51423
▁To	-8.51866
7	-8.5198
▁per	-8.52002
▁arm	-8.52067
▁One	-8.52597
▁turn	-8.5264
▁writ	-8.5276
all	-8.52782
▁State	-8.53116
▁you	-8.53889
▁right	-8.54005
held	-8.54182
▁level	-8.54335
▁seven	-8.54339
▁fire	-8.54405
▁Some	-8.54687
▁All	-8.54698
ar	-8.54865
▁claim	-8.54883
▁Division	-8.55083
▁half	-8.5516
▁say	-8.55165
▁contain	-8.55399
▁cover	-8.55548
▁among	-8.55637
▁With	-8.55653
▁former	-8.55669
▁ga	-8.55674
▁want	-8.56405
▁199	-8.56405
▁pass	-8.56955
▁histor	-8.57051
▁production	-8.57234
▁total	-8.57708
▁population	-8.57723
▁full	-8.58049
▁review	-8.58286
▁suggest	-8.58388
▁every	-8.58409
side	-8.58612
▁different	-8.58673
▁2011	-8.58691
▁further	-8.58873
▁di	-8.59031
z	-8.59171
▁similar	-8.59214
▁kill	-8.59245
▁According	-8.5945
▁2006	-8.59467
▁west	-8.59685
▁Church	-8.59846
▁track	-8.60381
▁Wal	-8.60537
ty	-8.60684
▁field	-8.6085
▁militar	-8.61088
▁land	-8.61232
▁official	-8.61301
▁wide	-8.61346
ia	-8.61368
▁add	-8.61383
&	-8.61412
ebru	-8.61412
▁continu	-8.61543
▁particular	-8.6181
▁damage	-8.6201
as	-8.62099
▁strong	-8.62276
x	-8.62603
▁issue	-8.62962
▁League	-8.63011
▁increase	-8.63011
▁196	-8.63053
▁control	-8.63257
▁bas	-8.63859
▁defeat	-8.6484
▁service	-8.64846
ers	-8.65431
▁Song	-8.6549
ylan	-8.6557
▁21	-8.65627
▁unit	-8.65824
▁story	-8.6638
ham	-8.66383
▁2012	-8.66513
▁body	-8.66694
▁came	-8.66801
▁reported	-8.66886
▁produc	-8.67079
stead	-8.67118
▁Old	-8.67156
re	-8.67228
▁band	-8.67478
by	-8.67623
▁art	-8.68116
▁match	-8.68223
▁finish	-8.68302
▁real	-8.68508
8	-8.68606
cross	-8.68618
▁eight	-8.68681
▁project	-8.68718
▁region	-8.68977
▁east	-8.69012
▁hav	-8.69118
▁move	-8.6919
▁Japan	-8.69243
▁human	-8.69273
▁critic	-8.6932
▁though	-8.69689
craft	-8.69742
▁General	-8.7011
▁house	-8.70138
thing	-8.70561
▁members	-8.70741
▁America	-8.70853
▁writing	-8.70937
▁star	-8.71031
lost	-8.71123
▁Whil	-8.71603
▁young	-8.71644
▁country	-8.71981
▁plan	-8.72025
▁22	-8.72087
▁thought	-8.72134
▁term	-8.72293
▁23	-8.72343
way	-8.7237
▁we	-8.72466
▁2013	-8.7252
▁live	-8.72709
day	-8.728
line	-8.72885
▁mak	-8.72953
▁Park	-8.72995
▁operation	-8.73039
▁style	-8.73646
▁never	-8.73681
given	-8.73684
▁continue	-8.73755
▁range	-8.73789
▁light	-8.73813
▁26	-8.73906
▁development	-8.73908
▁low	-8.74098
▁Arm	-8.74232
g	-8.74239
went	-8.74259
▁popular	-8.74476
▁197	-8.74614
▁action	-8.7465
self	-8.7471
▁Universit	-8.75082
ian	-8.75171
▁novel	-8.75202
▁award	-8.75221
▁fee	-8.75464
▁tour	-8.75522
ern	-8.75624
▁toward	-8.75706
most	-8.75728
▁Australian	-8.75749
▁scor	-8.75759
ose	-8.75784
▁stated	-8.76157
te	-8.76984
▁scene	-8.77002
▁West	-8.77122
▁win	-8.77291
be	-8.77372
▁chart	-8.7759
▁enter	-8.77598
ither	-8.77601
▁Ire	-8.77618
▁hour	-8.77757
▁join	-8.77936
▁island	-8.78431
▁town	-8.78454
▁less	-8.78457
▁24	-8.78719
▁writer	-8.78736
▁You	-8.78812
▁element	-8.78914
▁televis	-8.78996
▁28	-8.79177
▁route	-8.79745
k	-8.79746
▁Ma	-8.80215
▁50	-8.80416
▁How	-8.80423
▁t	-8.80515
▁himself	-8.8065
ondon	-8.80738
▁get	-8.80882
▁good	-8.81313
▁ground	-8.8134
ness	-8.81361
▁sign	-8.81628
▁provide	-8.81894
▁Australia	-8.81937
▁significant	-8.82176
ie	-8.82176
▁white	-8.82239
▁caus	-8.82259
▁view	-8.82367
▁possibl	-8.8252
▁King	-8.82661
▁important	-8.82851
▁Time	-8.82851
▁stage	-8.83027
▁initial	-8.83258
▁Chin	-8.83743
▁female	-8.83751
▁exist	-8.84002
▁various	-8.8425
▁performance	-8.84251
▁interest	-8.84264
less	-8.84644
▁grow	-8.84674
▁father	-8.84754
▁earlie	-8.84805
▁act	-8.84916
▁James	-8.85048
▁creat	-8.85119
▁road	-8.85129
▁Her	-8.85159
▁miles	-8.85206
▁minute	-8.85251
▁wind	-8.85854
▁success	-8.85915
▁successful	-8.86018
▁does	-8.86278
▁case	-8.86364
▁peak	-8.86535
▁political	-8.86838
▁Miss	-8.86841
▁date	-8.86856
▁age	-8.86926
▁fel	-8.86956
ft	-8.86996
▁discover	-8.8774
▁Z	-8.87944
▁black	-8.88055
▁poem	-8.88056
▁Black	-8.88373
▁look	-8.88422
▁example	-8.88576
▁County	-8.88789
▁influence	-8.89398
▁night	-8.89526
▁should	-8.89611
▁need	-8.89706
▁sent	-8.89753
▁Road	-8.89884
▁victor	-8.89884
w	-8.90008
▁effect	-8.90094
▁tr	-8.90214
cy	-8.90413
▁eventual	-8.90419
▁Tr	-8.90498
▁27	-8.90545
▁put	-8.90675
▁structure	-8.90995
▁h	-8.91101
▁2004	-8.91498
▁modern	-8.91552
▁entire	-8.91746
▁2005	-8.91761
ford	-8.91799
▁construction	-8.92084
el	-8.92244
▁Feder	-8.92271
hind	-8.92531
▁coast	-8.92643
▁represent	-8.92829
omen	-8.93057
▁serv	-8.93184
▁ten	-8.93237
▁times	-8.9336
▁class	-8.94116
▁goal	-8.94382
’	-8.94466
na	-8.95187
▁describe	-8.95199
▁hurricane	-8.95298
▁give	-8.95565
▁difficult	-8.96136
▁Kingdom	-8.96138
▁Atlant	-8.96458
▁campaign	-8.96698
▁mid	-8.96716
▁god	-8.96828
▁debut	-8.96981
▁word	-8.9703
ship	-8.97157
▁too	-8.97185
▁addition	-8.97207
▁national	-8.97256
▁offer	-8.97416
▁Company	-8.97833
▁Cup	-8.97858
▁co	-8.97988
▁arriv	-8.98211
▁litt	-8.98231
▁fight	-8.98281
▁Island	-8.98329
▁We	-8.98526
▁highway	-8.98534
▁Robert	-8.98959
▁France	-8.99376
▁male	-8.99376
away	-8.99424
▁visit	-8.99625
▁face	-8.99687
ite	-8.99708
▁come	-8.99737
▁report	-8.99914
K	-9.00104
▁Battalion	-9.00142
▁figure	-9.00142
▁V	-9.00315
▁born	-9.00562
▁Love	-9.0066
▁wife	-9.00735
▁southern	-9.01051
▁David	-9.01134
▁Grand	-9.01339
▁study	-9.01351
▁Brigade	-9.01377
▁guns	-9.01394
▁son	-9.01416
▁student	-9.01613
nd	-9.01671
▁194	-9.01789
▁command	-9.01833
▁process	-9.02055
ame	-9.02108
▁comment	-9.02273
▁eastern	-9.02386
▁village	-9.02515
▁relationship	-9.02558
▁featur	-9.02678
ally	-9.02758
▁2003	-9.0283
thus	-9.02864
▁post	-9.03067
▁officer	-9.03227
it	-9.03334
▁Roman	-9.03485
▁loss	-9.03566
▁mother	-9.03656
▁2015	-9.03734
▁Other	-9.03791
field	-9.0402
▁image	-9.04161
ought	-9.04366
▁love	-9.04424
▁front	-9.04432
▁mi	-9.04712
▁40	-9.04743
▁locat	-9.04801
▁score	-9.04868
▁Europe	-9.04918
▁European	-9.04992
ch	-9.05091
▁Music	-9.0511
▁stars	-9.05235
▁experience	-9.05484
▁battle	-9.05519
▁heavy	-9.06159
▁lack	-9.06161
▁Bo	-9.0627
▁idea	-9.06294
hose	-9.06367
▁consist	-9.06468
▁race	-9.06737
▁problem	-9.06781
N	-9.07017
▁condom	-9.07096
▁Re	-9.07185
▁program	-9.07406
▁29	-9.07833
▁William	-9.07859
▁Nav	-9.07873
▁announc	-9.07891
▁rock	-9.07929
▁sold	-9.07988
▁Royal	-9.08083
▁shot	-9.08221
▁individual	-9.08353
▁Carey	-9.08484
▁God	-9.08751
▁break	-9.08864
▁rest	-9.08921
▁center	-9.09038
▁director	-9.09206
taken	-9.09265
ial	-9.09409
▁limit	-9.09433
▁communit	-9.095
c	-9.0958
▁find	-9.09692
▁195	-9.09972
▁Earl	-9.0999
▁liv	-9.1
▁cell	-9.10035
▁accept	-9.10224
▁begin	-9.10384
ida	-9.10691
▁protein	-9.10925
▁member	-9.11021
▁George	-9.11279
▁manager	-9.11317
▁appearance	-9.11326
tion	-9.11386
ir	-9.11441
▁activit	-9.11574
▁source	-9.11574
▁gun	-9.11673
▁International	-9.11902
▁language	-9.11902
▁East	-9.12243
▁White	-9.12296
▁count	-9.12301
▁free	-9.12404
▁burn	-9.12467
▁current	-9.12561
ball	-9.12804
▁Flor	-9.12821
ium	-9.12823
▁create	-9.12869
▁ask	-9.13085
▁regular	-9.1323
mm	-9.13241
▁Christian	-9.13378
▁pre	-9.1338
▁destroy	-9.13434
▁hand	-9.13522
▁decid	-9.14242
▁believe	-9.14328
▁protect	-9.14393
▁Hero	-9.14513
▁Championship	-9.14567
▁31	-9.14622
rought	-9.14764
▁Street	-9.14911
▁opening	-9.14944
▁works	-9.1505
▁size	-9.15185
▁fall	-9.15199
▁river	-9.15219
ordan	-9.1522
tic	-9.15343
▁198	-9.15559
▁regard	-9.15638
▁Game	-9.15655
▁non	-9.15757
▁artist	-9.15822
▁Follow	-9.15923
▁evidence	-9.15923
▁gain	-9.16066
▁wall	-9.16241
▁Michael	-9.16266
▁central	-9.16301
▁th	-9.1647
▁far	-9.16494
▁clear	-9.16515
▁hit	-9.16566
▁Thom	-9.16656
▁cause	-9.16686
coming	-9.1683
▁From	-9.16893
▁House	-9.17107
▁voice	-9.17108
ll	-9.17109
▁fail	-9.17121
▁commercial	-9.17302
▁ball	-9.17497
▁troops	-9.17575
▁Port	-9.17619
▁subsequent	-9.17647
▁reveal	-9.17647
▁draw	-9.17843
▁200	-9.17862
▁rank	-9.1796
▁launch	-9.18053
▁Day	-9.1847
▁outside	-9.18821
▁contract	-9.19008
▁me	-9.1908
▁average	-9.19176
▁thi	-9.19261
▁fan	-9.19298
▁p	-9.1932
▁court	-9.19573
▁saw	-9.196
▁Le	-9.19646
▁Tw	-9.19961
▁location	-9.20103
▁league	-9.20113
often	-9.20134
▁length	-9.20194
▁crew	-9.20219
▁recording	-9.20339
▁competition	-9.20469
▁nam	-9.20473
▁section	-9.20477
▁San	-9.20517
▁con	-9.20813
▁Richard	-9.20829
ouri	-9.20864
▁international	-9.21187
▁conduct	-9.21195
▁Rock	-9.21252
▁provid	-9.21263
▁mean	-9.21303
▁station	-9.21337
▁Hurricane	-9.21548
▁effort	-9.21548
▁Sa	-9.21641
read	-9.21656
▁500	-9.21761
▁mix	-9.2178
▁account	-9.21934
▁2001	-9.21949
▁extend	-9.22068
▁poor	-9.22207
▁appoint	-9.2224
▁cross	-9.22266
▁flood	-9.22274
▁rule	-9.22452
▁suffer	-9.2264
▁Star	-9.22832
more	-9.22855
▁Most	-9.22964
▁produce	-9.22985
▁person	-9.23326
▁producer	-9.23335
b	-9.23381
upon	-9.23556
▁reason	-9.23692
et	-9.23696
ld	-9.23709
▁Indian	-9.23746
▁gold	-9.23772
▁Tech	-9.23818
▁plann	-9.23994
▁magazine	-9.24138
▁cast	-9.24307
▁Paul	-9.24411
ston	-9.2447
▁my	-9.24476
▁learn	-9.24484
▁Part	-9.24523
▁stay	-9.24529
▁serve	-9.24802
▁material	-9.24852
▁law	-9.24858
▁Great	-9.24861
▁First	-9.24865
▁availab	-9.25041
▁port	-9.25099
ne	-9.2511
▁seem	-9.25218
▁decision	-9.25232
▁1970	-9.25271
wood	-9.25322
que	-9.25517
▁leave	-9.25556
▁condition	-9.25611
▁quarter	-9.25612
▁authorit	-9.25634
BC	-9.25776
ter	-9.25818
▁abo	-9.25941
▁And	-9.25976
▁quick	-9.25985
▁fift	-9.25985
mph	-9.26178
one	-9.26204
▁De	-9.26215
£	-9.26364
▁approach	-9.26447
II	-9.26449
▁horse	-9.26454
▁Jack	-9.26493
▁Mary	-9.26566
low	-9.26567
▁construct	-9.26649
▁travel	-9.26676
▁Villa	-9.26885
▁working	-9.26907
▁office	-9.27001
▁others	-9.27014
▁involv	-9.2703
▁positive	-9.27128
ng	-9.27166
▁stor	-9.27175
▁receive	-9.27204
▁Africa	-9.27459
▁studio	-9.27509
▁maintain	-9.2751
▁soon	-9.27731
ra	-9.27894
▁Canada	-9.27896
▁business	-9.27898
00	-9.27915
▁Air	-9.28082
toge	-9.28129
▁norther	-9.28189
▁king	-9.28222
A	-9.28237
▁Val	-9.2826
▁believ	-9.28275
▁usual	-9.28289
▁interview	-9.2829
▁X	-9.28312
▁Sea	-9.28419
0	-9.28478
°	-9.28667
▁President	-9.28667
▁Henry	-9.28668
▁2000	-9.28723
▁referr	-9.28793
▁tree	-9.29037
▁machine	-9.29148
▁think	-9.29299
▁Ju	-9.29442
▁letter	-9.2948
▁1990	-9.29495
▁metre	-9.29572
▁met	-9.2987
▁sometime	-9.29986
ism	-9.30029
▁prais	-9.30053
▁car	-9.30091
▁Brown	-9.30237
▁Olivier	-9.30248
▁transport	-9.30298
▁Act	-9.30621
▁India	-9.30699
▁deal	-9.30927
▁response	-9.31025
▁Peter	-9.31191
▁Regiment	-9.31424
▁taking	-9.31427
▁recent	-9.31433
▁60	-9.31525
▁western	-9.31567
special	-9.31647
▁mention	-9.31683
▁Vietnam	-9.31823
▁Desp	-9.32001
▁attend	-9.32062
▁Red	-9.32079
▁lower	-9.32134
▁write	-9.32165
▁Mexico	-9.32244
▁Later	-9.32268
▁charge	-9.3235
▁focus	-9.32852
ful	-9.33031
▁School	-9.33033
▁social	-9.33043
▁Sun	-9.33178
▁broke	-9.33206
▁Canadian	-9.3344
▁space	-9.33483
▁concert	-9.3356
▁leas	-9.33667
▁Ver	-9.33748
▁standard	-9.33771
▁ever	-9.33771
▁capital	-9.33847
▁brother	-9.33855
▁introduc	-9.34002
▁nine	-9.34108
▁religious	-9.34257
▁flight	-9.34308
▁test	-9.34414
▁football	-9.3444
▁explain	-9.34737
▁surface	-9.3479
▁hold	-9.3481
▁pressure	-9.34834
▁network	-9.35082
▁1960	-9.35137
▁studie	-9.35189
▁advance	-9.35234
▁slow	-9.35371
▁intend	-9.35427
▁increasing	-9.35497
▁red	-9.35504
▁prevent	-9.35526
sh	-9.35575
AF	-9.35616
achel	-9.35629
14	-9.35731
▁sea	-9.35758
▁forward	-9.35785
▁rate	-9.35854
▁subject	-9.35914
▁Mark	-9.35917
▁That	-9.35999
▁Mi	-9.36043
▁must	-9.36194
▁know	-9.362
rd	-9.36267
▁friend	-9.36289
▁sound	-9.36327
▁Guitar	-9.36332
▁Ca	-9.36357
▁actor	-9.36577
▁Bay	-9.36693
▁past	-9.36724
▁Mount	-9.36748
▁replac	-9.36752
▁relative	-9.36845
▁separate	-9.36847
▁typical	-9.36851
▁approximate	-9.36852
▁piece	-9.37126
▁specific	-9.37211
▁fact	-9.37296
▁camp	-9.37318
▁special	-9.37502
▁certain	-9.37598
▁Union	-9.37639
▁foot	-9.37765
▁cost	-9.37796
▁goals	-9.37845
▁election	-9.37908
▁immediate	-9.38024
▁division	-9.38041
▁additional	-9.38111
town	-9.38302
▁ra	-9.38343
▁Wi	-9.38435
▁display	-9.38455
▁detail	-9.38456
▁might	-9.38475
▁depression	-9.38475
▁stone	-9.38518
▁movement	-9.38537
▁professional	-9.3856
▁police	-9.38879
▁Pacific	-9.3888
▁Wheeler	-9.38885
▁beginning	-9.38889
▁NY	-9.38974
▁according	-9.39009
▁occurr	-9.39096
▁winn	-9.39129
▁leg	-9.39211
▁185	-9.39272
▁resident	-9.39315
▁food	-9.39331
▁2002	-9.39353
▁But	-9.39572
▁injur	-9.39755
▁training	-9.39854
▁daughter	-9.39872
ha	-9.39941
▁type	-9.3999
▁Sinc	-9.40177
▁pitch	-9.4029
▁spen	-9.40422
▁round	-9.40545
▁battalion	-9.40615
▁Film	-9.40635
▁Hall	-9.40657
▁chose	-9.40663
latter	-9.40717
▁relat	-9.40731
▁territor	-9.40812
▁fund	-9.40932
▁Catholic	-9.41054
▁Law	-9.41144
▁annual	-9.41205
ge	-9.41304
▁Force	-9.41323
▁Award	-9.41333
▁complet	-9.41341
▁media	-9.41423
formation	-9.41427
da	-9.41631
▁coach	-9.41698
▁Histor	-9.41768
▁Creek	-9.41937
▁Centr	-9.41974
▁forest	-9.42125
▁president	-9.42235
▁room	-9.42293
▁Light	-9.42397
▁host	-9.42404
▁Or	-9.42458
▁cut	-9.42484
▁save	-9.42496
▁research	-9.42718
▁Art	-9.42828
▁earn	-9.42863
▁probabl	-9.42876
▁tra	-9.42886
ota	-9.43021
▁poet	-9.43044
▁connect	-9.43049
▁animal	-9.43276
▁soldier	-9.43307
▁futur	-9.43312
lor	-9.43438
▁fleet	-9.43621
▁affect	-9.43644
▁industr	-9.43715
▁Charles	-9.43797
95	-9.43839
end	-9.43955
fall	-9.43975
▁better	-9.44246
ory	-9.44247
▁Jin	-9.44468
▁despi	-9.44537
▁Virgin	-9.44548
▁Hill	-9.44631
▁concern	-9.44635
▁Route	-9.44637
▁reference	-9.4468
▁culture	-9.44741
▁share	-9.44782
▁practice	-9.44804
▁boat	-9.44809
▁runn	-9.4481
▁personal	-9.44899
▁Awards	-9.44974
▁My	-9.4502
▁hard	-9.45047
▁meeting	-9.4532
▁woman	-9.45505
▁centre	-9.45534
▁heavi	-9.45551
▁agree	-9.45589
rish	-9.45646
▁45	-9.45749
ney	-9.45899
ward	-9.45944
▁trade	-9.46028
▁beat	-9.46124
▁tell	-9.4624
▁assist	-9.46245
▁compar	-9.46419
▁35	-9.46465
▁grant	-9.4651
▁fly	-9.4664
▁mass	-9.46812
▁capture	-9.46825
▁critical	-9.46916
▁remov	-9.46928
▁Du	-9.47044
▁Arab	-9.47099
▁Ri	-9.47158
▁amount	-9.47367
ny	-9.47389
▁1980	-9.47436
▁watch	-9.47468
▁secur	-9.47506
▁summer	-9.47637
▁El	-9.47644
▁thing	-9.47704
▁Zealand	-9.47764
▁La	-9.47937
▁treat	-9.48079
▁bring	-9.48243
▁cap	-9.4832
▁Li	-9.48356
▁00	-9.48476
▁staff	-9.48495
▁shape	-9.48641
▁dam	-9.48673
▁Lad	-9.48979
illboard	-9.49076
▁80	-9.49087
▁birds	-9.49134
▁Olympic	-9.49298
▁musical	-9.4942
▁birth	-9.49474
▁read	-9.49558
ung	-9.49604
▁depict	-9.4968
▁audience	-9.49775
▁private	-9.49778
▁radio	-9.49801
▁Western	-9.49807
▁double	-9.49812
E	-9.50003
▁mone	-9.50109
▁commander	-9.50194
ist	-9.50241
▁Scientology	-9.50256
▁notes	-9.50333
▁respective	-9.50399
▁model	-9.50422
▁assign	-9.50508
▁meet	-9.50557
▁Pol	-9.50599
▁Scott	-9.5067
▁deliver	-9.50741
▁express	-9.50832
▁cm	-9.50965
▁tower	-9.51074
▁Year	-9.51237
▁2016	-9.51249
▁deep	-9.51298
▁select	-9.5156
▁actual	-9.51716
▁nature	-9.51716
▁Association	-9.51716
▁lines	-9.51752
▁throw	-9.51764
▁market	-9.51887
ma	-9.51977
▁Dan	-9.52049
nough	-9.52158
▁Parliament	-9.52202
▁Under	-9.52216
▁broadcast	-9.52304
▁Council	-9.52695
▁Saint	-9.52697
▁distance	-9.527
▁Angel	-9.52761
▁Lo	-9.52801
▁sequence	-9.52803
▁TV	-9.52869
▁Co	-9.52879
▁collection	-9.52885
▁38	-9.5296
▁pair	-9.53035
▁Jane	-9.53147
ine	-9.53303
▁employ	-9.53361
▁California	-9.53687
▁Galve	-9.53697
▁link	-9.53747
▁cyclone	-9.53793
▁breed	-9.53825
msel	-9.53891
▁So	-9.53953
▁Battle	-9.54212
▁Lake	-9.54243
▁education	-9.54284
▁primar	-9.54297
▁leav	-9.54431
▁colon	-9.54582
▁Jewish	-9.54712
tein	-9.54715
▁1950	-9.54746
▁states	-9.54833
▁Croatia	-9.54852
▁author	-9.54896
▁involve	-9.54904
ant	-9.55161
▁Prince	-9.55196
▁adopt	-9.55199
▁estimat	-9.5523
▁concept	-9.5536
▁parent	-9.55387
▁Yu	-9.55514
▁traditional	-9.55688
▁question	-9.55713
▁rare	-9.55882
▁color	-9.56439
▁anti	-9.56493
ami	-9.56636
▁Brad	-9.5685
▁meaning	-9.56897
▁Final	-9.56946
▁ran	-9.56956
▁occur	-9.56976
▁Play	-9.57042
▁lyrics	-9.57087
▁brief	-9.57241
▁decade	-9.57246
▁organization	-9.57263
▁Earth	-9.57351
▁Mos	-9.5754
▁prior	-9.5759
▁try	-9.57592
▁Ross	-9.57641
ice	-9.57704
▁Beyon	-9.57766
▁Latin	-9.57766
▁sister	-9.57774
▁tradition	-9.57775
once	-9.57969
aught	-9.58114
▁historical	-9.58135
ence	-9.58158
om	-9.58217
▁effective	-9.58294
▁situation	-9.58309
ffic	-9.5838
▁Scot	-9.58519
▁equip	-9.58817
▁marriage	-9.58828
head	-9.58936
▁dead	-9.58971
▁course	-9.58972
▁mission	-9.59041
▁Los	-9.59168
▁statu	-9.59247
ery	-9.59255
▁Frank	-9.59343
▁universit	-9.5939
▁keep	-9.59502
▁singer	-9.59648
▁Tom	-9.597
▁Wood	-9.5981
▁Chicago	-9.59859
▁natural	-9.60371
▁job	-9.60391
▁1940	-9.60436
▁plant	-9.60569
▁ear	-9.6062
fore	-9.60645
▁historian	-9.60967
▁miss	-9.61082
▁metal	-9.611
▁minor	-9.61174
▁edge	-9.61354
▁36	-9.61409
▁train	-9.61415
▁defence	-9.61464
▁Service	-9.61465
co	-9.61561
▁batter	-9.61592
▁requir	-9.61727
▁sell	-9.61794
▁via	-9.61956
▁newspaper	-9.62004
▁request	-9.62005
▁Nation	-9.62132
▁Over	-9.62142
▁painting	-9.62145
ting	-9.62244
▁Gul	-9.62257
▁sexual	-9.62272
▁names	-9.62413
▁70	-9.62538
▁tournament	-9.6255
▁Meyer	-9.62551
▁1930	-9.62588
▁Simon	-9.62656
ro	-9.62766
▁400	-9.62943
▁African	-9.6303
▁Second	-9.63094
▁border	-9.63095
▁Alkan	-9.63096
▁1993	-9.63167
▁Blue	-9.63297
▁Jon	-9.63557
▁High	-9.63568
den	-9.63595
▁Liverpool	-9.63643
▁Nixon	-9.63647
▁serious	-9.63649
▁Up	-9.63706
▁our	-9.63716
▁parts	-9.63723
▁variet	-9.63726
▁whole	-9.63768
▁Turk	-9.6389
at	-9.6391
▁protest	-9.64187
▁rapid	-9.64197
▁got	-9.64376
▁require	-9.6444
▁Tay	-9.64535
▁Record	-9.64647
▁Texas	-9.64751
▁Christmas	-9.64751
▁defend	-9.64853
▁Ha	-9.6489
▁Super	-9.65253
▁Sever	-9.65261
▁moment	-9.65315
▁reject	-9.65354
▁upper	-9.65588
▁Fowle	-9.65875
▁search	-9.65875
▁theme	-9.66004
▁captur	-9.66014
▁mountain	-9.66052
▁Ne	-9.66123
▁abilit	-9.66168
ble	-9.66204
▁speak	-9.66223
▁rating	-9.66229
hou	-9.6623
▁Live	-9.66335
▁tail	-9.66387
▁Go	-9.66416
▁Squadron	-9.66437
▁conflict	-9.66437
▁reflect	-9.66437
▁Three	-9.66437
▁temple	-9.66438
▁Italian	-9.66447
▁screen	-9.66492
▁1996	-9.6653
▁rais	-9.6656
▁drive	-9.66615
men	-9.66637
ent	-9.66678
▁Me	-9.66785
▁active	-9.66793
▁Republic	-9.66939
▁thick	-9.66946
▁script	-9.66999
▁native	-9.67009
▁cathedral	-9.67014
pole	-9.67056
ves	-9.67125
▁avoid	-9.67138
▁Fort	-9.67296
▁stat	-9.67311
▁giv	-9.67318
▁press	-9.67406
▁75	-9.67488
▁Oma	-9.67493
▁pay	-9.67559
▁fruit	-9.67576
▁abandon	-9.67577
▁potential	-9.67577
▁kind	-9.67582
▁Carolina	-9.67588
▁300	-9.67614
▁health	-9.67721
ated	-9.67785
▁Tenn	-9.67799
yet	-9.6782
▁scale	-9.68042
▁withdraw	-9.68152
▁dollar	-9.68158
▁marked	-9.68282
▁slight	-9.68352
ington	-9.68468
NA	-9.68509
▁Alic	-9.68538
▁guitar	-9.68558
▁reduc	-9.68587
▁Minne	-9.68759
▁bridge	-9.68822
▁nation	-9.68994
▁meant	-9.69051
▁Brita	-9.69056
▁bodie	-9.69288
▁demand	-9.69312
▁speed	-9.69316
▁Like	-9.69325
▁dark	-9.69334
▁Paris	-9.69492
▁Infantry	-9.69495
▁Storm	-9.6955
hu	-9.69554
▁method	-9.69591
▁self	-9.69608
▁Mag	-9.69675
▁rain	-9.69723
▁Soviet	-9.69895
▁husband	-9.69895
▁adult	-9.69901
▁Common	-9.69953
▁Bow	-9.70151
▁access	-9.70234
▁Ka	-9.70235
▁propos	-9.70298
▁188	-9.70337
▁headquarter	-9.70483
▁expand	-9.70484
▁Series	-9.70489
▁College	-9.70518
▁blue	-9.70561
▁frequent	-9.707
ez	-9.70703
▁flow	-9.70707
▁seat	-9.70779
▁key	-9.70849
D	-9.70889
▁presen	-9.70907
▁Rosebery	-9.71075
▁girl	-9.71077
▁Anderson	-9.71091
▁Dj	-9.71158
▁qualit	-9.7118
▁wound	-9.71181
▁whe	-9.71205
▁dedicat	-9.7131
▁Cross	-9.71352
▁trop	-9.71398
▁ending	-9.71444
▁propert	-9.71502
▁couple	-9.7152
TV	-9.71539
▁refus	-9.71609
▁Pennsylvania	-9.71671
▁makes	-9.71807
▁Ga	-9.71881
▁plot	-9.71971
▁tri	-9.72073
ong	-9.72202
ph	-9.72251
▁hundred	-9.72269
▁weapon	-9.72269
▁piano	-9.7227
▁complex	-9.72272
▁compos	-9.72338
ain	-9.72342
ster	-9.72626
▁90	-9.72634
▁litera	-9.72698
ground	-9.72699
▁declar	-9.72759
▁numer	-9.72783
▁Ottoman	-9.72875
cé	-9.7288
▁settlement	-9.72883
▁morning	-9.72884
▁Kan	-9.72897
▁1997	-9.72953
▁Span	-9.73038
▁copie	-9.73103
fa	-9.73244
▁operat	-9.73269
▁trip	-9.73311
ur	-9.73341
▁commission	-9.73375
▁Museum	-9.73478
▁enjoy	-9.73479
done	-9.73489
▁Open	-9.73508
▁park	-9.73528
▁elect	-9.73564
▁observ	-9.73761
▁safe	-9.73839
▁collect	-9.73893
lub	-9.74055
▁marri	-9.74056
▁target	-9.74089
▁brigade	-9.74154
▁Jackson	-9.74158
ell	-9.74221
▁Boy	-9.74292
▁Do	-9.74376
tention	-9.74406
▁sentence	-9.74518
▁compani	-9.74598
▁strength	-9.74656
▁Major	-9.74701
▁Through	-9.74702
▁impact	-9.74702
▁fell	-9.74704
▁era	-9.74792
▁mount	-9.75002
▁fill	-9.75128
▁talk	-9.75319
▁disease	-9.75319
▁measure	-9.75336
▁aspect	-9.75395
▁wave	-9.75405
▁Bill	-9.75434
▁portion	-9.7548
▁confirm	-9.75502
▁wor	-9.75694
▁Don	-9.75716
▁Sir	-9.75733
▁enem	-9.7595
▁powerful	-9.75974
▁vocals	-9.76231
▁Tour	-9.76271
▁Phil	-9.76384
▁Age	-9.76468
▁dis	-9.76485
▁value	-9.76511
il	-9.76516
▁Bri	-9.7654
▁recover	-9.76584
▁Queen	-9.76638
▁inspir	-9.76716
▁Chris	-9.76738
admi	-9.76797
house	-9.76798
lone	-9.76834
▁Ho	-9.76892
▁Land	-9.76911
hip	-9.77058
▁fac	-9.77082
stone	-9.77162
▁percent	-9.77177
▁temperature	-9.77195
▁cricket	-9.772
▁Somali	-9.77203
▁bill	-9.77212
▁edition	-9.77259
▁g	-9.77386
▁chang	-9.77481
▁bar	-9.77503
▁Jose	-9.77595
play	-9.77646
▁Georgia	-9.77687
▁box	-9.77776
▁degree	-9.77827
▁progress	-9.779
xen	-9.77952
▁middl	-9.77997
▁eye	-9.78003
▁aid	-9.78094
▁feel	-9.78114
▁purpose	-9.78178
▁33	-9.78195
▁responsib	-9.78228
▁distribut	-9.78318
▁document	-9.78357
apo	-9.78456
▁advantage	-9.78463
▁touchdown	-9.78464
▁Helm	-9.7847
▁Court	-9.78498
back	-9.78638
▁genu	-9.7868
▁Chart	-9.78891
▁direction	-9.78915
▁discuss	-9.79084
▁Braathen	-9.79104
▁normal	-9.79115
▁reception	-9.79123
▁promotion	-9.79185
▁bird	-9.79356
ture	-9.79409
epartment	-9.79459
▁Marine	-9.79463
▁relief	-9.79752
▁Louis	-9.79761
▁Center	-9.79773
▁Horse	-9.79775
▁attract	-9.79776
▁performances	-9.79831
▁pick	-9.79832
▁severe	-9.79855
▁1994	-9.79863
▁content	-9.79896
▁Green	-9.80002
▁physical	-9.80013
▁movie	-9.80131
▁Bob	-9.80297
▁Corps	-9.80301
▁honor	-9.80399
▁build	-9.80406
▁Egyptian	-9.80408
▁paper	-9.80423
▁Highway	-9.80426
▁factor	-9.80523
ootball	-9.80533
▁publication	-9.80552
▁engine	-9.80671
▁los	-9.80715
usch	-9.80743
▁fort	-9.80838
▁countr	-9.80854
▁object	-9.80941
▁argu	-9.81009
▁defense	-9.81052
▁jump	-9.81053
▁extreme	-9.81054
▁societ	-9.8106
▁Six	-9.81208
inkel	-9.8122
truck	-9.8123
ate	-9.81235
▁decide	-9.81261
▁sub	-9.81294
▁lot	-9.81326
▁Wel	-9.8159
▁landing	-9.81712
▁Young	-9.81746
▁text	-9.81783
▁contemporary	-9.81886
▁trial	-9.81966
▁sense	-9.81967
▁Hot	-9.82181
onto	-9.82293
▁ultimate	-9.82354
▁Smith	-9.82375
▁financial	-9.8239
▁weaken	-9.82402
▁polic	-9.82444
▁managed	-9.82466
hester	-9.82615
98	-9.82632
▁facilit	-9.82733
▁planet	-9.82767
time	-9.82781
▁simpl	-9.8284
▁Nicol	-9.82967
▁Middle	-9.83039
▁cougar	-9.8304
▁worker	-9.83152
▁deit	-9.83251
▁Operation	-9.83288
▁comed	-9.83418
▁murder	-9.83432
▁Towns	-9.83545
drew	-9.83556
▁39	-9.83571
▁Long	-9.83575
▁replace	-9.83672
▁legal	-9.83673
od	-9.83707
▁blood	-9.8371
▁contrast	-9.83734
▁opportunit	-9.83748
▁32	-9.83756
▁background	-9.83768
▁carry	-9.83772
▁Jam	-9.83834
ler	-9.83854
▁oppos	-9.83877
▁shell	-9.83878
▁pop	-9.83893
▁friends	-9.83896
▁Critic	-9.83932
▁183	-9.84021
▁bad	-9.84036
▁Hai	-9.84125
▁indicate	-9.84129
▁Games	-9.84316
true	-9.84345
▁technique	-9.84386
▁Society	-9.84417
where	-9.84445
▁street	-9.84549
mpire	-9.84557
▁Dr	-9.84582
▁hospital	-9.84625
▁opera	-9.84626
▁books	-9.84998
▁Academ	-9.85009
hiva	-9.85058
▁Hamel	-9.85073
alway	-9.85091
▁reaction	-9.85096
▁Of	-9.85187
▁assault	-9.85189
▁hair	-9.85203
▁coin	-9.8526
▁nucle	-9.85289
▁leader	-9.85423
▁fir	-9.85494
▁northeast	-9.85675
▁Cra	-9.85687
▁Government	-9.85751
▁specimen	-9.85751
▁website	-9.85751
▁vehicle	-9.85751
▁matter	-9.85767
▁brown	-9.85767
▁sport	-9.85784
▁rise	-9.85923
▁primari	-9.85946
▁sing	-9.86148
▁Tess	-9.86162
▁determin	-9.86238
▁Jim	-9.86285
▁cultural	-9.86442
nis	-9.86444
▁appeal	-9.86447
▁soundtrack	-9.86464
▁board	-9.86483
▁surrounding	-9.86521
▁rear	-9.86552
▁escape	-9.86569
▁fear	-9.86651
▁offensive	-9.86828
▁transit	-9.87084
▁Illinois	-9.87135
▁volume	-9.87135
▁task	-9.87145
▁lea	-9.87239
▁appearances	-9.87282
▁conclud	-9.87313
▁surviv	-9.87316
Mont	-9.87318
▁transferr	-9.87341
▁hero	-9.87357
▁carri	-9.87663
▁150	-9.87761
▁Captain	-9.87835
▁respond	-9.87835
▁square	-9.87836
▁care	-9.87929
▁energ	-9.88009
whil	-9.88029
▁associat	-9.88201
▁intens	-9.88295
▁fiction	-9.8834
▁violen	-9.88376
▁decline	-9.8844
▁Ke	-9.88489
▁crowd	-9.88539
▁thousand	-9.88539
▁Edward	-9.88542
▁prominent	-9.88571
ach	-9.88618
▁composition	-9.88643
▁colour	-9.88657
▁hop	-9.88675
▁twent	-9.88715
▁wear	-9.88874
▁Nes	-9.88877
▁Fey	-9.89103
▁session	-9.89248
▁Civil	-9.8925
▁Mountain	-9.89268
bury	-9.89314
▁Though	-9.89331
fantry	-9.89371
▁nav	-9.89384
rnia	-9.89465
▁forc	-9.89575
▁basi	-9.89661
▁Water	-9.8974
▁canno	-9.89813
▁Home	-9.89852
▁Gold	-9.89948
▁extensive	-9.89965
▁Clark	-9.89966
▁Spain	-9.8997
ular	-9.90085
▁winter	-9.90116
▁science	-9.90157
▁AI	-9.90262
BA	-9.90288
kovic	-9.90345
▁wing	-9.9038
▁Free	-9.90445
▁portray	-9.90482
15	-9.90522
ure	-9.90563
▁Ocean	-9.90682
▁Group	-9.90683
▁retain	-9.90685
▁matche	-9.90796
ina	-9.90842
▁print	-9.90882
▁Van	-9.90989
▁Mr	-9.90992
▁habitat	-9.91146
U	-9.91163
▁v	-9.91233
eception	-9.91301
▁threat	-9.91362
▁Secret	-9.91406
▁succeed	-9.91406
▁Varanasi	-9.91407
▁Little	-9.91409
▁window	-9.91414
▁description	-9.91427
▁independent	-9.91566
▁Israel	-9.91631
▁archaeolog	-9.91741
intin	-9.91746
▁sales	-9.91841
bitt	-9.91912
▁northwest	-9.91927
▁Stan	-9.91933
shire	-9.9194
▁Mo	-9.91979
▁participat	-9.91981
▁Eva	-9.92064
▁designat	-9.92072
▁boy	-9.92113
▁casualties	-9.9215
▁reviewer	-9.92155
▁Studio	-9.92155
▁Andrew	-9.92177
▁Apple	-9.92233
▁Lord	-9.92319
▁Portug	-9.92371
▁don	-9.92428
▁viewers	-9.92531
▁rough	-9.92556
▁tracks	-9.92583
▁economic	-9.92748
▁Ali	-9.92752
▁function	-9.92792
▁47	-9.92827
▁push	-9.92861
▁reign	-9.92875
▁domestic	-9.92876
▁acid	-9.92908
▁Easter	-9.92914
▁computer	-9.93014
▁draft	-9.93064
▁Manc	-9.93069
▁Pop	-9.93078
▁sex	-9.93114
▁grand	-9.93136
▁Ceres	-9.93148
▁hands	-9.93149
▁twi	-9.93249
kak	-9.93446
▁Balti	-9.93459
▁except	-9.93519
▁becom	-9.93588
▁memor	-9.93595
▁maximu	-9.93612
▁championship	-9.93621
gen	-9.93657
▁1920	-9.93671
▁spread	-9.93671
▁mile	-9.93687
▁42	-9.93694
▁product	-9.93761
▁agent	-9.9386
▁controll	-9.93912
▁nest	-9.93996
▁distinct	-9.94017
ado	-9.94027
iz	-9.9408
▁dat	-9.94178
▁path	-9.94298
▁sustain	-9.94359
▁Simpson	-9.94359
▁captain	-9.94359
▁Perón	-9.94359
▁Engineer	-9.9437
▁entrance	-9.94376
▁risk	-9.94451
R	-9.94524
ncient	-9.94542
▁phase	-9.94598
▁credit	-9.94603
ssembl	-9.94805
der	-9.94839
▁Ven	-9.9501
▁Mar	-9.95086
▁Mogadis	-9.9511
▁Thunderbird	-9.9511
▁Wilhelm	-9.9511
▁pilot	-9.95111
▁chapter	-9.95114
▁Week	-9.95115
▁apparent	-9.95137
▁Lock	-9.95139
▁Master	-9.95158
▁Tele	-9.95227
▁heart	-9.95231
▁item	-9.95284
▁standing	-9.95293
í	-9.95312
▁formation	-9.95414
light	-9.95447
▁en	-9.95623
led	-9.957
osaur	-9.95758
Station	-9.95773
▁44	-9.95864
▁Washington	-9.95868
▁opponent	-9.95868
▁monument	-9.95868
▁delay	-9.95887
▁happen	-9.95898
lso	-9.96052
▁187	-9.96064
▁stop	-9.96306
▁Victoria	-9.96352
W	-9.96422
▁feeling	-9.96569
B	-9.96572
F	-9.96628
▁yellow	-9.96631
▁narrow	-9.96636
▁convert	-9.96637
▁Night	-9.96647
▁1988	-9.96684
▁Post	-9.96753
▁Torre	-9.96776
▁partial	-9.96787
▁Town	-9.96796
▁SR	-9.97009
p	-9.97014
▁operate	-9.97141
inches	-9.97334
▁contact	-9.97403
▁failure	-9.97412
▁Min	-9.97539
▁Stone	-9.97552
ather	-9.97599
orough	-9.97719
án	-9.97751
▁inning	-9.97845
MS	-9.98081
▁Asia	-9.98151
▁Fleet	-9.98176
▁combat	-9.98189
▁starling	-9.9819
▁nuclea	-9.98248
wide	-9.98289
▁necessar	-9.98291
▁height	-9.98312
▁inter	-9.98315
laba	-9.98327
▁institution	-9.98348
▁editor	-9.98494
▁Line	-9.98764
▁flank	-9.9896
▁pattern	-9.98964
een	-9.98973
▁Mean	-9.99071
tory	-9.99266
ier	-9.99379
▁label	-9.99387
▁core	-9.99435
▁Have	-9.99492
▁frame	-9.99653
▁athlete	-9.99744
▁ex	-9.99765
▁district	-9.99777
▁themes	-9.99788
white	-9.99948
V	-9.99984
▁acre	-10.0001
▁royal	-10.0005
ta	-10.001
▁your	-10.0014
▁achiev	-10.0015
▁analys	-10.0019
▁vote	-10.0027
▁criticiz	-10.0034
▁secret	-10.005
kept	-10.0053
▁Can	-10.0054
▁dissipat	-10.0054
▁Independen	-10.0054
▁unique	-10.0054
▁Airport	-10.0055
▁Way	-10.0055
▁semi	-10.0056
▁storyline	-10.006
▁estimate	-10.0065
▁51	-10.0072
▁chief	-10.0073
id	-10.0082
▁Command	-10.011
▁praise	-10.0112
▁Jupiter	-10.0134
▁religion	-10.0134
▁defensi	-10.0134
▁pai	-10.0138
▁engineer	-10.0139
▁lane	-10.0153
C	-10.0164
▁MD	-10.0164
99	-10.0182
▁raid	-10.0182
▁block	-10.019
ML	-10.0194
▁castle	-10.0195
hur	-10.0197
▁Har	-10.0202
▁Kent	-10.0207
▁180	-10.0209
▁compound	-10.0214
▁depth	-10.0214
▁Short	-10.0215
▁guest	-10.0215
expected	-10.0215
▁Not	-10.0218
▁management	-10.0219
▁store	-10.0223
▁occasional	-10.0227
▁stand	-10.0228
▁occupie	-10.0228
▁comic	-10.0239
▁fish	-10.0246
▁52	-10.025
78	-10.0277
▁consecutive	-10.0296
▁museum	-10.0296
▁Greek	-10.0296
delphi	-10.0301
▁nomination	-10.0303
▁musician	-10.0306
▁Del	-10.031
▁stopp	-10.0315
igan	-10.032
▁master	-10.032
▁Forest	-10.0324
▁wild	-10.0329
▁pro	-10.0333
▁combin	-10.0342
▁48	-10.0353
stream	-10.0354
de	-10.0356
kare	-10.0368
▁vessel	-10.0378
▁permanent	-10.0379
▁multi	-10.0379
▁spot	-10.039
▁Base	-10.0402
▁negative	-10.0402
▁34	-10.0427
llo	-10.0429
▁understand	-10.0459
▁obtain	-10.046
▁orbit	-10.046
▁Four	-10.0462
▁airport	-10.0463
▁opinion	-10.0463
▁origin	-10.048
kg	-10.0489
▁clos	-10.0515
▁buri	-10.0524
▁DVD	-10.0544
▁floor	-10.0544
▁Science	-10.0544
▁Institute	-10.0544
▁Mik	-10.0546
▁executive	-10.0547
▁else	-10.0548
▁threaten	-10.0549
▁respect	-10.0552
▁Horn	-10.0559
ena	-10.0566
▁armor	-10.0571
▁37	-10.0577
▁189	-10.0578
▁creation	-10.0591
▁fast	-10.0594
▁Stor	-10.0594
T	-10.0606
▁encounter	-10.0628
▁parliament	-10.0628
▁dut	-10.0629
▁Mich	-10.063
▁weight	-10.0635
▁kick	-10.0642
zy	-10.0645
aid	-10.0668
rse	-10.0675
mond	-10.0678
right	-10.0682
▁Cha	-10.0685
▁beach	-10.0689
idden	-10.0696
▁approv	-10.0704
▁oil	-10.0713
▁damag	-10.0751
▁organiz	-10.0759
▁door	-10.0759
▁bowl	-10.0764
▁iron	-10.0774
▁Sho	-10.0784
é	-10.0787
▁classic	-10.0791
▁seek	-10.0794
▁civil	-10.0797
▁refer	-10.0797
▁Child	-10.0798
▁invasion	-10.0798
▁titles	-10.0806
▁Big	-10.0807
▁Rich	-10.0807
L	-10.0813
▁reduce	-10.0818
▁Due	-10.0822
▁chance	-10.0832
▁feed	-10.0839
▁farm	-10.084
▁mouth	-10.084
▁rival	-10.0846
ga	-10.0858
my	-10.0859
▁inch	-10.0865
▁types	-10.0866
venue	-10.0872
86	-10.0882
▁miner	-10.0883
knowledge	-10.0885
▁Further	-10.0885
▁tank	-10.0885
go	-10.0887
▁wh	-10.0888
▁freeway	-10.089
▁association	-10.0894
▁1972	-10.0898
▁campus	-10.0898
older	-10.09
▁rescue	-10.09
▁Abu	-10.0902
▁fung	-10.0902
eval	-10.0904
▁treatment	-10.0904
▁statement	-10.0908
wis	-10.0921
▁Bir	-10.0926
laid	-10.0927
and	-10.0927
▁prove	-10.0928
▁famous	-10.0934
▁201	-10.0936
▁bid	-10.0938
▁multipl	-10.0943
I	-10.0944
▁finding	-10.095
▁Po	-10.0957
▁peace	-10.0965
▁technolog	-10.0968
▁sculpture	-10.0971
▁desire	-10.0974
▁1985	-10.0978
▁Minister	-10.0981
▁Sky	-10.0984
▁teacher	-10.0985
▁visual	-10.0985
▁quit	-10.099
▁FA	-10.0994
▁teaching	-10.1013
▁instrument	-10.1046
▁du	-10.1049
rew	-10.1051
▁Cole	-10.1051
▁perfect	-10.1052
▁council	-10.1058
▁Cardiff	-10.1059
▁Field	-10.1059
▁Barrow	-10.1061
▁challenge	-10.1063
hap	-10.1068
▁depend	-10.1072
▁resign	-10.1075
com	-10.1081
▁destroyer	-10.1091
▁spend	-10.1112
10	-10.1113
▁shoot	-10.1115
well	-10.1117
▁dropp	-10.1131
io	-10.1144
▁gradual	-10.1147
▁arrest	-10.1147
▁recall	-10.1147
▁channel	-10.1149
▁r	-10.1153
▁1944	-10.1157
shore	-10.1157
hood	-10.1163
ackground	-10.1163
▁ceremon	-10.1164
▁bone	-10.1166
▁Keat	-10.1171
▁passe	-10.1173
▁criticism	-10.1173
▁More	-10.1183
▁shift	-10.1185
▁advanc	-10.1204
▁Guard	-10.1204
▁Mont	-10.1206
▁retire	-10.1222
▁supplie	-10.1224
▁Even	-10.1228
to	-10.1229
▁medi	-10.1232
ped	-10.1232
▁adapt	-10.1233
▁kilometre	-10.1237
▁Video	-10.1237
▁civilian	-10.1238
▁weather	-10.1239
▁fox	-10.1241
▁divid	-10.1241
▁strengthen	-10.1243
lton	-10.1256
▁chair	-10.1263
▁120	-10.1269
▁Never	-10.127
▁Je	-10.1271
▁184	-10.1277
iller	-10.1282
▁49	-10.1312
▁Additional	-10.1327
▁possibilit	-10.1327
▁Dutch	-10.1327
▁Morris	-10.1327
▁Album	-10.1327
▁solo	-10.1329
▁divine	-10.1335
▁agreement	-10.1362
▁Col	-10.1365
▁Speci	-10.1369
▁firm	-10.1372
▁foundation	-10.1373
▁Kh	-10.1378
▁prov	-10.138
▁Steve	-10.1384
▁purchase	-10.1405
▁Festival	-10.1418
▁budget	-10.1418
▁Congress	-10.1418
▁belief	-10.1418
▁Nathan	-10.1419
▁Premier	-10.1424
var	-10.1426
▁Mill	-10.1429
▁killing	-10.1431
▁connection	-10.1437
▁Mac	-10.1437
▁die	-10.1438
▁Charl	-10.1438
▁Good	-10.1442
▁Par	-10.1445
ville	-10.1447
▁Antho	-10.145
▁indicat	-10.1455
▁actress	-10.1462
set	-10.1464
89	-10.1464
▁foreign	-10.1466
▁raise	-10.149
▁fine	-10.149
▁j	-10.1503
▁straight	-10.1509
▁zone	-10.151
▁Martin	-10.1512
▁college	-10.1516
▁Gar	-10.1517
▁lives	-10.1517
tan	-10.1523
▁wood	-10.1527
onference	-10.1531
▁Ever	-10.1532
cal	-10.1537
ew	-10.1541
▁Juan	-10.1559
▁contribut	-10.1565
▁assembl	-10.1566
12	-10.1568
▁super	-10.1573
▁occasion	-10.1587
▁53	-10.1593
▁federa	-10.1593
▁Ram	-10.1601
▁rush	-10.1601
▁restaurant	-10.1602
▁candidate	-10.1602
▁arrangement	-10.1603
▁Gord	-10.1606
▁highlight	-10.1608
▁promote	-10.1611
▁data	-10.1619
▁Bru	-10.1631
azz	-10.1631
RA	-10.164
▁repair	-10.1643
▁Bridge	-10.1649
▁Max	-10.1652
▁spring	-10.1663
▁arrive	-10.1665
crete	-10.1674
▁prepared	-10.1683
▁agricultur	-10.1695
▁choice	-10.1695
anna	-10.1696
▁Lewis	-10.17
▁observation	-10.1701
▁Car	-10.1703
▁inscription	-10.1703
▁1981	-10.1706
▁big	-10.1707
the	-10.1709
▁clean	-10.1709
▁Wa	-10.1712
▁Mort	-10.1713
▁Mario	-10.1715
▁190	-10.1717
▁difference	-10.1724
▁Ital	-10.1734
▁counter	-10.1743
sis	-10.1746
▁entr	-10.1754
▁Dam	-10.1761
P	-10.1768
▁Heart	-10.1778
ill	-10.1785
▁recommend	-10.1786
▁Production	-10.179
▁Among	-10.179
H	-10.1792
▁option	-10.1794
▁setting	-10.1801
▁passage	-10.1803
▁simple	-10.181
▁nominat	-10.1825
▁improve	-10.1826
▁Original	-10.1829
ze	-10.1859
ied	-10.1859
▁Jain	-10.1859
▁incident	-10.1869
G	-10.187
▁People	-10.1885
▁victim	-10.1885
▁article	-10.1885
▁prompt	-10.1885
▁1939	-10.1885
▁crime	-10.1886
▁combination	-10.1889
▁Rome	-10.1901
▁Russian	-10.1904
▁send	-10.1907
▁Slam	-10.1914
▁64	-10.1914
▁Review	-10.1929
▁dance	-10.1932
port	-10.1934
▁vocal	-10.1936
gun	-10.1938
▁sail	-10.1949
▁grass	-10.1949
▁transfer	-10.1953
▁paint	-10.1959
▁supply	-10.197
▁65	-10.1973
▁torpedo	-10.1974
▁Revolution	-10.1981
▁Girl	-10.1982
▁hotel	-10.1982
▁Temple	-10.1982
old	-10.1983
▁silver	-10.1983
▁intersection	-10.1986
▁digital	-10.1989
▁1942	-10.1994
▁bottom	-10.1997
65	-10.2013
▁aim	-10.2023
▁achieve	-10.2024
▁dai	-10.2026
vā	-10.2031
▁antimon	-10.2035
lin	-10.2049
▁debate	-10.2052
▁Commission	-10.2053
▁ring	-10.2055
vita	-10.2058
ways	-10.2058
▁drop	-10.2061
▁130	-10.2064
▁extra	-10.2069
▁Entertainment	-10.2078
▁Coast	-10.2078
▁committee	-10.2079
▁Fantas	-10.2079
▁fresh	-10.2079
▁Director	-10.208
▁unlike	-10.208
▁Turner	-10.208
▁Roll	-10.208
▁1918	-10.2081
▁Ge	-10.2087
▁minim	-10.2089
▁Bol	-10.209
▁Cart	-10.2098
▁Joe	-10.212
wo	-10.2124
▁drawing	-10.2125
▁batsm	-10.2154
▁End	-10.2156
▁700	-10.2165
47	-10.2168
31	-10.217
▁broad	-10.2174
▁Bishop	-10.2176
▁Muslim	-10.2176
▁expedition	-10.2177
▁genre	-10.2177
▁message	-10.2177
▁minister	-10.218
▁objective	-10.2185
▁Area	-10.2185
▁outer	-10.2185
▁1968	-10.2186
▁branch	-10.2191
▁Chain	-10.2196
▁penalt	-10.2199
▁page	-10.2201
▁Maria	-10.221
▁mind	-10.2218
▁Op	-10.2223
▁sand	-10.2223
▁Gi	-10.2223
▁Low	-10.2241
▁USA	-10.2254
sses	-10.2255
▁promot	-10.2258
▁stations	-10.2262
▁remark	-10.2264
▁centur	-10.2268
▁hope	-10.2272
▁Governor	-10.2275
▁verse	-10.2276
ombat	-10.2277
▁southwest	-10.2279
▁tend	-10.2279
▁scholar	-10.228
ius	-10.2285
▁spore	-10.2287
▁Radi	-10.2288
▁1975	-10.2288
▁leaders	-10.229
ner	-10.2297
▁skill	-10.2298
eath	-10.2299
ues	-10.2306
▁improv	-10.2329
▁hunt	-10.2337
▁bit	-10.2338
▁Player	-10.2341
▁Well	-10.235
▁tie	-10.2352
▁identifi	-10.236
agazine	-10.2368
▁BC	-10.237
▁drama	-10.2373
▁starr	-10.2374
▁Cal	-10.2374
bridge	-10.2375
▁System	-10.2375
▁What	-10.2376
▁Khan	-10.2378
▁camera	-10.2384
▁weak	-10.2385
▁cave	-10.2406
▁billion	-10.2407
me	-10.2412
▁organ	-10.2417
ger	-10.2421
▁Writ	-10.2424
▁medic	-10.2427
▁egg	-10.2429
▁spac	-10.2433
ux	-10.2449
▁independen	-10.2454
▁formal	-10.2454
▁Se	-10.2455
spread	-10.2469
▁Der	-10.2474
▁mushroom	-10.2476
▁principal	-10.2476
▁unusual	-10.2476
▁retreat	-10.2476
▁interaction	-10.248
▁sector	-10.2484
▁dress	-10.249
▁Son	-10.2493
▁survey	-10.2496
▁Commander	-10.2497
▁fictional	-10.2505
▁survive	-10.2515
▁boundar	-10.2519
▁favor	-10.2531
▁Cam	-10.2538
▁Key	-10.2552
▁accompani	-10.2561
▁MacLe	-10.2578
▁Jurchen	-10.2578
▁technical	-10.2578
▁Daniel	-10.2579
▁motion	-10.2579
▁attach	-10.2579
▁emperor	-10.2581
▁Fox	-10.2582
▁Life	-10.2583
▁generation	-10.2585
▁creator	-10.2589
▁Crown	-10.2589
▁43	-10.2601
araj	-10.2609
ire	-10.2621
▁Ode	-10.2621
▁Medi	-10.2622
ka	-10.2626
▁walk	-10.2626
▁Williams	-10.2636
▁Am	-10.264
▁architectur	-10.2649
▁layer	-10.2662
istrict	-10.2677
▁800	-10.2681
▁protagonist	-10.2681
▁senior	-10.2681
▁communication	-10.2683
▁cool	-10.2683
▁chorus	-10.2683
▁Book	-10.2688
▁airline	-10.2694
▁retir	-10.2698
▁ray	-10.2703
▁skin	-10.271
▁Pres	-10.2728
rang	-10.2732
▁struggle	-10.2736
▁reform	-10.2737
▁Bart	-10.2748
atre	-10.2748
oise	-10.2751
▁Cant	-10.2764
▁warm	-10.2764
up	-10.2775
▁recogniz	-10.2778
▁schedule	-10.278
▁cruiser	-10.2785
▁Project	-10.2786
▁Dublin	-10.2786
▁Single	-10.2786
▁Board	-10.2787
▁Track	-10.2789
▁la	-10.2793
▁soil	-10.2793
▁ne	-10.2824
▁Mega	-10.2831
▁Mur	-10.2839
▁here	-10.284
▁rul	-10.2847
▁inform	-10.2855
▁easi	-10.2855
▁address	-10.2873
▁guide	-10.2876
#	-10.2891
▁administration	-10.2891
▁pull	-10.2891
▁Brook	-10.2894
▁split	-10.2895
▁1919	-10.2897
▁Kang	-10.2898
▁fur	-10.2898
ago	-10.2907
▁engage	-10.2923
▁essential	-10.2929
red	-10.2933
▁tall	-10.2936
▁wait	-10.2938
era	-10.295
ond	-10.296
11	-10.2963
▁deni	-10.2967
▁biograph	-10.2977
▁nor	-10.298
▁strike	-10.2981
▁kn	-10.2985
urban	-10.2985
▁holding	-10.2993
▁Egypt	-10.2996
▁passenger	-10.2997
▁representative	-10.2998
▁platform	-10.2998
▁Athletic	-10.2998
▁1936	-10.2999
▁argue	-10.3
▁56	-10.3005
▁plac	-10.3009
burn	-10.3034
▁moral	-10.3054
▁Dai	-10.306
au	-10.3085
▁Sha	-10.3087
ious	-10.3089
▁ritual	-10.3091
▁charter	-10.3093
▁regime	-10.3104
▁Admiral	-10.3105
▁Douglas	-10.3105
▁remnant	-10.3105
▁fuel	-10.3105
▁earthquake	-10.3105
▁Cardinal	-10.3107
▁renam	-10.3107
▁heard	-10.311
▁Constantin	-10.311
▁possession	-10.3112
▁massive	-10.3117
▁atmosphere	-10.312
▁priest	-10.3123
▁Yan	-10.3124
▁Baby	-10.3127
▁secure	-10.3132
▁green	-10.3136
▁proposal	-10.3136
▁Band	-10.3142
ribbe	-10.3143
▁settler	-10.3154
▁province	-10.3156
glades	-10.3161
▁judge	-10.3168
▁guard	-10.3174
▁rebel	-10.3176
▁graph	-10.3179
slo	-10.3182
nonymous	-10.319
▁engag	-10.3191
▁Fall	-10.3191
CE	-10.3197
▁surround	-10.3202
▁folk	-10.3207
▁41	-10.321
▁57	-10.3211
▁Committee	-10.3213
▁unsuccessful	-10.3213
▁Power	-10.3213
▁submarine	-10.3213
▁Team	-10.3214
▁crop	-10.3214
▁exclusive	-10.3216
▁table	-10.3217
▁GA	-10.3221
▁isolat	-10.3221
▁NH	-10.3226
▁map	-10.3228
vision	-10.3234
za	-10.3244
60	-10.3247
▁southeast	-10.3247
▁Rio	-10.3251
don	-10.3266
▁surge	-10.3281
▁Bosto	-10.3283
▁spoke	-10.3286
ac	-10.3291
▁Bana	-10.3295
▁plum	-10.3297
▁basin	-10.3297
▁Hop	-10.3305
▁Perr	-10.331
▁Form	-10.331
▁sole	-10.3311
▁govern	-10.3313
onica	-10.3316
▁column	-10.3323
▁Bull	-10.3323
▁Carr	-10.3324
▁wedding	-10.3324
▁Sunday	-10.3328
▁Golden	-10.333
▁Walter	-10.3331
rtill	-10.3337
▁1914	-10.3343
ily	-10.3344
▁Industr	-10.3358
▁Lis	-10.336
gas	-10.3369
▁Mari	-10.337
▁Test	-10.3399
▁Lee	-10.34
▁rainf	-10.3403
no	-10.3408
▁Aston	-10.3408
24	-10.3413
▁trail	-10.3413
▁basic	-10.3417
▁remix	-10.3421
▁dismiss	-10.3426
▁owner	-10.3427
▁54	-10.343
cent	-10.3434
▁Chelsea	-10.3434
▁eleven	-10.3434
▁chapel	-10.3435
▁basket	-10.3435
▁vision	-10.3437
▁spell	-10.3437
▁estate	-10.3437
▁Roger	-10.3439
▁fellow	-10.3439
▁Albert	-10.344
▁Prime	-10.344
▁Hindu	-10.3441
▁supposed	-10.3443
▁successor	-10.3446
▁Democrat	-10.3452
▁interior	-10.3452
▁Columbia	-10.3452
▁Milit	-10.3459
▁emotional	-10.3465
▁parallel	-10.3468
come	-10.3473
▁impress	-10.3475
etic	-10.3483
▁composer	-10.3487
ether	-10.3489
hann	-10.3491
▁fun	-10.3515
▁reserve	-10.3524
▁equal	-10.3529
▁adventure	-10.3536
▁econom	-10.3538
▁carrie	-10.354
ieutenant	-10.3546
▁fashion	-10.3547
▁Hibari	-10.3547
▁archaeologist	-10.3548
▁Summer	-10.3549
gé	-10.3549
▁About	-10.3555
▁Men	-10.3558
▁Santa	-10.3559
▁establishment	-10.3567
▁sufficient	-10.3571
ural	-10.3578
▁Holly	-10.3586
▁shooting	-10.3589
▁Wil	-10.359
▁k	-10.3595
▁alter	-10.3608
▁introduce	-10.3614
▁defin	-10.3615
ou	-10.362
▁finds	-10.3621
▁bank	-10.3626
TC	-10.3648
▁Romani	-10.3655
▁Public	-10.3656
▁deploy	-10.3657
ruli	-10.3657
▁component	-10.366
▁convoy	-10.3661
▁household	-10.3661
▁tunnel	-10.3661
▁journalist	-10.3661
▁Rox	-10.3664
▁acquir	-10.3671
▁truth	-10.3672
▁1982	-10.3672
▁Missi	-10.3672
▁visitor	-10.3682
▁rail	-10.3683
▁Cre	-10.3687
▁Real	-10.369
▁fit	-10.3693
▁Han	-10.3694
87	-10.3701
▁110	-10.3709
▁sample	-10.373
efore	-10.3741
abilit	-10.3752
▁dominat	-10.3753
▁determine	-10.3755
von	-10.3759
▁plane	-10.3759
▁repeated	-10.3759
▁Just	-10.3764
evelopment	-10.3766
▁prim	-10.3768
▁Haiti	-10.3769
▁scholars	-10.377
tial	-10.3772
▁offense	-10.3776
▁Destin	-10.3776
▁speech	-10.3777
▁1913	-10.3777
▁exit	-10.3778
gie	-10.3778
▁attain	-10.3778
▁Howard	-10.3778
▁1916	-10.3779
▁dispute	-10.3787
▁roof	-10.3801
▁plate	-10.3812
▁Fra	-10.3813
▁root	-10.3813
50	-10.3817
water	-10.3819
▁Ra	-10.3821
▁appli	-10.3826
20	-10.3827
table	-10.3828
▁driver	-10.3833
▁issu	-10.3834
▁graphic	-10.3839
▁gas	-10.3845
▁load	-10.3847
▁deriv	-10.3849
▁Bond	-10.3849
nt	-10.3865
pping	-10.3867
▁46	-10.3869
▁Friends	-10.3873
▁trad	-10.3884
rs	-10.3884
▁twel	-10.3889
▁Iguanodon	-10.3889
▁controvers	-10.3891
▁Gwen	-10.3892
▁Brazil	-10.3892
▁panel	-10.3892
▁predator	-10.3893
▁catch	-10.3893
▁Samu	-10.3894
▁exact	-10.3894
▁legend	-10.3895
▁1943	-10.3903
ía	-10.3909
▁Ber	-10.391
▁entit	-10.3919
▁bound	-10.3925
▁Row	-10.393
dom	-10.3935
▁250	-10.3936
▁designation	-10.3937
▁Kai	-10.3949
▁Christ	-10.3954
▁CD	-10.3972
▁55	-10.3974
▁rich	-10.3984
▁conservati	-10.3991
▁Ro	-10.3992
SP	-10.3999
lie	-10.4001
▁Nin	-10.4002
▁rifle	-10.4009
▁pregnan	-10.4009
▁download	-10.401
▁variation	-10.401
▁academic	-10.4011
▁introduction	-10.4012
▁replacement	-10.4018
▁Si	-10.4023
arian	-10.4026
▁182	-10.4028
▁capacit	-10.4029
tadium	-10.4031
▁Bro	-10.4032
▁Ben	-10.4051
▁glass	-10.4052
▁drain	-10.4055
▁flag	-10.4088
▁160	-10.4094
▁roll	-10.4115
▁NC	-10.4118
▁Office	-10.4118
▁exhibit	-10.4119
▁certifi	-10.4128
▁Similar	-10.4128
▁Alexander	-10.4128
▁sequel	-10.4128
▁constant	-10.4129
▁Gramm	-10.413
▁Rangers	-10.413
▁march	-10.4131
▁substantial	-10.4131
▁inspiration	-10.4135
30	-10.4139
▁exception	-10.4142
▁declin	-10.4145
64	-10.4147
▁theatre	-10.415
▁wish	-10.4153
91	-10.4156
▁distinguish	-10.4157
▁Famil	-10.4158
▁Homer	-10.416
▁signal	-10.4178
▁preserv	-10.4178
▁invit	-10.4189
▁ma	-10.4191
▁Ridg	-10.4199
iston	-10.4206
▁charit	-10.4208
▁nois	-10.4211
ternal	-10.4219
▁opposit	-10.422
▁defender	-10.4225
▁Out	-10.4226
▁96	-10.4226
▁Jos	-10.4243
▁journey	-10.4249
▁valley	-10.4252
▁surrender	-10.4257
IG	-10.4259
▁1953	-10.426
▁contest	-10.4268
▁En	-10.4268
▁bear	-10.4273
▁76	-10.428
lies	-10.4283
▁instance	-10.4283
▁plain	-10.4283
▁drug	-10.4284
hl	-10.4289
▁Fame	-10.4293
▁Carl	-10.4302
▁twin	-10.4305
▁row	-10.4306
▁recogni	-10.4307
▁rose	-10.431
▁shipp	-10.4311
hi	-10.4314
▁Recording	-10.4315
▁Stevens	-10.4316
▁sports	-10.4317
nce	-10.4321
▁emerg	-10.4323
▁Marl	-10.4326
board	-10.4326
▁dog	-10.4327
itude	-10.4328
▁bab	-10.4329
▁heat	-10.4338
▁Com	-10.4341
lly	-10.4343
▁Sta	-10.4343
▁detect	-10.436
▁Les	-10.4362
▁programme	-10.437
ippi	-10.437
▁Frederick	-10.4371
▁application	-10.4371
▁responsibilit	-10.4371
▁expansion	-10.4371
▁magic	-10.4376
▁manner	-10.4381
▁doubt	-10.4383
▁belong	-10.4386
▁Camp	-10.4392
IA	-10.4396
▁fix	-10.4404
▁admitt	-10.4404
iro	-10.4408
over	-10.4408
▁proper	-10.4409
▁let	-10.4421
bert	-10.4424
▁tomb	-10.4441
▁pitcher	-10.4445
▁dry	-10.4446
▁Kur	-10.4448
▁politic	-10.4461
▁importan	-10.4481
Brien	-10.4482
▁correct	-10.4484
▁Gall	-10.4493
▁exchange	-10.4493
▁benefit	-10.4494
▁patron	-10.4494
▁recruit	-10.4494
▁Stephen	-10.4494
▁honour	-10.4494
▁Tower	-10.4494
▁lose	-10.4497
▁favorite	-10.4497
▁railway	-10.4497
▁battleship	-10.45
take	-10.4506
▁thirt	-10.4511
▁prey	-10.4514
▁afterward	-10.4521
▁intelligen	-10.4521
▁neck	-10.4526
▁61	-10.4531
▁Hal	-10.4533
▁cake	-10.4535
body	-10.454
▁Owe	-10.4542
▁Od	-10.4546
▁sponsor	-10.4551
▁vot	-10.4552
ifa	-10.4558
▁Inter	-10.456
▁Var	-10.4563
▁Ry	-10.458
fare	-10.4584
▁note	-10.4584
▁inner	-10.4586
▁reading	-10.4592
▁card	-10.4598
ersonnel	-10.4601
▁94	-10.4612
▁shore	-10.4614
▁signing	-10.4618
▁Plunkett	-10.4619
▁crown	-10.4619
▁surprise	-10.4619
▁Stefan	-10.4619
▁romantic	-10.4619
▁Isabella	-10.4619
▁monarch	-10.4619
▁expert	-10.4619
▁squadron	-10.4619
▁puzzle	-10.462
▁regiment	-10.462
▁Snow	-10.462
▁alternative	-10.462
▁Hugh	-10.4621
▁Order	-10.4627
▁convecti	-10.4628
ight	-10.4629
▁department	-10.463
▁authors	-10.463
▁72	-10.4633
▁Who	-10.464
▁franchise	-10.464
▁earth	-10.4649
▁slave	-10.4655
evo	-10.4658
▁Na	-10.4663
▁Hell	-10.4664
▁Rose	-10.4665
▁RA	-10.4669
▁knots	-10.4673
▁alien	-10.4677
▁deposit	-10.4682
▁Nor	-10.4685
▁premiere	-10.4689
▁62	-10.4689
evil	-10.4699
▁identit	-10.4702
▁chemical	-10.4707
▁Justi	-10.4721
▁pound	-10.4721
vert	-10.4722
▁canal	-10.4722
▁Un	-10.4722
▁bass	-10.4729
▁characteristics	-10.473
▁predecessor	-10.4746
▁resource	-10.4746
▁portrait	-10.4746
▁Jersey	-10.4746
▁moderate	-10.4746
▁Colonel	-10.4747
▁festival	-10.4747
▁assistant	-10.4748
▁preparation	-10.4749
▁Duke	-10.4749
▁bright	-10.4749
▁conference	-10.4749
▁proceed	-10.4751
▁1917	-10.4752
▁1890	-10.4752
▁preferr	-10.4756
▁1948	-10.476
awn	-10.476
▁survivor	-10.476
▁venue	-10.4761
▁historic	-10.4763
▁Will	-10.4764
▁Hami	-10.4766
wealth	-10.4768
▁roads	-10.4768
▁soft	-10.4779
▁accus	-10.4786
▁vary	-10.4791
▁associate	-10.4793
▁Far	-10.4798
▁Lia	-10.4806
▁Tree	-10.4815
▁confus	-10.4819
▁aware	-10.4825
▁interchange	-10.4829
▁consistent	-10.4836
▁environment	-10.484
▁symbol	-10.4858
SB	-10.4862
▁measur	-10.4863
▁nin	-10.4871
▁Down	-10.4873
▁faith	-10.4874
▁mechanic	-10.4874
▁diameter	-10.4874
▁europ	-10.4874
▁Chronicle	-10.4874
▁dramatic	-10.4878
▁adaptation	-10.488
▁tale	-10.4881
▁classifi	-10.4896
▁step	-10.4903
▁186	-10.492
▁accident	-10.4925
▁Sap	-10.4927
▁hill	-10.4933
▁explor	-10.4935
▁tactic	-10.4951
▁Stran	-10.4951
▁cycle	-10.4954
▁mere	-10.4956
▁McC	-10.4958
▁edit	-10.4966
▁eyes	-10.4974
▁gate	-10.4974
▁publisher	-10.4978
erry	-10.4979
mar	-10.4979
▁ridge	-10.499
▁tribes	-10.4996
▁compete	-10.5004
▁Research	-10.5004
▁pupil	-10.5004
▁rhythm	-10.5004
▁wicket	-10.5005
▁sudden	-10.5006
▁colonial	-10.5007
▁Dot	-10.5008
▁Hav	-10.5008
▁schedul	-10.5011
▁bond	-10.5015
▁1954	-10.5018
▁joint	-10.5018
▁Ray	-10.5018
im	-10.5019
▁Kilm	-10.5024
▁completion	-10.5027
▁disappear	-10.5027
▁Angl	-10.5036
▁suit	-10.5036
union	-10.5058
▁evening	-10.506
▁Tor	-10.5066
▁Colon	-10.5069
▁lay	-10.5071
▁supporter	-10.5077
▁eat	-10.5078
mon	-10.5081
▁pool	-10.5095
▁Mc	-10.5112
ow	-10.5115
▁worth	-10.5131
epression	-10.5131
▁notice	-10.5133
▁sort	-10.5134
▁Jerusalem	-10.5135
▁monitor	-10.5136
▁Netherland	-10.5136
▁turret	-10.5136
▁spirit	-10.5136
▁Campbel	-10.5136
▁cult	-10.5137
▁steam	-10.5139
▁1937	-10.514
▁moon	-10.5141
aska	-10.5141
▁squad	-10.5143
▁theater	-10.5144
▁tourist	-10.5144
▁Castle	-10.5147
▁electric	-10.5152
▁Cast	-10.5156
▁ensure	-10.5164
▁Wilde	-10.5165
▁Moder	-10.5166
▁81	-10.5181
▁mark	-10.5187
▁Argentin	-10.519
night	-10.5194
ook	-10.5212
lair	-10.5216
scar	-10.5227
▁collapse	-10.5239
▁coup	-10.5248
▁Arts	-10.525
▁flat	-10.5254
▁Archaeolog	-10.5268
ible	-10.5268
×	-10.5269
▁segment	-10.5269
▁ocean	-10.5269
▁Transport	-10.5269
▁Eliza	-10.5269
▁context	-10.5269
▁entertain	-10.5269
▁organisation	-10.5272
▁Ré	-10.5277
▁Pro	-10.5278
▁77	-10.528
▁1955	-10.528
▁contribution	-10.5281
▁initiative	-10.5283
▁Norman	-10.5284
▁fair	-10.5285
92	-10.529
▁85	-10.5291
▁Ann	-10.5297
▁i	-10.5298
▁Bon	-10.5309
▁175	-10.5319
▁Alf	-10.5324
▁happ	-10.5327
▁bell	-10.5331
▁regional	-10.5333
90	-10.5334
▁McCart	-10.5335
▁Ox	-10.5336
▁travell	-10.5347
▁mine	-10.5357
▁Tro	-10.5359
▁transform	-10.5359
▁champion	-10.5379
▁Dream	-10.538
uck	-10.5383
▁Fish	-10.5394
▁tee	-10.5397
▁bishop	-10.5404
▁knock	-10.5404
▁register	-10.5405
▁wine	-10.5406
▁belt	-10.5409
▁Beach	-10.5411
▁Rifle	-10.5413
▁committ	-10.5415
▁remove	-10.5415
45	-10.5424
▁1900	-10.5433
▁winner	-10.5434
▁hat	-10.5435
▁researcher	-10.5437
▁stem	-10.544
▁dynast	-10.5452
▁Carol	-10.5457
ho	-10.5459
▁stretch	-10.5459
▁relegat	-10.547
▁pursue	-10.547
▁hall	-10.5475
▁worship	-10.5478
▁Cory	-10.5486
▁Jeff	-10.5491
▁Gu	-10.5492
OT	-10.5498
ink	-10.5499
what	-10.55
▁warning	-10.5502
O	-10.5505
ak	-10.5508
▁separat	-10.5509
▁arrang	-10.5519
▁favour	-10.5524
▁arc	-10.5531
▁youth	-10.5534
▁scientist	-10.5541
▁wrong	-10.5541
▁dialogue	-10.5541
▁Point	-10.5541
▁fragment	-10.5541
▁criminal	-10.5542
▁shark	-10.5542
▁lbw	-10.5543
▁News	-10.5543
▁Top	-10.5546
▁Pe	-10.555
▁strip	-10.5551
▁lands	-10.5556
▁Kea	-10.5556
▁1949	-10.5557
▁Less	-10.5558
ck	-10.5562
▁Isle	-10.5567
▁Char	-10.5568
▁Type	-10.5569
▁albums	-10.557
▁Pul	-10.5571
▁offering	-10.5581
▁founder	-10.5594
▁governor	-10.5594
BS	-10.5596
lay	-10.5596
▁Per	-10.5603
▁tip	-10.5608
▁strateg	-10.5613
▁Sol	-10.5627
▁Hart	-10.5646
▁Johnston	-10.5649
▁Roy	-10.5654
▁Tu	-10.5657
ling	-10.5659
▁Queens	-10.5666
▁Adam	-10.5669
▁encourag	-10.5674
▁none	-10.5674
nivers	-10.5675
▁assert	-10.5678
▁implement	-10.568
▁watershed	-10.5681
▁indig	-10.5681
▁handl	-10.5682
▁Francisc	-10.5684
j	-10.5687
▁soul	-10.569
▁trouble	-10.5691
▁Adams	-10.5692
▁Congo	-10.5693
▁Thir	-10.5695
▁discussion	-10.57
▁Korean	-10.5703
nada	-10.5704
▁notabl	-10.5712
awa	-10.5734
▁termin	-10.5742
tty	-10.5745
▁towns	-10.5747
▁incorporat	-10.575
84	-10.5758
▁ha	-10.576
▁Come	-10.5766
▁ML	-10.5775
▁experiment	-10.5776
▁eliminat	-10.5785
▁grey	-10.5786
▁arch	-10.5787
▁Wat	-10.579
▁moves	-10.5794
▁wealth	-10.5797
ais	-10.5813
▁apart	-10.5817
▁photograph	-10.5819
▁Initial	-10.5821
▁kitsune	-10.5821
▁Chief	-10.5821
▁Here	-10.5823
▁Persian	-10.5823
▁Hotel	-10.5824
▁employee	-10.5824
▁superior	-10.5825
yle	-10.5833
▁install	-10.5838
▁magn	-10.584
und	-10.5842
▁Gate	-10.5842
▁Cape	-10.5842
▁Iron	-10.5847
▁stadium	-10.5853
▁Count	-10.5856
cruz	-10.5857
nlike	-10.5869
▁Jo	-10.5879
▁announce	-10.5883
▁gre	-10.5884
▁visibl	-10.589
▁expect	-10.5892
▁Squa	-10.5905
▁Aeri	-10.5909
▁cold	-10.5912
▁Spring	-10.5912
mbled	-10.5917
▁adj	-10.5935
▁Anti	-10.5941
▁bigge	-10.5947
▁listen	-10.595
▁Burns	-10.596
▁possess	-10.5961
▁Rob	-10.5964
▁talent	-10.5964
ttorney	-10.5964
▁conclusion	-10.5964
▁desert	-10.5964
▁guilt	-10.5965
▁profit	-10.5965
▁controversial	-10.5965
▁ruin	-10.5967
▁coal	-10.5967
▁Color	-10.5971
▁recognize	-10.5977
▁Leonard	-10.5979
viation	-10.598
acent	-10.5982
▁Alli	-10.5982
▁documentar	-10.5988
▁intention	-10.5988
▁hir	-10.5988
▁muscari	-10.599
▁driv	-10.6
▁AD	-10.6006
▁internal	-10.6008
▁radi	-10.602
▁tax	-10.6021
▁molecule	-10.6022
▁Your	-10.6034
▁engineering	-10.6038
▁Wy	-10.604
berg	-10.6041
iva	-10.6043
▁opposite	-10.6046
▁Che	-10.6046
▁constitution	-10.6046
▁Sound	-10.6075
SA	-10.6078
ard	-10.6085
▁attribut	-10.6089
▁categor	-10.6091
▁95	-10.6098
oba	-10.61
▁Ern	-10.6101
▁cloth	-10.6102
▁hear	-10.6103
▁Lenno	-10.6103
M	-10.6104
▁streak	-10.6108
▁remember	-10.6109
58	-10.6112
▁crest	-10.6112
▁1909	-10.6113
▁scientific	-10.6113
▁narrative	-10.6114
▁Fei	-10.6114
▁1880	-10.6114
tav	-10.6116
▁Prior	-10.6118
▁Plo	-10.612
▁Jesu	-10.612
▁Palace	-10.612
▁Tru	-10.612
▁attribute	-10.6128
▁59	-10.6132
▁restrict	-10.6132
▁selection	-10.6141
ormula	-10.6156
iana	-10.6158
▁Garc	-10.6166
▁Tel	-10.6167
▁observe	-10.6171
▁lap	-10.6178
ology	-10.6184
greed	-10.6194
▁Muld	-10.6195
ata	-10.6203
▁Hump	-10.621
▁IV	-10.6214
▁Tri	-10.6217
▁Quin	-10.6227
▁intense	-10.6229
▁corn	-10.6233
▁designer	-10.6234
▁Run	-10.6237
▁criticis	-10.6242
ncy	-10.6244
▁hydro	-10.6247
▁electronic	-10.6251
▁disc	-10.6252
▁affair	-10.6256
▁lb	-10.6256
▁Design	-10.6256
▁perspective	-10.6256
▁equivalent	-10.6256
▁expens	-10.6257
▁Lancas	-10.6259
▁Guide	-10.626
▁1935	-10.6261
▁improvement	-10.6262
▁cease	-10.6265
▁Poland	-10.6267
▁picture	-10.6267
▁global	-10.6267
▁hous	-10.627
▁Swed	-10.6271
▁intensifi	-10.6277
ji	-10.6279
▁cloud	-10.628
▁Wolf	-10.6282
▁tone	-10.6287
▁des	-10.6291
▁71	-10.6293
▁marks	-10.6293
olar	-10.6298
offman	-10.6302
▁stands	-10.6308
▁sun	-10.6309
tendo	-10.6311
▁trie	-10.6315
▁Lei	-10.6324
istic	-10.6329
▁Eric	-10.6331
▁Patric	-10.6331
▁Pr	-10.6335
▁divers	-10.6339
we	-10.6364
metric	-10.6366
▁Serb	-10.6368
▁Guy	-10.638
▁ill	-10.6385
▁format	-10.6388
▁predict	-10.6395
siege	-10.6396
seas	-10.64
eninsula	-10.6404
ä	-10.6405
▁Enterprise	-10.6405
▁Release	-10.6405
▁Shakespeare	-10.6405
▁escort	-10.6405
munition	-10.6405
▁gift	-10.6405
▁erect	-10.6405
▁extension	-10.6405
▁Bank	-10.6406
▁chamber	-10.6408
▁Giant	-10.6409
▁Nick	-10.6409
▁1932	-10.641
▁Allah	-10.6411
67	-10.6415
▁UN	-10.6421
▁Ba	-10.6422
▁settl	-10.6425
ership	-10.6429
▁transition	-10.643
▁mode	-10.6431
ological	-10.6453
▁stream	-10.6484
▁Every	-10.649
▁agenc	-10.6498
▁Di	-10.6499
▁Shao	-10.6504
▁deck	-10.6506
▁wins	-10.651
▁thin	-10.6517
▁patrol	-10.6523
▁Lords	-10.6534
J	-10.654
rence	-10.6543
▁runner	-10.6556
▁prerogative	-10.6556
▁feather	-10.6557
▁holiday	-10.6557
▁1929	-10.6557
▁circumstance	-10.6557
▁Communist	-10.6557
▁climate	-10.6558
▁absence	-10.6559
▁price	-10.6559
▁fifteen	-10.656
▁1921	-10.656
▁reconstruction	-10.656
amino	-10.657
▁gone	-10.6574
▁emphasis	-10.6575
▁purchas	-10.6578
▁bann	-10.6579
▁circle	-10.6583
▁McCa	-10.6584
▁Merc	-10.6591
▁prisoner	-10.6602
ár	-10.6613
fer	-10.662
▁resemble	-10.6625
▁ranking	-10.6632
▁narrat	-10.6633
▁continent	-10.6642
▁destructi	-10.6644
▁Kod	-10.6649
▁generat	-10.6656
▁amateur	-10.6657
mura	-10.6662
▁Tale	-10.6664
▁classe	-10.6667
▁considerabl	-10.6671
▁Cambodia	-10.6676
▁solid	-10.6682
▁Late	-10.6683
▁advertis	-10.6695
mperor	-10.6707
atu	-10.6708
▁Hospital	-10.671
▁Education	-10.671
▁acclaim	-10.671
▁exhaust	-10.671
▁Sweet	-10.671
▁goddess	-10.671
▁beautiful	-10.671
▁Geoff	-10.671
▁reconn	-10.6711
▁Pitman	-10.6711
▁waters	-10.6712
▁deem	-10.6713
▁gross	-10.6714
▁fountain	-10.6715
▁Dark	-10.6716
▁1938	-10.6717
▁argument	-10.6718
▁propose	-10.672
▁Imperi	-10.6722
▁buy	-10.6725
graf	-10.6726
▁Republican	-10.6728
46	-10.6729
▁1962	-10.6737
▁Ancient	-10.6745
▁Wan	-10.6746
▁Vice	-10.6746
▁trace	-10.6746
ni	-10.6755
rising	-10.677
▁Station	-10.6771
▁influen	-10.6772
ana	-10.6774
▁canon	-10.6785
X	-10.6799
ugu	-10.68
▁cat	-10.6801
aware	-10.6804
▁cri	-10.6807
math	-10.6819
▁prison	-10.6821
FA	-10.6828
▁Pri	-10.6832
how	-10.6837
▁Bur	-10.6842
▁behavio	-10.6849
▁listing	-10.685
69	-10.6852
▁suburb	-10.6858
▁interpret	-10.6862
▁Phoeni	-10.6863
▁Islam	-10.6864
▁answer	-10.6866
▁Protestant	-10.6866
▁helmet	-10.6867
▁comparison	-10.6867
▁residence	-10.6867
▁accompany	-10.6867
▁renew	-10.6867
▁professor	-10.6867
▁departure	-10.6867
▁drink	-10.6867
▁exposure	-10.6867
gram	-10.6867
▁Space	-10.6867
▁Thai	-10.6868
▁spiritual	-10.6868
▁simultaneous	-10.6871
▁disaster	-10.6872
▁investigation	-10.6873
▁dock	-10.6874
rich	-10.6874
am	-10.6874
▁Matt	-10.6877
▁Y	-10.6877
▁Dominica	-10.6889
▁Now	-10.689
▁false	-10.6891
▁Palestin	-10.6892
▁shirt	-10.6893
56	-10.6898
▁ti	-10.6907
▁Kell	-10.691
▁Mad	-10.6912
▁Jay	-10.6922
▁Jew	-10.6938
▁compris	-10.6939
▁WA	-10.6942
▁Burn	-10.6958
▁industrial	-10.6959
▁meter	-10.6961
70	-10.6966
▁developer	-10.6972
uji	-10.6982
▁crash	-10.6983
▁conclude	-10.6984
▁rug	-10.6987
▁Our	-10.6987
ith	-10.6994
▁promise	-10.7006
▁Joy	-10.7014
▁impossib	-10.7014
▁Lega	-10.7015
▁colleague	-10.7025
▁tributar	-10.7025
▁disappoint	-10.7025
▁scatter	-10.7025
▁cinema	-10.7026
▁mixture	-10.7027
athedral	-10.7029
▁parish	-10.7029
▁concentration	-10.703
▁Stock	-10.703
▁shoulder	-10.7031
▁blame	-10.7034
▁Emm	-10.7036
▁rhyme	-10.7037
▁Furt	-10.7037
▁substitute	-10.7038
teel	-10.7038
▁DC	-10.7042
▁showing	-10.7042
throne	-10.7044
▁Rhodesia	-10.7057
▁depiction	-10.7057
▁undergo	-10.7057
▁legislati	-10.7065
ugb	-10.7068
▁blocks	-10.7072
▁crake	-10.7073
▁Gray	-10.7076
▁shop	-10.7078
la	-10.7083
▁Fin	-10.7093
▁grade	-10.7093
▁Polic	-10.7095
▁resistan	-10.7096
▁exercise	-10.7096
▁Bark	-10.7102
▁Territor	-10.7107
hannel	-10.7108
▁bearing	-10.7108
▁assum	-10.7111
▁motor	-10.7138
gular	-10.7143
un	-10.7153
▁originat	-10.7158
▁Glas	-10.7161
▁Gil	-10.7164
▁nurse	-10.7173
▁fold	-10.7185
▁Ustaš	-10.7186
▁scheme	-10.7186
▁skull	-10.7186
▁Saturday	-10.7187
▁manuscript	-10.7187
▁Fernand	-10.7187
▁Krak	-10.7187
▁aggressive	-10.7188
▁brick	-10.7188
inje	-10.7189
▁huge	-10.7189
▁Human	-10.719
▁elevation	-10.7192
▁northward	-10.7195
▁pure	-10.7198
▁Moore	-10.7199
▁infrastructur	-10.7199
▁Along	-10.7202
▁behavior	-10.7204
▁Dave	-10.721
▁giant	-10.7213
19	-10.7217
▁statistic	-10.7221
▁biographer	-10.7225
life	-10.7235
▁112	-10.7239
▁USD	-10.7244
▁exten	-10.7248
▁diet	-10.7248
dolen	-10.7265
▁164	-10.7272
▁66	-10.7284
etts	-10.7286
aven	-10.729
▁Israeli	-10.7301
▁wherea	-10.7303
▁CE	-10.7303
▁demonstrat	-10.7305
▁79	-10.7307
▁bay	-10.7317
▁Back	-10.7322
▁Ch	-10.7322
▁blow	-10.7325
83	-10.7326
OC	-10.7326
▁Bert	-10.7327
48	-10.7335
▁flower	-10.7337
▁Con	-10.734
▁witness	-10.7342
▁Mexic	-10.7343
▁Eagle	-10.735
▁DAG	-10.735
▁sentiment	-10.735
▁creek	-10.735
▁suspect	-10.735
▁tribute	-10.7351
▁Treat	-10.7351
▁brand	-10.7351
▁Blood	-10.7351
▁Tiger	-10.7351
▁modifi	-10.7352
ELI	-10.7352
▁reinforcement	-10.7354
▁loan	-10.7354
▁chain	-10.7358
MO	-10.7359
▁realize	-10.7362
▁Tim	-10.7364
▁impression	-10.7364
▁Pin	-10.7366
▁continuous	-10.7366
▁Rhy	-10.7368
▁tube	-10.7368
▁commandment	-10.7369
ich	-10.7371
▁Face	-10.7373
▁gather	-10.7374
▁Media	-10.7374
▁useful	-10.7374
▁Bass	-10.7377
▁melod	-10.7379
▁Monta	-10.7384
▁slope	-10.7389
▁refuse	-10.739
▁willing	-10.7398
▁architect	-10.7403
▁Hit	-10.7405
▁solution	-10.7422
▁restore	-10.7432
▁Cold	-10.7437
▁Philli	-10.7449
▁sunk	-10.7454
▁union	-10.7458
▁turns	-10.7459
▁earning	-10.7464
cute	-10.7468
CA	-10.7481
▁van	-10.7483
pite	-10.7485
▁graduat	-10.7504
▁Pa	-10.7507
▁decorat	-10.7508
▁speaker	-10.7511
arvati	-10.7512
▁Barbar	-10.7516
▁Journal	-10.7516
▁helicopter	-10.7517
▁jackrabbit	-10.7517
▁dinosaur	-10.7517
▁shelter	-10.7517
▁carbon	-10.7517
▁choir	-10.7517
▁embark	-10.7517
▁accurate	-10.7517
▁conversation	-10.7518
▁kingdom	-10.7518
▁Hokie	-10.7519
▁differ	-10.7519
▁See	-10.7519
▁definition	-10.7519
▁Norway	-10.7519
▁Cultur	-10.7521
▁1928	-10.7521
▁Township	-10.7521
▁tight	-10.7522
▁bus	-10.7524
▁encourage	-10.7525
▁Edi	-10.7529
▁requirement	-10.7529
▁code	-10.7535
▁cook	-10.7539
▁artificial	-10.754
▁Da	-10.7543
▁Main	-10.7545
▁execut	-10.7548
ilit	-10.7553
▁drums	-10.7553
pper	-10.7559
erff	-10.7565
▁Thu	-10.757
▁rid	-10.7571
▁Q	-10.7572
▁Dis	-10.7573
▁Jar	-10.7573
▁carv	-10.7586
ware	-10.7594
▁Historic	-10.7596
▁Defens	-10.7596
▁Evan	-10.7597
▁FR	-10.7604
▁Grad	-10.7609
▁Sam	-10.7614
▁farmer	-10.7618
gner	-10.7622
▁Bell	-10.7622
DH	-10.7627
▁dad	-10.7628
▁promis	-10.7629
66	-10.763
ix	-10.7633
▁syn	-10.7635
▁celebrat	-10.7638
erial	-10.7641
▁convention	-10.7644
▁combine	-10.7645
mer	-10.7661
▁88	-10.7662
EC	-10.7663
▁Hard	-10.7663
cular	-10.7665
▁Minist	-10.767
▁sale	-10.7678
▁Cle	-10.7682
▁incorporate	-10.7682
▁principle	-10.7687
▁Nebr	-10.7687
▁substance	-10.7687
▁shrine	-10.7687
▁Scu	-10.7688
▁Eaton	-10.7689
▁1927	-10.7689
▁Senator	-10.7689
▁device	-10.769
▁magnet	-10.7691
▁librar	-10.7692
olf	-10.7693
▁profi	-10.7694
▁weigh	-10.7696
▁dense	-10.7701
▁Commando	-10.7704
▁Patty	-10.7709
▁cent	-10.7713
▁expression	-10.7719
▁inhabit	-10.7725
▁rang	-10.7727
▁Portugal	-10.7734
▁emergenc	-10.7738
state	-10.7745
▁elaborate	-10.7748
▁trick	-10.7748
▁Memori	-10.7755
▁woode	-10.7759
ita	-10.7769
ivision	-10.777
▁excavation	-10.7774
ord	-10.7774
▁Work	-10.7776
▁vice	-10.7779
▁FI	-10.778
▁partner	-10.7781
▁Dun	-10.7782
DS	-10.7783
▁insist	-10.7797
▁Marc	-10.7799
▁corner	-10.7799
▁Su	-10.7802
sswell	-10.7807
▁Ar	-10.7811
ray	-10.7818
▁philosoph	-10.7818
ace	-10.7825
▁curve	-10.7827
▁Cub	-10.7828
ke	-10.7828
▁altar	-10.7833
attle	-10.7846
meter	-10.7846
▁Philip	-10.7848
ale	-10.7856
ʻ	-10.7859
▁Yugoslav	-10.7859
▁absolute	-10.7859
▁occupation	-10.7859
▁Yankee	-10.7859
▁nickname	-10.7859
▁Stewart	-10.7859
▁garrison	-10.7859
▁inhabitant	-10.786
ureau	-10.786
▁Midge	-10.786
▁Baker	-10.7861
▁dangerous	-10.7861
▁restoration	-10.7862
▁1933	-10.7864
▁collaboration	-10.7865
▁Room	-10.7865
▁Hawaiian	-10.7866
▁slide	-10.7866
▁Eight	-10.7866
boy	-10.7867
ken	-10.7868
▁empire	-10.7868
▁1860	-10.7869
▁Haitian	-10.7869
▁follower	-10.7869
▁marry	-10.7874
work	-10.7876
▁coordinat	-10.7879
▁Weir	-10.7888
▁phrase	-10.7888
▁abundan	-10.7888
▁Nat	-10.7888
uff	-10.7897
▁ches	-10.7898
▁Race	-10.7899
▁vertical	-10.7899
▁beg	-10.7907
▁span	-10.7914
▁Allen	-10.7914
▁Mathe	-10.7915
▁preced	-10.7917
▁manage	-10.7923
▁controller	-10.7925
▁trapp	-10.7932
▁lover	-10.7934
▁clock	-10.7946
▁ride	-10.7947
mouth	-10.7948
▁Ir	-10.7957
▁Ja	-10.796
▁eas	-10.7964
▁expos	-10.7965
▁circulat	-10.7965
Neil	-10.7968
tical	-10.7968
▁Kenne	-10.7975
ade	-10.7976
rie	-10.7985
▁mental	-10.7989
▁warn	-10.7994
▁characteriz	-10.8009
▁complain	-10.8012
gue	-10.8021
▁intersect	-10.8025
▁situat	-10.8027
▁grave	-10.8033
▁Mozambi	-10.8034
▁ethnic	-10.8034
▁virtual	-10.8034
▁poison	-10.8034
▁divorce	-10.8035
▁Wicca	-10.8035
▁prize	-10.8035
▁doctrine	-10.8035
▁Chapel	-10.8036
▁doctor	-10.8036
▁artwork	-10.8036
▁Niel	-10.8037
▁politician	-10.8037
▁attitude	-10.8038
▁elder	-10.8041
▁translation	-10.8042
▁cabin	-10.8042
▁humor	-10.8044
▁Robin	-10.8044
▁1957	-10.8046
ica	-10.8048
▁Abb	-10.805
▁Yeo	-10.8051
ile	-10.8053
ets	-10.8054
▁sharp	-10.8057
▁Fair	-10.8059
▁pine	-10.8061
▁choose	-10.8062
ough	-10.8063
cyclic	-10.8065
▁switch	-10.8065
▁Ham	-10.8069
▁advisor	-10.8069
▁Ash	-10.8075
▁celebrate	-10.8076
▁achievement	-10.8079
▁courts	-10.8082
▁900	-10.8084
▁Bath	-10.809
▁correspond	-10.8099
▁vi	-10.8099
▁Last	-10.81
dium	-10.8106
▁sky	-10.8106
▁statue	-10.8115
▁lift	-10.8124
off	-10.8124
mont	-10.8125
CC	-10.8126
▁Dean	-10.8131
ranch	-10.8139
▁Massac	-10.8148
766	-10.8151
▁mediu	-10.8153
▁Head	-10.8156
ot	-10.8157
▁Jr	-10.8158
▁Cecil	-10.8163
▁Made	-10.8165
▁memorial	-10.8169
artial	-10.8174
ai	-10.8178
▁63	-10.818
▁Russia	-10.8181
▁orchestra	-10.8188
▁evacuat	-10.819
▁import	-10.8191
▁spin	-10.8197
▁craft	-10.8203
▁Fran	-10.8203
erfect	-10.8209
40	-10.8211
▁danger	-10.8212
▁vegeta	-10.8212
▁suspend	-10.8213
▁Hudson	-10.8213
ś	-10.8213
▁tissue	-10.8213
▁Network	-10.8213
▁compet	-10.8213
▁phone	-10.8213
▁Celtic	-10.8213
▁absorb	-10.8213
▁Railway	-10.8213
▁frigate	-10.8213
ourney	-10.8214
▁ticket	-10.8215
▁Place	-10.8217
▁vast	-10.8217
▁Hol	-10.8218
▁Ni	-10.8219
▁sp	-10.822
▁cla	-10.822
▁infection	-10.8221
▁measurement	-10.8223
▁1850	-10.8226
anagement	-10.8227
istan	-10.8229
▁Season	-10.8236
▁manufactur	-10.8242
▁anekānta	-10.8243
▁82	-10.8245
ico	-10.8245
▁Barry	-10.8248
▁explore	-10.8248
fusion	-10.8251
▁check	-10.8255
▁tool	-10.8257
▁burial	-10.8257
▁reli	-10.8263
▁readers	-10.8274
▁140	-10.8274
ntil	-10.8278
▁organis	-10.8278
temporary	-10.8279
owi	-10.8286
▁hang	-10.829
▁Tog	-10.8291
▁Ko	-10.8294
▁touch	-10.8296
▁Front	-10.8297
yria	-10.8317
▁Christin	-10.8321
▁Sport	-10.8323
ca	-10.833
rell	-10.834
▁Marg	-10.834
▁dream	-10.8346
bo	-10.8348
AS	-10.8355
kin	-10.8356
▁relation	-10.8362
▁realis	-10.8367
sky	-10.8374
▁Pre	-10.8382
▁preserve	-10.8385
▁Hind	-10.8386
▁depart	-10.8393
▁Confession	-10.8395
▁mammal	-10.8395
▁striking	-10.8395
▁Magdalen	-10.8395
▁Organization	-10.8395
▁perceive	-10.8395
▁reservoir	-10.8395
▁dynamic	-10.8395
▁lake	-10.8395
▁pistol	-10.8395
▁railroad	-10.8396
▁halt	-10.8396
▁classification	-10.8396
▁hot	-10.8397
▁Trek	-10.8398
▁1926	-10.8398
▁Silver	-10.8398
▁playoff	-10.8402
▁Arsenal	-10.8402
76	-10.8403
ecki	-10.8407
▁pit	-10.8415
▁Swi	-10.8421
lew	-10.8421
▁representation	-10.8422
AA	-10.8422
▁Charm	-10.845
rick	-10.846
anyon	-10.8465
▁98	-10.8472
rt	-10.8473
▁fate	-10.8479
▁06	-10.8483
77	-10.8487
▁pale	-10.849
25	-10.849
▁hol	-10.8495
nnie	-10.8501
▁crosse	-10.8504
▁shar	-10.8507
▁Class	-10.8509
▁Fe	-10.8516
▁tru	-10.8517
▁assume	-10.8519
Malle	-10.8521
▁Stop	-10.8528
▁devote	-10.8535
ex	-10.8535
74	-10.8553
▁horn	-10.8562
▁177	-10.8562
▁accomplish	-10.8577
ategor	-10.8578
▁Express	-10.858
▁identify	-10.858
▁buoy	-10.858
▁error	-10.858
▁audio	-10.8581
▁Corporation	-10.8581
▁imprison	-10.8581
▁teammate	-10.8581
▁cargo	-10.8582
▁McL	-10.8583
▁pace	-10.8583
▁1905	-10.8584
▁Gho	-10.8585
▁reduction	-10.8585
▁Glad	-10.8586
ā	-10.8591
▁Witch	-10.8592
▁Michel	-10.8592
lock	-10.8597
▁Bible	-10.8606
▁alleged	-10.8608
▁Rain	-10.8608
ario	-10.8618
▁Davi	-10.8619
▁Pass	-10.8623
▁punt	-10.8623
▁creative	-10.8627
▁genetic	-10.8637
res	-10.8638
▁Neve	-10.8638
▁thereafter	-10.8642
▁stoo	-10.8645
▁07	-10.8659
ski	-10.8665
▁VII	-10.8669
▁fin	-10.868
▁Hu	-10.8689
▁kne	-10.869
▁owners	-10.8693
▁Such	-10.8715
▁emotion	-10.8716
cake	-10.8719
▁05	-10.8732
▁funera	-10.8738
▁custom	-10.8739
ize	-10.874
▁ago	-10.874
▁FIF	-10.8744
▁initiat	-10.8745
▁Gun	-10.8746
eigh	-10.8748
▁ensu	-10.8749
▁marking	-10.8753
adhe	-10.876
▁challeng	-10.876
▁puppet	-10.8768
“	-10.8769
▁Chevalier	-10.8769
▁Paralympic	-10.8769
▁dwarf	-10.8769
▁illegal	-10.8769
▁transmission	-10.8769
▁decay	-10.8769
▁Provinc	-10.8769
▁structural	-10.8769
▁Qedarite	-10.8769
▁provision	-10.8769
▁Iraq	-10.8769
▁outbreak	-10.877
▁ballad	-10.877
▁recreation	-10.8771
▁anthem	-10.8771
▁Garden	-10.8771
▁Sis	-10.878
▁Nex	-10.8781
▁appointment	-10.8786
▁humanit	-10.8788
troi	-10.8788
▁appropriate	-10.8789
▁merg	-10.8791
▁onward	-10.8793
clusion	-10.8795
▁guid	-10.8796
▁locate	-10.8799
▁assassinat	-10.8801
ang	-10.8806
▁participate	-10.8809
▁presentation	-10.8813
▁Romanian	-10.8816
▁Peac	-10.8826
oz	-10.8829
ization	-10.883
▁Kir	-10.8833
▁upset	-10.8835
▁Yo	-10.8844
▁relate	-10.8849
egon	-10.885
▁Lover	-10.8859
▁Christi	-10.8859
▁Madi	-10.886
▁Ed	-10.8862
▁Bus	-10.8866
▁para	-10.8866
▁Te	-10.8872
▁93	-10.8873
▁sacr	-10.8885
bee	-10.8889
▁authoriz	-10.8894
ov	-10.8898
▁Pole	-10.8903
03	-10.8914
▁reinforce	-10.8926
▁Arch	-10.8945
▁Thing	-10.8956
atechism	-10.8958
▁Building	-10.8961
▁consequence	-10.8961
▁uncertain	-10.8961
▁platoon	-10.8961
▁concession	-10.8961
▁fantas	-10.8961
▁Madrid	-10.8961
▁insect	-10.8961
▁Section	-10.8961
▁Voyage	-10.8961
▁Beeton	-10.8962
▁Dakota	-10.8962
enjam	-10.8962
▁prepare	-10.8964
▁Nash	-10.8965
ber	-10.8969
▁Viet	-10.8969
▁gap	-10.897
▁1925	-10.8971
▁jet	-10.8971
▁Tracy	-10.8974
▁mill	-10.8979
gov	-10.8979
utstanding	-10.898
▁animation	-10.898
athan	-10.8986
▁bind	-10.8988
▁cancell	-10.8993
▁garden	-10.8997
▁Lu	-10.8998
▁sink	-10.9001
▁saint	-10.9001
▁mate	-10.9003
phy	-10.9004
17	-10.9012
han	-10.9012
▁Ric	-10.9012
▁sit	-10.9012
▁74	-10.9013
▁08	-10.9013
▁Raf	-10.9016
▁citizens	-10.9018
aka	-10.902
rey	-10.9025
▁wings	-10.9026
▁vici	-10.9031
wick	-10.9049
graph	-10.9049
▁97	-10.9053
ette	-10.9072
▁sight	-10.9074
▁Univers	-10.9075
dominant	-10.9079
▁pain	-10.9089
▁Pra	-10.9092
▁68	-10.9093
grad	-10.9098
▁Bas	-10.9116
ification	-10.912
▁Columb	-10.9129
ama	-10.9141
ker	-10.9152
▁satellite	-10.9157
▁smooth	-10.9157
▁Natural	-10.9157
▁theatrical	-10.9157
▁costume	-10.9158
▁frustrat	-10.9158
▁1934	-10.9158
▁demolish	-10.9159
▁dozen	-10.9159
▁gust	-10.916
▁suicide	-10.9161
▁interpretation	-10.9162
▁barrier	-10.9162
▁Lib	-10.9164
▁engagement	-10.9164
▁leukemia	-10.9165
▁submitt	-10.9167
▁Cong	-10.9179
▁medal	-10.9179
▁stick	-10.9179
▁compare	-10.918
▁varie	-10.918
▁Member	-10.9187
▁Berlin	-10.9187
fles	-10.9189
▁pounder	-10.9199
ryce	-10.9208
▁environmental	-10.921
cut	-10.9211
▁Glob	-10.9219
aia	-10.922
plasm	-10.9223
▁Ful	-10.9224
▁artistic	-10.9224
▁personalit	-10.9227
rapp	-10.9232
▁illustrat	-10.9232
mbar	-10.9232
▁Case	-10.9232
▁diplomat	-10.9243
▁Lamb	-10.9246
▁seiz	-10.9251
▁Cull	-10.9256
▁municipal	-10.9259
▁Greg	-10.926
▁asteroid	-10.9266
▁comprise	-10.9269
▁plus	-10.9274
▁Nel	-10.9277
▁rebuil	-10.9285
▁tenth	-10.9312
esse	-10.9317
▁Artist	-10.9319
▁Wall	-10.9322
▁Rat	-10.9324
reme	-10.934
stock	-10.9342
▁disrupt	-10.9347
nburg	-10.9349
▁export	-10.9351
power	-10.9351
NL	-10.9353
▁Hawaii	-10.9354
witzer	-10.9354
ife	-10.9355
▁Eshmun	-10.9357
▁Vulcan	-10.9357
▁junior	-10.9357
▁athletic	-10.9357
▁Adventure	-10.9357
▁cousin	-10.9357
▁exploit	-10.9357
▁disband	-10.9357
▁Again	-10.9357
▁bomb	-10.9357
▁battlecruiser	-10.9357
▁biological	-10.9358
▁pleasure	-10.9358
▁poll	-10.9358
▁persist	-10.9358
▁destination	-10.9359
▁lawyer	-10.9359
▁Ul	-10.9361
▁WW	-10.9362
▁stock	-10.9362
▁sixteen	-10.9363
▁Priest	-10.9363
▁1908	-10.9364
▁revenue	-10.9364
usiness	-10.9364
let	-10.9365
▁1870	-10.9366
▁Walker	-10.9367
▁Wild	-10.9368
▁Pu	-10.9369
▁Imagin	-10.9369
clear	-10.937
▁sure	-10.9391
▁shut	-10.9395
▁myth	-10.9402
▁manufacturer	-10.9407
▁anger	-10.9411
▁Kong	-10.9418
grid	-10.9419
▁mayor	-10.9422
▁topp	-10.9423
▁Ta	-10.9426
les	-10.9433
▁excit	-10.9433
▁Kati	-10.9437
▁descend	-10.9445
▁Penn	-10.9447
▁struggl	-10.9454
▁excavations	-10.946
▁minorit	-10.9468
ASA	-10.9484
▁Ku	-10.9485
▁invest	-10.9495
▁subt	-10.9506
▁therap	-10.9507
▁fitt	-10.9517
enon	-10.9521
stella	-10.9528
▁Hous	-10.953
▁ideal	-10.9537
▁Gregor	-10.9538
▁joke	-10.954
▁toll	-10.9544
▁pack	-10.9546
▁Sup	-10.9549
▁knee	-10.955
▁prohibit	-10.9551
▁convict	-10.9552
▁culminat	-10.9561
▁intellectual	-10.9561
▁kilometer	-10.9561
▁obvious	-10.9561
▁strict	-10.9561
▁yield	-10.9561
rove	-10.9561
▁shock	-10.9561
▁closure	-10.9562
▁Caesar	-10.9563
▁Adel	-10.9563
▁69	-10.9563
▁Mor	-10.9564
▁complicat	-10.9565
▁violation	-10.9565
▁negotiation	-10.9565
natural	-10.9566
▁1923	-10.9566
▁cup	-10.9567
ulu	-10.9567
▁Mrs	-10.9568
▁Harrison	-10.9569
owa	-10.9569
ax	-10.957
▁Ball	-10.9571
ean	-10.9577
aski	-10.958
▁drum	-10.9585
▁Actor	-10.9586
▁Lane	-10.9589
▁strategic	-10.96
▁mole	-10.9607
▁Fire	-10.9609
▁balance	-10.961
aster	-10.9628
inner	-10.9633
ep	-10.9644
▁trust	-10.965
▁Abbe	-10.9653
▁favorabl	-10.9656
▁Wing	-10.9662
▁Cook	-10.9668
▁Anne	-10.9671
▁Marian	-10.9672
rian	-10.9674
▁tackle	-10.9679
▁Ida	-10.9679
ventual	-10.968
▁Argentine	-10.9683
▁Antoni	-10.9688
▁proportion	-10.9695
▁wishe	-10.9703
▁qualifi	-10.9705
▁angle	-10.9717
▁Oh	-10.9722
tra	-10.9723
▁Sorr	-10.9724
▁Countr	-10.9727
abour	-10.9728
▁fame	-10.9732
▁Korea	-10.9735
▁restor	-10.9737
73	-10.9742
▁decrease	-10.9745
nnett	-10.9746
tah	-10.9747
ors	-10.9751
▁sad	-10.9765
▁Lincoln	-10.9769
▁Singapore	-10.9769
▁competitor	-10.9769
▁parody	-10.977
▁cluster	-10.977
▁diagnos	-10.977
▁compliment	-10.977
▁loose	-10.977
▁armour	-10.977
▁punishment	-10.9771
▁thirteen	-10.9771
▁regulation	-10.9772
▁resolution	-10.9773
▁essay	-10.9773
▁rotation	-10.9774
▁tension	-10.9774
▁Para	-10.9775
▁strain	-10.9776
▁eighteen	-10.9776
▁percentage	-10.9778
▁execution	-10.9781
▁1830	-10.9782
▁Arka	-10.9783
▁exhibition	-10.9786
▁Ingr	-10.979
▁Nad	-10.979
▁Met	-10.9791
▁Look	-10.9792
▁Clint	-10.9793
he	-10.9796
▁USS	-10.9798
▁NL	-10.9799
▁log	-10.9801
▁Ush	-10.9809
▁Sb	-10.9811
uda	-10.9814
aku	-10.9823
▁gr	-10.9825
oot	-10.9829
Pa	-10.9832
▁67	-10.9835
▁Classic	-10.9835
ret	-10.9837
▁impos	-10.9846
umn	-10.985
▁pan	-10.9852
▁prepar	-10.9855
non	-10.9858
ti	-10.986
▁identifie	-10.9876
yard	-10.9892
▁Die	-10.9893
ise	-10.9895
per	-10.9903
▁journal	-10.991
▁valid	-10.992
▁09	-10.9923
▁Ken	-10.9924
cer	-10.9932
ake	-10.9938
spel	-10.9952
▁translat	-10.9952
▁Rand	-10.9953
▁tape	-10.9969
▁Sil	-10.9969
nsa	-10.9971
▁Belgi	-10.9976
▁chick	-10.9978
sey	-10.9979
▁labor	-10.998
temporari	-10.9981
▁Matthew	-10.9982
▁Sanskrit	-10.9982
▁deliberate	-10.9982
▁semifinal	-10.9982
▁supplement	-10.9982
▁devotion	-10.9982
▁extinct	-10.9982
▁Credit	-10.9982
▁shaft	-10.9982
▁stump	-10.9982
▁Machine	-10.9982
▁membrane	-10.9983
▁hull	-10.9983
▁audition	-10.9983
▁Where	-10.9983
▁gray	-10.9984
▁communist	-10.9984
▁fourteen	-10.9984
▁compilation	-10.9984
▁programming	-10.9985
▁Observer	-10.9986
▁laborator	-10.9986
▁Pi	-10.9987
▁Belgian	-10.9989
▁Mass	-10.9992
▁celebration	-10.9993
▁reader	-10.9997
▁Flower	-10.9998
ingham	-10.9999
▁sang	-11.0005
▁assess	-11.0005
▁Roberts	-11.0006
▁Syria	-11.0017
▁topic	-11.0024
▁Dea	-11.0025
▁extrat	-11.0029
ibis	-11.0033
father	-11.0034
▁runway	-11.0037
vin	-11.0038
▁contribute	-11.0038
▁87	-11.0038
▁resum	-11.0038
▁nave	-11.0039
▁Edge	-11.004
rmament	-11.0041
▁debt	-11.0045
▁Farm	-11.0046
▁Trail	-11.0056
▁relations	-11.0062
air	-11.0064
▁179	-11.0067
▁Lud	-11.0068
▁archbishop	-11.0068
▁prospect	-11.0069
east	-11.0069
hus	-11.0077
▁File	-11.0091
▁bat	-11.0092
▁recurr	-11.0097
organ	-11.0098
▁Russ	-11.0099
▁89	-11.0109
▁beam	-11.011
ron	-11.0115
mobile	-11.0118
▁genera	-11.0122
▁northeaster	-11.0125
▁hire	-11.013
▁logic	-11.013
ttles	-11.0132
dine	-11.0133
▁Near	-11.0134
▁Lead	-11.0138
▁Wu	-11.0143
▁settle	-11.0148
▁hearing	-11.0166
▁twentie	-11.0178
▁jur	-11.0182
down	-11.0183
▁Francis	-11.0184
▁Chas	-11.0184
▁Chron	-11.0194
igital	-11.0195
▁condemn	-11.0196
▁urg	-11.0197
vil	-11.0199
▁neighbor	-11.0199
▁Headquarter	-11.02
▁evident	-11.02
▁explosive	-11.02
▁fossil	-11.02
▁qualify	-11.02
▁uniform	-11.02
▁merchant	-11.02
▁console	-11.02
▁Dudley	-11.02
▁Hampshire	-11.02
▁calib	-11.02
▁harbour	-11.02
▁dubb	-11.02
▁umpire	-11.02
▁steal	-11.0201
▁advi	-11.0201
▁Nazi	-11.0201
▁Hobb	-11.0202
▁Palestinian	-11.0202
▁Stavan	-11.0202
manita	-11.0204
▁1922	-11.0204
howitz	-11.0206
▁reache	-11.0207
▁trend	-11.0207
▁NS	-11.021
▁weekend	-11.0213
▁permitt	-11.0216
▁Clair	-11.0217
▁collective	-11.0219
▁noble	-11.022
▁amid	-11.0221
▁venture	-11.0224
▁Gib	-11.0226
▁Honor	-11.0227
▁declare	-11.0228
▁investment	-11.0235
▁XI	-11.0235
hoon	-11.0236
▁Syd	-11.0236
▁float	-11.0236
▁Sara	-11.0237
▁Palm	-11.024
▁Kim	-11.0241
▁experienc	-11.0241
▁southeaster	-11.0242
ubspecies	-11.0253
erard	-11.0256
▁Mer	-11.0264
▁fault	-11.0265
▁suitabl	-11.0273
aide	-11.0284
▁understo	-11.0285
▁Pen	-11.0291
lash	-11.03
▁string	-11.03
▁Mile	-11.0318
▁territori	-11.0321
▁Th	-11.0329
▁bi	-11.033
▁su	-11.033
▁spur	-11.0331
▁Bald	-11.0332
▁bombing	-11.0333
sberg	-11.0333
▁rat	-11.0334
▁Champions	-11.0343
▁Ru	-11.0347
▁po	-11.035
▁Mother	-11.035
▁02	-11.0359
▁revis	-11.0361
▁Pat	-11.0363
▁Mars	-11.0364
▁investigat	-11.0364
donna	-11.037
▁dig	-11.0374
nell	-11.0377
▁73	-11.038
▁seal	-11.0394
▁abuse	-11.0394
▁Sal	-11.0394
▁enforce	-11.0395
egister	-11.0401
▁hole	-11.0413
NC	-11.0416
lan	-11.0419
▁Shell	-11.0422
₹	-11.0422
▁Zanzibar	-11.0422
▁accommodate	-11.0422
▁administrative	-11.0422
▁suppress	-11.0422
▁Survey	-11.0422
▁pioneer	-11.0422
▁Mitchell	-11.0422
▁jaw	-11.0422
▁regain	-11.0422
▁Indonesia	-11.0422
▁neighborhood	-11.0422
▁Hungarian	-11.0423
▁predominant	-11.0423
▁copy	-11.0423
▁Compani	-11.0423
▁Collection	-11.0423
▁disturbance	-11.0424
▁Kirk	-11.0424
▁Report	-11.0425
▁reactor	-11.0425
▁Carlo	-11.0427
▁oxy	-11.0427
▁densit	-11.0429
▁Deep	-11.0429
▁1861	-11.0431
▁Rick	-11.0431
▁hi	-11.0432
▁AR	-11.0434
▁restriction	-11.0437
▁Plate	-11.0438
▁volunteer	-11.0438
▁advertisement	-11.044
▁Alex	-11.0441
derers	-11.0443
▁mature	-11.0447
orne	-11.0459
▁Movie	-11.046
oven	-11.0466
▁successive	-11.0471
▁101	-11.0472
▁skeleton	-11.0477
▁Marshal	-11.0481
dream	-11.0482
itting	-11.0483
bound	-11.0486
▁handle	-11.049
▁ba	-11.0498
▁laws	-11.05
terchange	-11.05
ography	-11.0501
▁Sora	-11.0503
▁el	-11.0504
▁bow	-11.0511
▁starter	-11.0517
▁kings	-11.0521
▁bowler	-11.0532
▁58	-11.0536
▁realiz	-11.0536
▁Are	-11.0538
▁Canning	-11.0545
▁resembl	-11.0548
▁Pier	-11.0549
▁Mu	-11.0551
terra	-11.0554
uve	-11.0556
▁ordering	-11.0558
▁Intern	-11.056
putation	-11.057
▁Doo	-11.058
▁define	-11.0583
▁Harr	-11.0602
▁Jer	-11.0607
linger	-11.0614
▁significan	-11.0627
esi	-11.0627
put	-11.0632
ap	-11.0632
▁Fred	-11.0633
▁bare	-11.0639
▁funn	-11.0641
▁synonym	-11.0645
▁Gardner	-11.0649
▁devastat	-11.0649
▁occupy	-11.0649
▁cotton	-11.0649
▁Yellow	-11.0649
▁Twenty	-11.065
▁apply	-11.065
▁Dahl	-11.065
▁Freak	-11.065
▁Naza	-11.065
▁queen	-11.0651
▁Hoover	-11.0651
▁illness	-11.0652
▁Health	-11.0652
iness	-11.0652
▁gravit	-11.0652
▁Mel	-11.0653
▁Number	-11.0653
▁Everton	-11.0655
▁sq	-11.0657
▁epic	-11.0659
▁Toni	-11.066
▁lifetime	-11.0662
▁Monke	-11.0663
▁Bush	-11.0663
▁revival	-11.0664
ná	-11.0664
▁graduate	-11.0667
▁350	-11.0669
▁Helen	-11.0669
▁stress	-11.067
▁isotope	-11.0671
▁Sina	-11.0673
▁Hanna	-11.0676
▁pursu	-11.0676
▁DD	-11.0678
▁characteristic	-11.0685
▁astronomer	-11.0685
▁loud	-11.0686
▁Bret	-11.0693
▁similarit	-11.0698
ide	-11.0699
▁revolution	-11.0705
▁spaces	-11.0706
▁reput	-11.072
▁Swede	-11.072
ori	-11.072
▁84	-11.0724
▁universal	-11.0726
guard	-11.0729
street	-11.0731
rose	-11.0733
junction	-11.0733
▁Rod	-11.0738
Tu	-11.0738
éti	-11.0741
nster	-11.0742
▁Kat	-11.0747
gin	-11.0752
▁Chi	-11.0754
▁Chap	-11.0755
▁render	-11.0761
ari	-11.0764
▁suggestion	-11.0764
▁evolv	-11.0767
▁reverse	-11.0771
▁122	-11.0773
38	-11.0775
▁Corp	-11.0775
▁Carmel	-11.0779
anime	-11.0782
▁Ron	-11.0784
▁Gael	-11.0786
▁aut	-11.0802
▁physic	-11.0809
ko	-11.0815
▁rac	-11.0819
▁boom	-11.0842
▁Bird	-11.0845
07	-11.0853
▁Norw	-11.086
▁Wis	-11.086
▁Ze	-11.0873
▁confront	-11.0878
▁Plan	-11.0879
▁displace	-11.0879
▁Female	-11.0882
▁widow	-11.0882
▁sympath	-11.0882
▁Palmyrene	-11.0882
▁competitive	-11.0882
▁enlist	-11.0882
▁dimension	-11.0882
▁Opera	-11.0882
▁Corbet	-11.0882
▁dislike	-11.0883
▁partnership	-11.0884
▁examination	-11.0885
▁interact	-11.0887
▁interception	-11.0887
▁Crusader	-11.0888
worth	-11.0891
▁Vander	-11.0893
▁announcement	-11.0893
oc	-11.0893
▁Nichol	-11.0894
▁demonstration	-11.0894
▁enzyme	-11.09
▁Raja	-11.0902
▁valu	-11.0902
blaze	-11.0905
▁quote	-11.0907
▁Austrian	-11.0911
▁loop	-11.092
▁Communit	-11.0923
▁Westm	-11.0933
▁Defen	-11.0939
evin	-11.094
▁fami	-11.0941
eet	-11.0941
▁Foo	-11.0953
▁tooth	-11.0954
▁steps	-11.0956
▁pole	-11.0957
▁painter	-11.0958
CO	-11.0965
▁Er	-11.097
ay	-11.0972
uous	-11.0975
fel	-11.0978
liot	-11.0979
▁Ya	-11.0979
eaten	-11.0979
▁inde	-11.0982
▁Zoo	-11.0984
rous	-11.0988
uart	-11.0989
saw	-11.0991
▁uncle	-11.0993
▁alternate	-11.0994
▁Euro	-11.0995
▁Fo	-11.0997
▁tide	-11.0999
▁update	-11.1
arro	-11.1001
▁unna	-11.1002
ab	-11.1002
▁failing	-11.1004
▁margin	-11.1006
▁Llo	-11.1009
▁ruler	-11.1009
▁Meteorolog	-11.1011
ø	-11.1012
▁invad	-11.1015
agre	-11.1029
▁hook	-11.105
▁permissi	-11.1051
▁Historical	-11.1052
▁Construct	-11.1056
▁Jerem	-11.1069
▁Conservati	-11.107
▁Dyna	-11.1082
sumption	-11.1089
drum	-11.1091
▁enable	-11.1094
▁convince	-11.1099
▁animat	-11.1106
▁gam	-11.1106
▁Hawai	-11.1114
▁91	-11.1119
▁fundamental	-11.1119
ã	-11.112
▁Bulgaria	-11.112
▁Eccleston	-11.112
▁Monument	-11.112
▁Tokyo	-11.112
▁abroad	-11.112
▁reopen	-11.112
▁Scout	-11.112
▁Panzer	-11.112
reutz	-11.112
▁sketch	-11.112
▁taste	-11.112
▁nineteen	-11.112
▁distant	-11.112
▁circuit	-11.112
▁seventeen	-11.112
▁climb	-11.1121
▁net	-11.1121
▁dependent	-11.1122
▁Comput	-11.1123
▁Vega	-11.1123
▁Personal	-11.1123
▁songwriter	-11.1124
▁creature	-11.1124
▁myster	-11.1127
▁symptom	-11.1127
▁1840	-11.113
▁Comic	-11.1131
▁observator	-11.1135
▁woodland	-11.1136
▁recognis	-11.1139
▁guy	-11.1141
rinth	-11.1142
▁Chen	-11.1142
▁react	-11.1143
▁anchor	-11.1146
▁Sull	-11.1147
▁complaint	-11.115
▁chord	-11.1155
▁Federation	-11.1155
▁patient	-11.1157
▁galler	-11.1157
▁instruction	-11.1162
▁Ok	-11.1167
▁investigate	-11.1167
nna	-11.1175
▁enabl	-11.1176
▁Hans	-11.1177
▁lock	-11.1186
▁bomber	-11.1187
▁ambassador	-11.1192
▁Bang	-11.1193
▁laugh	-11.1208
ttle	-11.1209
▁endur	-11.1221
▁demo	-11.1232
▁examin	-11.1233
▁premier	-11.1233
layer	-11.1247
AR	-11.1255
bai	-11.1256
▁Name	-11.1264
▁sleep	-11.1271
▁Conservat	-11.1279
▁platin	-11.1284
▁99	-11.1287
▁Web	-11.1296
▁allocat	-11.1304
▁Plu	-11.1305
ging	-11.1306
▁Josh	-11.1308
▁cu	-11.131
▁advocate	-11.1313
▁Unit	-11.1314
escription	-11.1317
▁neutral	-11.1318
▁Cret	-11.1326
▁tune	-11.1328
▁Au	-11.1332
▁probab	-11.1344
▁acquire	-11.1344
▁Gre	-11.1355
nnis	-11.1357
▁belonging	-11.1362
▁Heavy	-11.1364
▁Rothschild	-11.1364
▁Warrior	-11.1364
▁obstacle	-11.1364
▁anticipat	-11.1364
▁Pakistan	-11.1364
▁inherit	-11.1364
▁propagand	-11.1364
▁consent	-11.1364
▁Living	-11.1364
▁hamlet	-11.1364
▁evolution	-11.1364
▁mortar	-11.1364
chute	-11.1365
▁monk	-11.1365
▁Protein	-11.1365
▁knight	-11.1365
▁Batter	-11.1365
▁peninsula	-11.1365
▁landscape	-11.1365
▁overlook	-11.1366
▁commitment	-11.1366
▁peer	-11.1366
▁beaut	-11.1367
▁variable	-11.1367
▁Knight	-11.1368
ricket	-11.137
▁Cyr	-11.137
cher	-11.1372
▁Kyra	-11.1373
▁Romania	-11.1374
▁Tide	-11.1375
▁mortal	-11.1381
▁sack	-11.1381
▁rubber	-11.1381
khur	-11.1384
wich	-11.1384
ifi	-11.1385
▁sounds	-11.1386
▁clothes	-11.1387
fast	-11.1391
▁Dres	-11.1391
▁salt	-11.1393
gs	-11.1393
▁scorer	-11.1395
▁Trin	-11.1396
bow	-11.14
ayne	-11.1402
▁pose	-11.1404
rizon	-11.1406
▁immigrat	-11.1409
▁03	-11.141
▁Eu	-11.1414
▁slate	-11.1415
▁Cambodian	-11.1418
▁dual	-11.1441
▁shipment	-11.1442
▁Berk	-11.145
▁listener	-11.145
▁Cooper	-11.1452
▁remind	-11.146
▁ignor	-11.1469
▁dams	-11.147
▁True	-11.1472
amount	-11.1473
▁AT	-11.1473
▁demon	-11.1476
▁Maya	-11.1483
ask	-11.1484
▁roadway	-11.1488
▁Born	-11.1491
▁Donald	-11.1495
▁Ten	-11.15
half	-11.1502
solution	-11.1502
▁univers	-11.1504
▁im	-11.1511
og	-11.1512
▁pin	-11.1512
▁Mauri	-11.1515
▁Wave	-11.1523
▁terra	-11.1529
wan	-11.1538
▁230	-11.1539
ntimon	-11.1548
▁liner	-11.1572
▁Bar	-11.1573
rary	-11.1579
▁mytholog	-11.158
rze	-11.1583
▁Seven	-11.1586
▁Eve	-11.159
PS	-11.1591
79	-11.1595
▁Gan	-11.1598
▁Tak	-11.1603
▁scrap	-11.1606
aga	-11.1607
▁Sand	-11.1607
▁inaugura	-11.1608
▁cancel	-11.1611
▁neighbour	-11.1613
▁explicit	-11.1614
▁homosexual	-11.1614
▁immigrant	-11.1614
▁warrior	-11.1614
▁administer	-11.1614
▁inflict	-11.1614
▁irregular	-11.1614
▁mutual	-11.1614
▁Ultimate	-11.1614
▁vault	-11.1614
▁Brenda	-11.1614
▁Importan	-11.1614
▁feud	-11.1614
▁pyramid	-11.1614
▁Pirate	-11.1614
▁Technolog	-11.1614
▁hamper	-11.1614
▁Kō	-11.1614
▁descendant	-11.1615
▁garner	-11.1615
▁bombardment	-11.1615
▁vocalist	-11.1616
▁commentator	-11.1616
▁Manuel	-11.1616
▁Hor	-11.1616
lesh	-11.1617
▁charm	-11.162
▁Bernard	-11.162
▁Oak	-11.1621
lake	-11.1622
oming	-11.1622
▁Ex	-11.1625
▁illustration	-11.1625
▁Mum	-11.1626
▁Data	-11.1626
▁altarpiece	-11.1626
▁timber	-11.1627
▁noise	-11.1628
▁secretary	-11.1632
▁dealing	-11.1634
▁probe	-11.1636
▁Grace	-11.1638
▁donation	-11.1638
roller	-11.1643
▁legac	-11.1645
burg	-11.1647
▁walking	-11.1663
▁Mantell	-11.1663
▁dominate	-11.1664
▁Sag	-11.1667
▁excellen	-11.1669
▁bull	-11.167
▁bore	-11.167
▁demonstrate	-11.1671
▁mineral	-11.1674
▁freed	-11.1675
▁Mix	-11.1676
▁eliminate	-11.1681
▁del	-11.1684
avage	-11.1687
▁cutt	-11.1687
▁rivers	-11.1695
CU	-11.1696
▁Join	-11.1703
aged	-11.1708
▁pursui	-11.1715
▁Gang	-11.1722
▁verte	-11.1726
▁Male	-11.1727
▁fighter	-11.1731
▁Europa	-11.1733
▁specie	-11.1734
▁examine	-11.1749
▁Jas	-11.1749
nyi	-11.175
▁Chu	-11.1759
▁Mid	-11.1775
oon	-11.1777
ola	-11.1778
▁divide	-11.178
▁coat	-11.1789
▁conventional	-11.179
ws	-11.1791
ol	-11.1799
▁Lin	-11.1806
▁shap	-11.1806
▁revolutionar	-11.1808
▁operational	-11.1816
roadway	-11.182
▁176	-11.1823
arious	-11.1825
kins	-11.1831
▁icon	-11.184
▁Dw	-11.1843
▁SS	-11.1849
ikk	-11.185
▁instruct	-11.1856
▁mathematic	-11.1868
▁Sultan	-11.187
bracelet	-11.187
▁Baptist	-11.187
▁Campaign	-11.187
▁Subsequent	-11.187
▁discipline	-11.187
▁eagle	-11.187
▁explosion	-11.187
▁frequenc	-11.187
▁neutron	-11.187
▁zombie	-11.187
▁liquid	-11.187
▁participant	-11.187
▁suprem	-11.187
▁Performance	-11.187
▁variant	-11.1871
▁Picture	-11.1871
▁kickoff	-11.1871
ön	-11.1871
▁lime	-11.1871
▁Wiki	-11.1872
can	-11.1872
▁monster	-11.1873
▁Coach	-11.1875
▁speculation	-11.1878
▁fragil	-11.1878
▁eastward	-11.188
▁beside	-11.1881
olith	-11.1882
active	-11.1884
▁snake	-11.1884
▁kid	-11.1886
▁electron	-11.1886
▁Den	-11.1886
▁reward	-11.1887
▁aerodrome	-11.1887
AT	-11.189
▁170	-11.189
▁Wrestling	-11.1891
▁240	-11.1894
▁Trust	-11.1895
▁Atl	-11.1899
▁teach	-11.1905
▁sensitiv	-11.1915
▁apartment	-11.1919
▁mon	-11.1929
▁Ton	-11.1935
ockey	-11.1937
▁faction	-11.1938
▁finger	-11.1941
▁experimental	-11.1953
▁ratio	-11.1961
▁Champion	-11.1962
ndhe	-11.1963
▁sw	-11.1974
▁Las	-11.1975
▁spectr	-11.1977
dir	-11.1992
gud	-11.1998
fort	-11.1998
▁passion	-11.2
▁Profess	-11.2003
▁Skin	-11.2005
▁spott	-11.2007
course	-11.2012
▁updat	-11.2013
▁McE	-11.2015
▁Mk	-11.202
▁Nine	-11.2023
▁ramp	-11.2032
▁duet	-11.2035
book	-11.2052
▁Care	-11.2052
▁Gill	-11.2057
▁inspire	-11.2058
▁delegate	-11.2065
▁Shel	-11.2067
season	-11.2069
▁Oxf	-11.2079
▁lad	-11.2083
▁Give	-11.2085
▁dispatch	-11.2094
poli	-11.2097
▁dri	-11.2101
egian	-11.211
▁steep	-11.2112
▁molecul	-11.2113
▁dies	-11.2114
▁Hebr	-11.2115
▁congregation	-11.2129
▁expense	-11.2131
▁redesign	-11.2133
ì	-11.2133
▁brilliant	-11.2133
▁denomination	-11.2133
▁reagent	-11.2133
▁sibling	-11.2133
▁Shadow	-11.2133
ư	-11.2133
▁juvenile	-11.2133
▁ancestor	-11.2133
▁detach	-11.2133
▁Return	-11.2133
▁turbine	-11.2133
▁pump	-11.2133
▁reprint	-11.2134
▁grain	-11.2134
▁perception	-11.2135
▁vital	-11.2135
▁exile	-11.2135
▁thrill	-11.2136
▁definite	-11.2136
▁Thak	-11.2137
▁Singh	-11.2137
▁brutal	-11.2138
▁moist	-11.2139
▁Ruler	-11.214
▁Ye	-11.2141
▁mask	-11.2141
▁trough	-11.2141
▁1901	-11.2143
▁stain	-11.2145
▁decoration	-11.2149
▁lyrical	-11.2152
▁Judi	-11.2152
▁Medal	-11.2154
bel	-11.2154
▁Bright	-11.2162
▁Father	-11.2162
▁leak	-11.2164
▁decreas	-11.2164
▁fat	-11.2167
▁sailor	-11.2169
▁repeat	-11.2171
▁Lab	-11.2172
▁Books	-11.2174
▁Moon	-11.2176
▁champions	-11.2181
itive	-11.2181
▁quantit	-11.2187
▁78	-11.2189
▁Steel	-11.2191
▁dust	-11.2193
▁Denn	-11.2194
▁Bat	-11.2201
▁vs	-11.221
▁Litera	-11.2223
▁angr	-11.2227
▁pleas	-11.223
elf	-11.2237
mpact	-11.2242
▁Davie	-11.2243
▁ceratopsian	-11.2248
▁recognise	-11.225
63	-11.2252
▁Lion	-11.2253
▁Shim	-11.2262
▁carrier	-11.2268
▁Dar	-11.2272
▁provinc	-11.2277
▁literal	-11.2286
▁Past	-11.2288
scrib	-11.2288
▁illustrate	-11.2293
rania	-11.2299
▁Br	-11.2308
▁opin	-11.2311
▁chase	-11.2314
▁Full	-11.2317
▁wheel	-11.2324
▁Berg	-11.2328
▁convinc	-11.233
▁gathering	-11.2332
place	-11.2333
52	-11.2337
found	-11.234
▁105	-11.2344
▁centimet	-11.237
unk	-11.2373
▁admit	-11.2379
▁reporter	-11.2387
arpenter	-11.2401
▁coincide	-11.2403
▁bulk	-11.2403
▁Holocaust	-11.2403
▁enormous	-11.2403
▁motif	-11.2403
▁celebrit	-11.2403
▁zinc	-11.2404
▁conscious	-11.2404
▁Guinea	-11.2404
▁neutrino	-11.2404
▁sugar	-11.2404
▁Legend	-11.2404
▁shallow	-11.2404
▁Voice	-11.2404
▁chemist	-11.2404
▁decommission	-11.2404
erb	-11.2405
▁Metro	-11.2405
▁transcription	-11.2405
▁mechanism	-11.2407
▁gill	-11.2408
▁Montre	-11.241
▁Stoke	-11.241
▁hostil	-11.241
ensus	-11.2411
▁rebellion	-11.2411
jo	-11.2413
▁Pagan	-11.2415
▁muc	-11.2415
▁acoustic	-11.2417
▁flash	-11.2418
▁Hunter	-11.2419
▁Wind	-11.2426
▁emerge	-11.2431
▁convey	-11.2433
▁jun	-11.2436
▁parasite	-11.2445
▁Alger	-11.2445
▁disturb	-11.2447
▁Lucas	-11.2449
▁spawn	-11.2449
▁organize	-11.2453
▁Win	-11.2453
06	-11.2456
▁Cuba	-11.2458
ore	-11.2458
▁Platt	-11.2458
▁reviv	-11.2459
duct	-11.2461
▁Ship	-11.2462
▁hygro	-11.2464
▁Aust	-11.2467
▁Twin	-11.2467
rane	-11.2472
▁supervis	-11.2473
▁practical	-11.2475
▁ode	-11.2476
▁Hills	-11.2477
▁survival	-11.248
PA	-11.2483
▁rape	-11.2493
logy	-11.2496
▁fil	-11.2496
▁Read	-11.2501
▁86	-11.2504
ike	-11.2512
▁Tat	-11.2512
▁hills	-11.2516
thodo	-11.2522
venge	-11.2527
mi	-11.2531
▁lesson	-11.2536
▁fuse	-11.2537
▁acknowledg	-11.2541
▁performer	-11.2541
▁Eg	-11.2544
▁Tod	-11.2544
▁revers	-11.2548
▁imp	-11.2559
▁Sus	-11.2561
▁Jacob	-11.2562
▁Hair	-11.2563
▁Arn	-11.2563
▁relocat	-11.2566
▁sacrifice	-11.2569
▁Rein	-11.2572
ensa	-11.2578
friend	-11.258
scape	-11.2581
▁elevat	-11.2588
▁credits	-11.2593
▁admir	-11.2594
▁Alde	-11.2595
▁Cit	-11.2599
▁Cap	-11.26
▁Joan	-11.2608
▁serial	-11.2615
▁tin	-11.2631
oster	-11.2634
▁Nati	-11.2635
▁Os	-11.2635
▁upgrad	-11.2639
hire	-11.264
▁mistake	-11.2647
▁princes	-11.2649
▁Social	-11.265
▁donat	-11.2651
▁PC	-11.2654
scope	-11.2661
▁Nova	-11.2663
NO	-11.2667
▁cance	-11.267
▁sin	-11.267
▁smoke	-11.2673
▁rubb	-11.2676
▁batt	-11.2677
▁Dom	-11.2681
▁Glanville	-11.2681
▁Official	-11.2681
▁autobiograph	-11.2681
▁complement	-11.2681
▁prototype	-11.2681
▁Lüt	-11.2681
▁millimeter	-11.2681
▁exterior	-11.2681
▁pipe	-11.2681
▁Guild	-11.2682
▁da	-11.2682
▁veteran	-11.2682
▁Rapid	-11.2682
▁Banksia	-11.2682
▁Cloud	-11.2682
▁gender	-11.2682
▁crush	-11.2682
▁Composition	-11.2682
▁Graham	-11.2683
▁Capit	-11.2683
▁lumber	-11.2683
▁disagree	-11.2683
▁font	-11.2684
▁Hockey	-11.2684
▁radical	-11.2684
▁deput	-11.2685
▁dodo	-11.2686
▁snow	-11.2686
▁activist	-11.2686
▁Say	-11.2687
▁stead	-11.2687
▁Brack	-11.2688
▁Plain	-11.2688
ongo	-11.2688
▁protester	-11.2688
▁mood	-11.269
▁Liberal	-11.269
▁alphabet	-11.2692
▁mock	-11.2692
▁scrapp	-11.2696
▁Train	-11.27
▁odd	-11.2701
▁insert	-11.2707
rí	-11.2708
▁Box	-11.2708
▁doll	-11.2708
▁cav	-11.2714
▁Baron	-11.2716
▁Poet	-11.2718
▁1800	-11.2719
▁compromise	-11.2723
▁attraction	-11.2723
▁trio	-11.2725
ries	-11.2732
▁intelligent	-11.2732
16	-11.274
▁customer	-11.2743
▁collaps	-11.2743
▁payment	-11.2745
▁witch	-11.2745
▁Attack	-11.2747
onstruction	-11.2748
laine	-11.2751
▁ab	-11.2751
▁None	-11.2762
▁lumino	-11.2762
▁concentrate	-11.2762
▁hide	-11.2766
▁electrical	-11.2768
▁collaborat	-11.2769
▁Brig	-11.2773
▁Know	-11.2787
iamond	-11.2792
▁derive	-11.2793
▁colonis	-11.2796
▁danc	-11.2797
▁users	-11.2798
▁Call	-11.2802
▁hunter	-11.2803
some	-11.2811
▁Got	-11.2816
▁pen	-11.2822
nh	-11.2822
▁IA	-11.2831
▁flaw	-11.2835
▁Av	-11.2835
▁List	-11.2836
zu	-11.2837
▁Dog	-11.2837
▁overwhelm	-11.2844
▁Curt	-11.2852
ensi	-11.2854
▁directors	-11.2856
▁advis	-11.2861
▁Blu	-11.2862
▁Cott	-11.2865
▁92	-11.2867
75	-11.2869
▁fled	-11.2873
▁Boss	-11.2873
▁junction	-11.2874
▁Ph	-11.2878
hio	-11.2885
och	-11.2887
att	-11.2898
sphere	-11.2901
▁sal	-11.2902
▁resolve	-11.2904
▁vertic	-11.2906
ock	-11.2908
▁genes	-11.2911
vi	-11.2911
▁Marsh	-11.2919
▁outfit	-11.292
▁finance	-11.2921
▁coaster	-11.2923
37	-11.2924
oxide	-11.2931
erto	-11.2933
box	-11.2934
▁Austria	-11.2935
stol	-11.2936
▁infect	-11.2937
▁Christoph	-11.2939
▁Pf	-11.2942
▁pictures	-11.2945
▁summ	-11.2948
▁speculat	-11.2956
▁Fel	-11.2957
▁consult	-11.296
▁Bad	-11.2961
▁excess	-11.2964
▁Qedar	-11.2966
▁Langu	-11.2966
▁MVP	-11.2967
▁sanctuar	-11.2967
▁shield	-11.2967
▁clergy	-11.2967
▁Adult	-11.2967
▁plague	-11.2967
▁Hyde	-11.2967
▁mysterious	-11.2967
▁quiet	-11.2967
▁Small	-11.2968
▁Bhairava	-11.2968
▁ensemble	-11.2968
▁fortification	-11.2968
▁Ronald	-11.2968
▁conquer	-11.2968
▁fixture	-11.2968
▁toxic	-11.2968
▁staple	-11.2968
▁spark	-11.2969
▁villain	-11.2969
▁bonus	-11.2969
▁trunk	-11.297
▁pink	-11.2971
▁Caval	-11.2972
▁Stea	-11.2972
▁Region	-11.2974
▁1904	-11.2975
▁invitation	-11.2975
▁Still	-11.2979
▁incomplete	-11.2979
▁saving	-11.2981
▁nice	-11.2982
htw	-11.2983
ange	-11.2983
▁declaration	-11.2985
▁airfield	-11.2993
ón	-11.2994
▁warship	-11.2995
ric	-11.2996
▁Guin	-11.2998
▁striker	-11.2999
▁sh	-11.3008
▁Darwi	-11.3011
▁NCA	-11.3014
▁solv	-11.3015
▁au	-11.3022
cko	-11.3023
▁banks	-11.303
▁min	-11.3033
▁Tong	-11.3042
▁Jag	-11.3042
aulk	-11.3043
▁thank	-11.3046
▁portrayal	-11.3049
▁Works	-11.305
cester	-11.3052
▁Awa	-11.3052
obra	-11.3053
▁Az	-11.3055
eki	-11.3057
▁remarkabl	-11.3064
▁Fly	-11.3067
garet	-11.3068
▁cable	-11.3082
xis	-11.3083
▁fortune	-11.3083
▁Terroris	-11.309
▁Mal	-11.309
▁Victor	-11.3098
▁Chan	-11.3104
▁Cat	-11.3112
▁mines	-11.3117
▁Toro	-11.3118
▁Fur	-11.3118
▁realistic	-11.312
ctress	-11.312
gna	-11.3121
▁Reviewer	-11.3125
▁generate	-11.3126
▁Fried	-11.3132
▁hel	-11.3133
ox	-11.3134
orning	-11.3139
▁horr	-11.3141
▁Gro	-11.3143
▁Indie	-11.3143
pur	-11.3144
unch	-11.3152
▁Reform	-11.3156
▁rebuild	-11.316
rik	-11.3161
▁rap	-11.3161
▁Larr	-11.3169
▁concentrat	-11.3175
▁heir	-11.3175
nance	-11.3176
sburg	-11.3176
▁exclud	-11.3184
▁Rama	-11.3188
▁hitt	-11.3189
jan	-11.3192
▁Peters	-11.3192
▁handed	-11.3203
▁Vi	-11.3204
rald	-11.3214
rash	-11.3216
hre	-11.3218
▁Qi	-11.3221
fen	-11.3223
▁approache	-11.3224
▁solve	-11.3224
▁Ech	-11.3225
▁ensur	-11.323
▁interven	-11.3231
▁Stra	-11.3232
▁Terr	-11.3232
▁113	-11.3243
▁flee	-11.3246
▁dy	-11.325
▁cruise	-11.3252
▁rect	-11.3253
▁Sub	-11.3253
▁attorney	-11.326
ailroad	-11.326
→	-11.3261
▁Nevada	-11.3261
▁disorder	-11.3261
▁enlarge	-11.3261
▁guarantee	-11.3261
▁Remix	-11.3261
▁prevail	-11.3261
▁stanza	-11.3261
▁scenario	-11.3261
▁Ukrain	-11.3261
▁rendition	-11.3261
▁brood	-11.3261
▁Sword	-11.3261
▁precipitat	-11.3261
▁reperto	-11.3261
▁imperial	-11.3261
▁Happ	-11.3262
▁landmark	-11.3262
▁judo	-11.3262
▁truck	-11.3262
▁Doctor	-11.3262
▁Leban	-11.3262
▁drill	-11.3263
▁naked	-11.3264
▁guitarist	-11.3265
▁genuine	-11.3265
▁careful	-11.3266
▁Dian	-11.327
▁trait	-11.327
▁summon	-11.3273
▁Right	-11.3273
▁friendship	-11.3273
▁Andrea	-11.3274
▁precise	-11.3278
▁Kath	-11.3278
▁Día	-11.328
▁Rover	-11.3281
▁fi	-11.3282
▁formula	-11.3284
▁induct	-11.3284
▁enhance	-11.3289
illenni	-11.3292
▁ascend	-11.3292
▁rent	-11.3294
oreign	-11.3297
▁AA	-11.33
▁tear	-11.3302
atic	-11.3302
▁unknow	-11.3311
▁circula	-11.3314
▁upgrade	-11.332
erland	-11.3321
room	-11.3321
▁witnesse	-11.3329
▁der	-11.333
▁Want	-11.3331
▁125	-11.3335
▁Politic	-11.3336
▁04	-11.334
Style	-11.3343
▁trap	-11.3351
è	-11.3351
▁162	-11.3353
▁oxide	-11.336
▁explorer	-11.3362
▁habit	-11.3371
▁dropping	-11.3374
▁merge	-11.3381
▁familiar	-11.3391
▁pest	-11.3395
▁tombs	-11.3395
▁commemorat	-11.3397
eus	-11.3403
▁Nus	-11.3406
▁acknowledge	-11.3412
▁liter	-11.3416
▁Rhode	-11.3418
iety	-11.3418
35	-11.3421
ury	-11.3423
▁photo	-11.3429
tress	-11.3435
▁Select	-11.3448
udo	-11.3448
▁relieve	-11.3452
▁accidental	-11.3455
AV	-11.3455
▁fr	-11.3456
▁Jenn	-11.3457
ev	-11.3458
▁Imb	-11.3463
▁Arabia	-11.3464
▁Pan	-11.3484
ba	-11.3486
▁ordinar	-11.3486
erald	-11.3489
▁Shin	-11.3491
▁characteris	-11.3499
▁83	-11.3509
▁Site	-11.351
▁Hur	-11.3515
▁Inc	-11.3515
▁117	-11.3521
▁Europ	-11.3522
ergy	-11.3523
▁Feli	-11.3526
like	-11.3528
▁stabili	-11.3528
▁adequate	-11.3532
▁Was	-11.3546
▁Vic	-11.3552
▁Crab	-11.3553
▁123	-11.3555
▁button	-11.3557
▁Note	-11.3559
▁Ow	-11.356
▁Fami	-11.3561
arnest	-11.3562
▁Gabriel	-11.3564
▁Uyghur	-11.3564
▁neglect	-11.3564
▁nephew	-11.3564
▁Napoleon	-11.3564
ơ	-11.3564
▁vulnerab	-11.3564
▁petition	-11.3564
▁conceive	-11.3564
▁Constitution	-11.3564
▁ancestr	-11.3565
▁Philippine	-11.3565
▁puma	-11.3565
▁Metropoli	-11.3565
▁Malaysia	-11.3566
▁retail	-11.3566
▁domain	-11.3566
▁borrow	-11.3566
▁hint	-11.3567
▁enroll	-11.3567
▁rejoin	-11.3567
▁census	-11.3567
▁counterpart	-11.3567
▁Assyrian	-11.3568
▁favourite	-11.3568
▁cruci	-11.3568
▁Pete	-11.3569
▁FIT	-11.3569
▁stingray	-11.357
▁romance	-11.3572
▁deployment	-11.3573
eginning	-11.3575
▁Colombia	-11.3577
▁strikeout	-11.3578
▁subsidi	-11.3579
cia	-11.3581
▁EP	-11.3582
nall	-11.3582
▁populat	-11.3584
▁pp	-11.3585
▁atom	-11.3586
▁Boat	-11.3588
▁Officer	-11.3592
▁sick	-11.3592
▁Chamber	-11.3594
NES	-11.3596
▁Vista	-11.3597
▁Indu	-11.3598
▁parade	-11.36
fire	-11.3601
than	-11.3601
▁repli	-11.3602
ili	-11.3602
▁wake	-11.3603
▁soph	-11.3607
▁Month	-11.3607
▁pet	-11.3608
▁Julian	-11.3608
mes	-11.3609
▁salar	-11.3613
ood	-11.3618
consi	-11.3619
tro	-11.3622
▁Mole	-11.3625
▁Elli	-11.3625
▁Senat	-11.3626
cash	-11.3627
▁Superma	-11.364
▁wrestl	-11.3644
▁Mil	-11.3648
▁Rea	-11.3648
bbar	-11.3654
▁sat	-11.3668
ouli	-11.367
▁aisle	-11.3671
Sports	-11.3689
ona	-11.3695
▁mat	-11.3697
▁Fr	-11.3711
▁comprehensi	-11.3713
▁Musical	-11.3716
hang	-11.3717
ci	-11.3719
▁121	-11.3721
▁afford	-11.3722
▁Meri	-11.3722
▁Yang	-11.3727
▁dispers	-11.3734
bone	-11.3753
oundation	-11.3754
▁Goth	-11.3756
▁Rafa	-11.3757
ontemporary	-11.3757
▁Hear	-11.3758
▁sword	-11.3758
weight	-11.3759
echo	-11.3762
▁Pl	-11.3762
▁carriage	-11.3764
▁Rocke	-11.3768
▁DS	-11.3769
▁Gene	-11.377
▁migration	-11.3775
▁Pitt	-11.3789
▁Susan	-11.3797
▁lamp	-11.3801
▁114	-11.3803
EF	-11.3804
▁Wh	-11.3805
EA	-11.3817
ois	-11.3819
tus	-11.3821
▁Dick	-11.3821
▁astronom	-11.3827
▁sheet	-11.3835
▁Angelo	-11.3836
star	-11.3837
Nichol	-11.3848
▁matur	-11.3852
▁Ches	-11.3853
▁opt	-11.3858
▁Moro	-11.386
▁Highland	-11.386
▁chas	-11.3863
▁Crow	-11.3873
oval	-11.3874
axonom	-11.3874
brush	-11.3875
etrieve	-11.3875
▁guerrilla	-11.3877
▁Ganganelli	-11.3877
Í	-11.3877
▁Concert	-11.3877
▁ceiling	-11.3877
▁disguise	-11.3877
▁palace	-11.3877
▁sweet	-11.3877
▁particle	-11.3877
▁blend	-11.3877
▁Support	-11.3877
▁labour	-11.3877
▁unrest	-11.3877
▁metallic	-11.3877
▁riot	-11.3877
▁drift	-11.3878
▁prestig	-11.3878
▁casemate	-11.3879
▁mirror	-11.3879
▁Kick	-11.3879
▁alarm	-11.3879
▁outstanding	-11.388
▁Merri	-11.3881
▁Bloom	-11.3881
▁Labor	-11.3881
▁Level	-11.3882
▁terrorist	-11.3882
▁innocen	-11.3882
▁transmitt	-11.3882
tact	-11.3882
▁Outside	-11.3882
▁Cadet	-11.3883
▁737	-11.3884
▁Sidon	-11.3886
▁milk	-11.3887
▁trans	-11.3889
▁boiler	-11.389
▁conviction	-11.3891
pack	-11.3893
▁Hay	-11.3894
▁outcome	-11.3896
▁muscle	-11.3897
▁chest	-11.3898
▁flame	-11.3898
▁collector	-11.39
▁operator	-11.39
▁Trade	-11.3902
▁welcome	-11.3902
▁backward	-11.3902
▁Belt	-11.3908
▁Sri	-11.3909
▁Ferd	-11.3916
▁Large	-11.3917
▁Feeling	-11.3922
▁ecolog	-11.3923
▁bombs	-11.3923
▁Kid	-11.3927
▁interrupt	-11.393
▁01	-11.3932
▁lion	-11.3933
space	-11.3933
▁shortage	-11.3936
▁Hawk	-11.3936
▁Shu	-11.3948
▁tempo	-11.3949
▁gale	-11.3953
▁Austr	-11.3956
▁hate	-11.3958
▁Allie	-11.3958
anya	-11.3965
▁commun	-11.3965
rah	-11.3968
▁fatalit	-11.3972
ag	-11.3976
▁pun	-11.3977
▁gar	-11.398
▁Libert	-11.3982
▁Brun	-11.3982
▁corpse	-11.3984
▁wire	-11.3988
▁PA	-11.399
lves	-11.399
opy	-11.3996
mann	-11.4
▁Dead	-11.4
otal	-11.4004
▁harm	-11.4007
aren	-11.4007
ibi	-11.401
▁overwhelming	-11.4013
til	-11.4015
hesh	-11.4016
▁integrat	-11.4017
▁emphasize	-11.4024
▁compose	-11.4025
▁Popula	-11.4028
▁relevan	-11.4029
dae	-11.4033
▁flock	-11.4045
▁181	-11.4046
▁poetic	-11.4046
rize	-11.4049
llosaur	-11.4058
▁consum	-11.4061
▁165	-11.4063
▁commissioner	-11.4065
▁bo	-11.4066
▁antiquit	-11.4072
▁Ji	-11.4073
▁functional	-11.4083
ue	-11.4086
▁Christians	-11.4087
tors	-11.4088
ick	-11.4098
vana	-11.411
▁Northwest	-11.4113
▁averag	-11.4131
hals	-11.4133
▁aggregate	-11.4138
astra	-11.4143
▁Bra	-11.4151
80	-11.4152
▁Devi	-11.4156
▁limb	-11.4164
▁trader	-11.4171
reth	-11.4172
▁Harris	-11.4172
▁Biograph	-11.4177
ican	-11.4187
▁Ruth	-11.4191
▁assassin	-11.4193
jib	-11.4193
zen	-11.4194
▁clima	-11.4197
▁commerc	-11.4198
▁clip	-11.4199
▁disciple	-11.4199
▁pulp	-11.4199
▁virtue	-11.4199
▁envelope	-11.4199
▁necessit	-11.4199
▁sweep	-11.4199
▁collision	-11.4199
▁sediment	-11.4199
▁Jenkins	-11.4199
veloc	-11.4199
▁abnormal	-11.4199
▁Regard	-11.4199
▁ambush	-11.4199
▁ornament	-11.4199
▁remake	-11.4199
▁Saxon	-11.4199
▁Tribble	-11.4199
▁rumor	-11.4199
▁Lorenz	-11.4199
▁Vishnu	-11.4199
▁coffee	-11.42
▁telephone	-11.42
▁desperate	-11.42
▁Symphon	-11.42
▁civilization	-11.42
▁Klein	-11.42
▁demographic	-11.4201
▁Present	-11.4201
▁typ	-11.4202
▁weakness	-11.4204
▁Comb	-11.4205
▁Buddhist	-11.4206
▁Sister	-11.4206
▁relay	-11.4206
▁Grant	-11.4207
leans	-11.4207
▁Stew	-11.4208
▁Off	-11.4209
▁incursion	-11.4212
▁Brother	-11.4212
▁unexpected	-11.4215
▁bias	-11.4219
▁Galli	-11.4221
▁arise	-11.4221
▁Buen	-11.4221
erz	-11.4222
▁Rad	-11.4222
▁hung	-11.4223
▁persuade	-11.4226
▁Gilbe	-11.4232
▁Chop	-11.4232
ral	-11.4239
▁evacuate	-11.4241
lando	-11.425
▁Dec	-11.425
▁DE	-11.4251
▁Que	-11.4253
▁wreck	-11.4254
▁brain	-11.4257
hy	-11.4258
▁Trial	-11.4261
▁indirect	-11.4261
▁stole	-11.4264
▁gene	-11.4264
ara	-11.4266
tel	-11.4266
▁Jeremi	-11.4271
▁ambition	-11.4274
▁Ground	-11.4275
▁racis	-11.4281
pector	-11.4286
bar	-11.4287
▁circulati	-11.4297
roll	-11.4306
win	-11.4307
vel	-11.4308
▁grace	-11.4311
op	-11.4315
▁Chai	-11.4317
otte	-11.4321
▁phenomen	-11.4326
▁tier	-11.433
▁br	-11.4331
ipel	-11.4331
▁descen	-11.4335
▁summar	-11.4335
▁modes	-11.4342
pson	-11.4344
▁Mon	-11.4344
né	-11.4348
▁surpass	-11.4349
▁Timb	-11.4352
nton	-11.4353
▁cameo	-11.4354
▁seize	-11.4377
▁Kenn	-11.4378
ella	-11.4381
▁captiv	-11.4388
▁Gross	-11.4391
▁Airb	-11.4393
▁Beat	-11.441
▁mini	-11.4419
▁exceed	-11.4423
▁Anna	-11.4434
ert	-11.4437
▁com	-11.4443
▁binar	-11.4444
ME	-11.4445
▁legislat	-11.4448
▁Wins	-11.4455
▁resist	-11.4458
▁commentar	-11.4459
á	-11.4465
▁CG	-11.4475
▁Choi	-11.4478
▁Publish	-11.4479
▁Gam	-11.448
▁Program	-11.4488
enou	-11.4495
▁lie	-11.4497
bris	-11.4498
▁whi	-11.4504
full	-11.4505
▁prefer	-11.4508
▁volunteers	-11.4508
▁slip	-11.451
erine	-11.4514
▁remo	-11.4514
nation	-11.4516
▁Lyn	-11.4517
▁Northumb	-11.4524
▁fatal	-11.4528
xecutive	-11.4529
▁McMa	-11.453
ghan	-11.4531
▁affiliate	-11.4533
▁antagonist	-11.4533
▁censor	-11.4533
▁counterattack	-11.4533
▁ghost	-11.4533
▁memoir	-11.4533
▁solitaire	-11.4533
▁Amylostere	-11.4533
▁Representative	-11.4533
▁abolish	-11.4533
▁proclaim	-11.4533
▁intensify	-11.4533
▁PopMa	-11.4533
▁Student	-11.4533
▁conifer	-11.4533
▁legislature	-11.4533
▁barrel	-11.4534
▁presum	-11.4534
▁amaz	-11.4534
▁lifestyle	-11.4534
shmi	-11.4535
▁premise	-11.4537
▁navigation	-11.4538
▁Eps	-11.4538
▁blockade	-11.4538
▁Va	-11.4539
▁gunner	-11.4539
▁manual	-11.454
▁fulfill	-11.4541
▁Karl	-11.4542
▁neo	-11.4542
▁accusation	-11.4542
▁Damage	-11.4542
▁logistic	-11.4543
▁terrace	-11.4545
▁recommendation	-11.4547
▁hypothesi	-11.4549
▁scar	-11.455
▁specialist	-11.4551
▁tent	-11.4552
▁Stand	-11.4553
OS	-11.4563
appen	-11.4563
pa	-11.4568
▁Via	-11.4571
▁remin	-11.4572
▁sic	-11.4572
▁limitation	-11.4575
igon	-11.4578
▁Shaw	-11.4578
elite	-11.458
▁Arika	-11.4582
▁consolidat	-11.4582
▁reinforc	-11.4586
▁mono	-11.4587
▁Boom	-11.459
ilk	-11.46
▁Beau	-11.46
ecur	-11.4603
▁troop	-11.4603
▁advocat	-11.4607
lro	-11.4607
▁musc	-11.4607
asco	-11.4613
▁Lui	-11.4618
orrow	-11.4623
SU	-11.4634
▁Delan	-11.4635
▁Exe	-11.4636
▁Emil	-11.4641
▁beak	-11.4645
nmark	-11.4646
join	-11.4652
▁Barne	-11.4652
▁activat	-11.4664
▁efficient	-11.4669
▁identi	-11.468
hua	-11.4681
▁Set	-11.4682
▁pecki	-11.4686
▁bold	-11.4686
▁invite	-11.4692
▁Forb	-11.4693
icken	-11.4711
▁Gri	-11.4712
▁waste	-11.4718
▁interne	-11.4726
▁163	-11.4727
▁zoo	-11.4727
long	-11.4731
▁NO	-11.4731
▁manufacture	-11.4735
fell	-11.4743
▁chancel	-11.4743
face	-11.4747
▁corresponden	-11.475
die	-11.4751
ille	-11.4752
ctor	-11.4757
▁fitting	-11.4758
▁Beth	-11.4762
▁electro	-11.4767
▁arena	-11.477
player	-11.4775
▁mu	-11.4778
▁wet	-11.478
▁lit	-11.4781
▁Drama	-11.4787
▁toleran	-11.4789
▁specializ	-11.4801
▁Brav	-11.4802
32	-11.4807
▁Let	-11.4808
lix	-11.4817
▁Mona	-11.4828
▁mac	-11.483
▁quot	-11.4837
▁chronic	-11.484
hk	-11.4844
▁trench	-11.4852
atop	-11.4853
▁confiden	-11.4855
imer	-11.486
▁Character	-11.4865
lephant	-11.4872
lliance	-11.4872
lectronic	-11.4874
▁imaginati	-11.4875
▁Commo	-11.4877
proxim	-11.4877
▁Consequen	-11.4877
▁alcohol	-11.4877
▁extraordinar	-11.4877
▁lawsuit	-11.4877
▁Ferrari	-11.4877
▁harsh	-11.4877
▁parrot	-11.4877
▁Treasur	-11.4877
▁incredibl	-11.4877
▁decisive	-11.4877
▁Moritz	-11.4877
▁marble	-11.4877
sboro	-11.4878
▁corridor	-11.4878
▁gorilla	-11.4878
▁Flag	-11.4878
▁enact	-11.4878
▁coalition	-11.4878
▁Tape	-11.4878
▁routine	-11.4878
▁bronze	-11.4878
▁conquest	-11.4879
▁Draft	-11.4879
▁deteriorat	-11.488
▁Destroyer	-11.488
▁Theater	-11.488
▁Electric	-11.488
▁Loyal	-11.4882
▁radiati	-11.4882
▁divert	-11.4882
▁crack	-11.4882
▁confrontation	-11.4883
▁signature	-11.4884
▁Slea	-11.4884
▁crusader	-11.4885
▁expectation	-11.4887
▁calculat	-11.4888
▁bath	-11.4888
▁1893	-11.4889
▁outlet	-11.489
▁Tuck	-11.489
▁alert	-11.489
oulder	-11.4894
▁bush	-11.4895
ła	-11.4896
▁Chance	-11.4897
▁automatic	-11.4898
akim	-11.4898
▁bread	-11.4899
▁recipe	-11.4899
▁revision	-11.49
▁Fear	-11.49
▁nau	-11.4902
▁Clay	-11.4902
▁gang	-11.4904
▁Lithuanian	-11.4911
▁Julie	-11.4911
▁plantation	-11.4913
ept	-11.4914
▁li	-11.4916
▁Flow	-11.492
▁Ment	-11.492
▁mistaken	-11.4922
▁subordinate	-11.4925
▁Walla	-11.4926
umpt	-11.4927
▁155	-11.4929
rate	-11.4931
resco	-11.4933
▁Card	-11.4937
tt	-11.4942
▁Aki	-11.4946
▁symbolic	-11.4948
▁dressing	-11.4949
▁Kar	-11.4949
▁affection	-11.4953
▁stake	-11.4958
▁Nik	-11.4959
RIA	-11.4959
▁instrumental	-11.496
FL	-11.4962
lore	-11.4963
▁Barb	-11.4965
do	-11.4966
hren	-11.4967
▁cooperati	-11.4967
▁Ford	-11.4967
▁boss	-11.4967
nder	-11.4968
▁Tell	-11.497
▁eligib	-11.4981
▁synthesi	-11.4983
▁conversi	-11.4986
▁commenc	-11.4987
▁Dor	-11.4991
cade	-11.4991
▁anonymous	-11.4993
erior	-11.5002
▁ignore	-11.5007
▁tonne	-11.5011
▁tactical	-11.5022
▁loyalt	-11.5058
▁partners	-11.5059
▁swing	-11.5062
OM	-11.5065
▁Pok	-11.5065
ovac	-11.5066
ual	-11.508
▁Origin	-11.5085
▁Levin	-11.5088
▁assur	-11.509
rchbishop	-11.5091
▁Lar	-11.5096
▁informal	-11.5111
tage	-11.5114
ties	-11.5117
▁Crim	-11.5117
▁dubi	-11.5119
▁Sher	-11.5126
▁Leo	-11.5136
▁Reserve	-11.5137
arrow	-11.5145
▁Lowe	-11.515
▁Hou	-11.5152
zer	-11.5155
▁rad	-11.5166
▁Hama	-11.5166
chan	-11.5168
▁shoe	-11.5168
ountain	-11.5172
▁conspira	-11.5181
▁ro	-11.5182
iri	-11.5185
ath	-11.5188
rban	-11.5189
▁readi	-11.5194
▁microscop	-11.5195
▁commit	-11.5199
▁Lithuania	-11.52
▁Sh	-11.5201
97	-11.5204
▁Sche	-11.5214
▁Kra	-11.5214
▁par	-11.5218
rice	-11.5221
▁contradict	-11.5225
meat	-11.5225
elt	-11.5225
▁Cruise	-11.5225
▁psycholog	-11.5227
▁Pam	-11.5228
▁bite	-11.5232
rya	-11.5233
bbie	-11.5233
▁prefect	-11.5234
▁gendarme	-11.5234
▁ANZAC	-11.5234
▁Expedition	-11.5234
▁repetiti	-11.5234
☉	-11.5234
▁burrow	-11.5234
▁swallow	-11.5234
▁terribl	-11.5235
▁horizontal	-11.5235
▁stalk	-11.5235
▁fierce	-11.5235
▁phylogen	-11.5235
▁sulfide	-11.5235
▁Religio	-11.5235
▁accent	-11.5235
▁fluid	-11.5235
▁presbyterian	-11.5235
▁Yoko	-11.5235
ière	-11.5235
▁Condom	-11.5235
▁pagoda	-11.5235
▁telescope	-11.5235
▁analyze	-11.5236
▁uneven	-11.5236
▁Harmon	-11.5237
▁Hib	-11.5237
▁speculate	-11.5237
▁uncover	-11.5238
▁missile	-11.5238
▁barrack	-11.5238
▁Ragh	-11.5239
▁hatch	-11.5239
▁retro	-11.524
▁texture	-11.524
▁Motor	-11.524
▁exceptional	-11.5241
▁estuar	-11.5241
▁Half	-11.5241
▁Talk	-11.5242
▁jam	-11.5242
▁screenplay	-11.5242
▁insult	-11.5243
▁servant	-11.5243
▁drummer	-11.5244
▁Diamond	-11.5245
▁Market	-11.5245
▁shout	-11.5246
▁shall	-11.5247
rtz	-11.5247
▁statute	-11.5248
▁tough	-11.525
▁glider	-11.525
▁Bel	-11.525
▁uprising	-11.5251
rix	-11.5252
▁grassland	-11.5254
▁license	-11.5255
▁besieg	-11.5256
▁Af	-11.5256
▁goat	-11.5257
▁Loc	-11.5259
▁slipp	-11.5259
▁torpedoe	-11.5261
▁Adrian	-11.5264
▁progressive	-11.5266
bourn	-11.5276
▁inventor	-11.5277
▁remixes	-11.5279
ig	-11.528
▁Abd	-11.5286
rivate	-11.5286
▁arrange	-11.5288
▁Kau	-11.5296
ó	-11.5298
▁licens	-11.5302
▁Tan	-11.5305
▁satire	-11.5306
▁Bear	-11.5308
▁Dunn	-11.5312
▁Dodge	-11.5313
quake	-11.5314
▁curv	-11.5316
▁Sale	-11.5318
ki	-11.5319
▁cream	-11.5319
▁deny	-11.532
▁129	-11.5331
▁Fif	-11.5335
▁bypass	-11.534
▁marker	-11.5345
cena	-11.5347
▁VI	-11.5354
point	-11.5355
music	-11.5357
alph	-11.5364
▁align	-11.5365
▁facilitate	-11.5365
▁albe	-11.5368
▁Dev	-11.538
▁Jai	-11.5405
▁Trip	-11.5411
▁cannon	-11.5412
▁Des	-11.5414
dor	-11.5421
tant	-11.5426
▁boot	-11.5426
dining	-11.5428
sock	-11.5429
ug	-11.5444
▁Cob	-11.5451
telligen	-11.5456
▁Analys	-11.547
wall	-11.5474
▁Pipe	-11.5474
▁Ort	-11.5478
▁Anton	-11.5483
▁shrub	-11.5488
▁commence	-11.5488
▁Grec	-11.5492
▁Fi	-11.5493
▁carving	-11.55
▁Era	-11.5506
ack	-11.551
▁Montag	-11.551
▁RO	-11.5513
▁lun	-11.5516
▁gran	-11.5519
▁moor	-11.5522
▁harmon	-11.5524
▁Typ	-11.5527
avan	-11.5532
▁heroin	-11.5539
▁Magn	-11.554
▁Bena	-11.5542
▁Mov	-11.5543
▁cur	-11.5548
▁Broad	-11.5555
▁Berge	-11.5557
▁hid	-11.5562
▁Apart	-11.5562
duction	-11.5563
▁IR	-11.5572
rman	-11.5585
tribution	-11.5591
▁Whit	-11.5599
▁overlap	-11.56
▁Parks	-11.5603
▁Breed	-11.5604
▁Scandinavia	-11.5605
▁corrupt	-11.5605
▁explanation	-11.5605
▁hemmema	-11.5605
▁Advance	-11.5605
▁Pioneer	-11.5605
▁drown	-11.5605
▁relax	-11.5605
▁throat	-11.5605
▁Chemical	-11.5605
▁recount	-11.5605
▁venom	-11.5605
▁jail	-11.5605
▁cartoon	-11.5605
▁kitchen	-11.5605
▁Current	-11.5605
▁militia	-11.5605
▁compartment	-11.5605
▁Fletch	-11.5605
▁Recreation	-11.5605
▁critique	-11.5605
▁Kahn	-11.5605
▁conceal	-11.5605
▁harvest	-11.5605
▁sitcom	-11.5606
▁Horizon	-11.5606
▁discard	-11.5606
▁triumph	-11.5606
▁Hospitaller	-11.5606
▁Element	-11.5606
▁trademark	-11.5606
▁viewpoint	-11.5606
▁Winter	-11.5607
▁racial	-11.5607
▁capabilit	-11.5607
▁Phillip	-11.5609
▁fumble	-11.561
▁Mitsu	-11.5612
▁Clement	-11.5612
▁silent	-11.5614
▁spine	-11.5615
precedent	-11.5615
▁Chile	-11.5616
▁alteration	-11.5618
▁1863	-11.5619
▁symmetr	-11.562
▁kiss	-11.562
▁delight	-11.5621
▁Meta	-11.5623
▁Ferry	-11.5627
aria	-11.5627
▁syād	-11.5629
▁provok	-11.563
▁cal	-11.5631
▁Hond	-11.5632
▁chronicle	-11.5632
ja	-11.5632
▁mansion	-11.5633
▁thread	-11.5633
uz	-11.5637
▁Emma	-11.5642
▁riff	-11.5643
▁hurdle	-11.5643
▁stern	-11.5644
iscus	-11.5645
▁translate	-11.5646
▁taxi	-11.5647
▁Schm	-11.5647
▁rocket	-11.5648
▁Rena	-11.5653
▁sum	-11.5653
▁heaven	-11.5654
▁calm	-11.5655
selm	-11.5657
ngue	-11.5658
mount	-11.5662
▁Manor	-11.5667
rance	-11.567
▁Sue	-11.5675
nia	-11.5676
▁prevalen	-11.568
▁spann	-11.5681
▁invention	-11.5685
▁philosopher	-11.5687
hol	-11.5693
▁Crush	-11.5694
▁rout	-11.5695
▁winners	-11.5696
▁vine	-11.5696
▁chem	-11.5696
▁plat	-11.5701
▁Yama	-11.5706
sank	-11.5708
▁Activi	-11.5708
oid	-11.5712
▁Observat	-11.5714
▁Staff	-11.5719
▁Stud	-11.5719
▁Tal	-11.572
▁Harsha	-11.5721
▁battles	-11.5725
▁rod	-11.5726
etter	-11.5736
▁Gra	-11.574
▁pore	-11.5748
▁seed	-11.575
▁mil	-11.5752
▁dancer	-11.5753
bling	-11.5754
▁Found	-11.5767
▁Medic	-11.577
▁Cor	-11.5773
▁Fisher	-11.5773
▁focuse	-11.5775
egg	-11.5778
mare	-11.5798
▁Genera	-11.5801
▁nominate	-11.5816
▁Xe	-11.5818
▁Had	-11.5834
▁wage	-11.5835
▁stepp	-11.5846
▁builder	-11.5851
▁Barre	-11.5857
▁companion	-11.5858
TA	-11.5859
▁slot	-11.5865
▁dish	-11.5872
▁lab	-11.5878
avanna	-11.5883
▁Fro	-11.5892
▁127	-11.5894
▁contra	-11.5895
IAA	-11.5909
▁corps	-11.5918
gate	-11.5919
▁constitute	-11.5924
▁108	-11.5927
▁asset	-11.5942
▁Southeast	-11.5949
stian	-11.5951
▁Normand	-11.5957
▁poly	-11.5958
gar	-11.5959
▁permit	-11.596
▁Vet	-11.5965
▁spokes	-11.5974
▁spike	-11.5975
MI	-11.5977
▁strange	-11.5979
▁McDo	-11.598
▁depress	-11.598
94	-11.5983
nfluence	-11.5985
▁mixing	-11.5988
▁Fruit	-11.5989
▁Hoysala	-11.5989
▁Immortal	-11.5989
▁Veeru	-11.5989
▁algorithm	-11.5989
▁Source	-11.5989
▁bibli	-11.599
▁Volume	-11.599
▁Complete	-11.599
▁blind	-11.599
▁Wilfri	-11.599
▁Viking	-11.599
▁prolong	-11.599
▁profound	-11.599
▁cyto	-11.599
▁fortifi	-11.599
▁Confederate	-11.599
▁annoy	-11.5991
▁Describ	-11.5991
▁steer	-11.5991
▁facult	-11.5991
▁virus	-11.5991
▁facade	-11.5991
▁Protect	-11.5992
pectator	-11.5992
▁outlaw	-11.5992
▁ylide	-11.5992
▁allegation	-11.5993
▁tur	-11.5993
▁peaceful	-11.5994
▁Shan	-11.5994
▁Rush	-11.5995
▁renovation	-11.5996
▁attendant	-11.5996
▁accomplishment	-11.5997
▁Tai	-11.5997
▁inclin	-11.5997
▁inaugurat	-11.5998
▁teenager	-11.5999
▁installation	-11.6001
▁roost	-11.6002
▁elegan	-11.6004
▁bug	-11.6004
▁dirt	-11.6004
castle	-11.6005
▁layout	-11.6005
ogue	-11.6006
▁worse	-11.6007
▁750	-11.6009
▁Laboratory	-11.6009
▁swamp	-11.601
▁township	-11.6014
▁confident	-11.6015
emble	-11.6015
▁dull	-11.6017
▁monaster	-11.6021
ontrol	-11.6024
▁Soli	-11.6026
mack	-11.6028
▁Eno	-11.604
▁distinction	-11.604
▁ambitio	-11.6041
▁drought	-11.6042
nie	-11.6042
▁Fis	-11.6052
▁Llan	-11.6054
▁rig	-11.6054
▁Manager	-11.6055
▁proof	-11.6056
▁Hil	-11.6057
▁HM	-11.6065
▁morpholog	-11.6066
▁Valentin	-11.6067
▁elde	-11.6067
bil	-11.6074
▁Gambi	-11.6082
▁intentional	-11.6082
apoli	-11.6088
ark	-11.6089
▁Lev	-11.6091
zh	-11.6093
▁compil	-11.6101
lster	-11.6105
continu	-11.6105
▁establishe	-11.6107
▁Gle	-11.6112
▁blast	-11.6113
▁nurser	-11.6116
van	-11.6118
▁106	-11.6119
tigo	-11.612
▁Bree	-11.612
▁Concept	-11.6122
erman	-11.6125
▁Vern	-11.6126
▁Beer	-11.6126
ić	-11.6128
▁Make	-11.6129
▁Fann	-11.6133
▁glob	-11.6133
▁Boo	-11.6137
▁extract	-11.6139
hor	-11.6141
uarte	-11.6142
ardo	-11.6144
▁ban	-11.6146
▁Develop	-11.6151
33	-11.6158
▁utiliz	-11.6158
▁periodical	-11.6167
number	-11.6169
continent	-11.6169
▁Upp	-11.6169
cycle	-11.617
critic	-11.6174
assign	-11.6176
▁Leon	-11.6177
▁Scots	-11.618
limit	-11.6181
ntine	-11.6183
▁Hast	-11.6185
cock	-11.6186
96	-11.6187
IV	-11.6189
▁Sid	-11.6192
▁lecture	-11.6211
owing	-11.622
zzo	-11.6221
▁Spirit	-11.6222
▁refugee	-11.6228
witt	-11.623
▁Willi	-11.6232
▁Jenni	-11.6232
had	-11.6235
ector	-11.6235
Donald	-11.6236
ating	-11.624
pus	-11.6246
▁caps	-11.625
▁Rook	-11.6256
▁resume	-11.6257
▁frontal	-11.6257
PF	-11.6258
nam	-11.6263
▁Memor	-11.6264
▁Orso	-11.6267
▁accord	-11.6268
▁Inde	-11.6268
art	-11.6279
▁migrat	-11.6285
▁heli	-11.6285
▁photography	-11.6296
▁Author	-11.6297
▁Duch	-11.63
▁Hip	-11.6306
tille	-11.6311
▁Brigad	-11.6311
▁str	-11.6313
▁pad	-11.6318
▁ji	-11.633
▁crystal	-11.6333
▁Fat	-11.6334
▁ease	-11.6336
▁Alb	-11.6342
aro	-11.6345
▁151	-11.6346
▁jewel	-11.6348
▁Bach	-11.6358
▁AP	-11.636
Clock	-11.6363
rida	-11.6363
▁nationalist	-11.6364
▁Gaz	-11.6365
▁swimm	-11.6367
▁nuclei	-11.6369
▁MP	-11.6373
▁Herb	-11.6374
mission	-11.6375
▁proceeding	-11.6375
▁Lang	-11.6376
rosaur	-11.6377
▁intercept	-11.638
⁄	-11.638
ffensive	-11.6382
▁amphibi	-11.6383
▁prosecut	-11.6386
▁tutor	-11.6389
view	-11.6389
▁Tit	-11.6389
▁Investigation	-11.6389
▁acquisition	-11.6389
▁constituenc	-11.6389
▁ecosystem	-11.6389
▁ironclad	-11.6389
▁judicia	-11.6389
▁maneuver	-11.6389
▁recapture	-11.6389
▁theologian	-11.6389
▁obsole	-11.6389
▁sporadic	-11.6389
▁unemploy	-11.6389
▁Volunteer	-11.6389
▁sanction	-11.6389
▁Odysse	-11.639
▁jealous	-11.639
▁prosper	-11.639
▁width	-11.639
▁cultivat	-11.639
anagi	-11.639
▁discharge	-11.639
▁Fiction	-11.639
▁Trouble	-11.639
▁embryo	-11.639
▁scout	-11.639
▁Muhammad	-11.639
▁modification	-11.639
▁hairstyle	-11.639
▁Sylv	-11.639
▁metaphor	-11.639
▁parodie	-11.639
▁massacre	-11.639
▁phosphor	-11.639
▁endanger	-11.639
▁Airlines	-11.639
▁emb	-11.639
▁plent	-11.639
▁LED	-11.639
▁betray	-11.6391
▁Jacque	-11.6391
23	-11.6391
▁Galile	-11.6391
▁nasal	-11.6391
▁trigger	-11.6391
▁random	-11.6391
▁pour	-11.6392
▁Homar	-11.6392
▁consultant	-11.6393
▁Veera	-11.6393
tious	-11.6393
▁concurrent	-11.6393
▁Sieg	-11.6394
▁Round	-11.6394
▁Arena	-11.6394
▁sprint	-11.6395
▁litter	-11.6395
ett	-11.6395
▁certification	-11.6395
▁excessive	-11.6397
▁sensation	-11.6398
▁beta	-11.6398
▁mound	-11.6399
▁hurt	-11.6399
▁stallion	-11.6399
▁stall	-11.6399
▁pretend	-11.64
▁kit	-11.64
▁insurgent	-11.6401
▁thorough	-11.6401
▁Elliot	-11.6402
▁Harbo	-11.6402
▁Pear	-11.6403
▁Publication	-11.6404
▁sect	-11.6404
ouser	-11.641
mantle	-11.6413
▁Drive	-11.6416
imo	-11.6416
▁indoor	-11.6417
▁Kubic	-11.6418
▁intimate	-11.642
▁prayer	-11.6421
▁Syn	-11.6422
▁102	-11.6422
ried	-11.6426
▁Denis	-11.6427
▁prolif	-11.643
▁appreciat	-11.6437
▁Hungar	-11.644
▁Isla	-11.6443
▁Beside	-11.6447
gi	-11.6448
▁ward	-11.6453
▁breast	-11.6458
▁fade	-11.646
urrender	-11.646
▁rely	-11.6471
▁kee	-11.6472
▁clan	-11.6475
▁summari	-11.648
▁satisfy	-11.6483
oft	-11.6484
▁Morav	-11.6485
▁Authorit	-11.6486
▁Zealander	-11.6486
▁harbo	-11.6493
▁Gree	-11.6494
▁Ban	-11.6497
▁traveler	-11.65
▁criticize	-11.6503
llen	-11.6505
▁Schu	-11.6506
▁mast	-11.6507
opia	-11.651
anga	-11.6513
▁swell	-11.6516
▁Rodd	-11.6522
▁Lars	-11.6529
ender	-11.653
▁Hein	-11.6531
inaw	-11.6532
▁terminal	-11.6536
gent	-11.6536
▁Blo	-11.6542
nick	-11.6542
zo	-11.6546
▁Tre	-11.6552
ative	-11.6557
key	-11.6559
ael	-11.656
▁expose	-11.6562
▁discusse	-11.6563
▁rivalr	-11.6569
▁Juda	-11.657
ín	-11.6575
ec	-11.6576
▁reliev	-11.6577
ament	-11.6588
▁municipalit	-11.659
Tun	-11.6591
anka	-11.6592
losa	-11.6593
pover	-11.6596
▁Sey	-11.6597
▁notion	-11.6599
▁manipulat	-11.6599
world	-11.6607
visibl	-11.6607
▁patch	-11.6609
▁leaf	-11.6614
▁commemorate	-11.6615
▁marine	-11.662
▁Mann	-11.6621
▁Ord	-11.6623
▁Cod	-11.6628
▁pron	-11.6634
▁negotiate	-11.6646
▁vers	-11.6646
▁118	-11.6651
▁wo	-11.6654
▁tim	-11.6658
▁Cu	-11.6667
▁Domo	-11.6675
▁Industri	-11.6675
▁empt	-11.6678
▁Studi	-11.6692
azi	-11.6702
vor	-11.6704
▁Mall	-11.6704
▁footballer	-11.6708
isle	-11.671
▁Connecti	-11.6713
18	-11.6714
leasure	-11.6714
eller	-11.6715
▁Munic	-11.6727
▁contemporar	-11.6736
antho	-11.6737
▁basal	-11.6742
▁Notabl	-11.6742
▁differentiat	-11.6744
▁branche	-11.6747
▁Zo	-11.6748
▁174	-11.6756
▁undertake	-11.6762
▁pseudon	-11.677
▁op	-11.6778
overeign	-11.678
▁stag	-11.6781
▁manag	-11.6788
iers	-11.6792
▁landf	-11.6794
▁educat	-11.6795
▁reconstruct	-11.6797
▁synthesize	-11.6797
uzz	-11.6802
rystal	-11.6805
▁sculpt	-11.6806
▁Scleroderma	-11.6806
‘	-11.6806
▁Constantinople	-11.6806
▁Huguenot	-11.6806
▁Pitcairn	-11.6806
▁consequent	-11.6806
▁enterprise	-11.6806
▁epithet	-11.6806
▁fascinat	-11.6806
▁incorrect	-11.6806
▁violacea	-11.6806
▁stunt	-11.6806
▁Broadcast	-11.6806
▁Micros	-11.6806
▁Municipal	-11.6806
▁pocket	-11.6806
▁Junior	-11.6806
▁freight	-11.6806
▁groove	-11.6806
▁confine	-11.6806
▁steamboat	-11.6806
▁consort	-11.6806
▁Period	-11.6806
▁grammar	-11.6806
▁vague	-11.6807
▁dissent	-11.6807
▁rumour	-11.6807
▁Lyric	-11.6807
▁burst	-11.6807
▁warrant	-11.6807
▁songwriting	-11.6807
▁Iberia	-11.6808
▁haunt	-11.6808
▁suspens	-11.6808
▁Ghat	-11.6809
▁bottle	-11.6809
▁Ranger	-11.6809
▁dignit	-11.6809
▁Wonder	-11.6811
▁convenien	-11.6811
▁disagreement	-11.6811
▁GameSp	-11.6812
▁barrow	-11.6812
▁Nature	-11.6812
▁reproduction	-11.6813
▁displacement	-11.6813
▁Sicil	-11.6813
▁intent	-11.6815
▁dan	-11.6816
gow	-11.6816
▁Vol	-11.6816
▁foul	-11.6817
▁comedian	-11.6817
▁Rule	-11.6817
▁hymn	-11.6818
▁barge	-11.6818
▁deadline	-11.682
▁synth	-11.6821
▁Shang	-11.6823
▁replay	-11.6826
▁detective	-11.6827
amaic	-11.6827
▁Assistan	-11.6828
▁unlock	-11.6834
▁sortie	-11.6837
▁delica	-11.6838
▁cure	-11.6838
▁Lou	-11.6843
▁clinical	-11.6844
▁Clear	-11.6845
▁Eye	-11.685
locks	-11.685
▁Bour	-11.6853
▁assessment	-11.6854
▁Fu	-11.6859
▁torn	-11.6861
▁Aval	-11.6862
▁sur	-11.6862
lant	-11.6867
▁Fund	-11.6868
▁consumer	-11.6869
▁explode	-11.6869
ophy	-11.687
rsenal	-11.6872
▁Fant	-11.6873
▁cliff	-11.6877
▁twist	-11.6878
▁135	-11.688
▁Huai	-11.6891
▁academ	-11.6893
▁Hadd	-11.69
▁trailer	-11.69
▁merc	-11.6901
▁honest	-11.6904
ruiserweight	-11.6908
▁persona	-11.6909
▁Adria	-11.691
▁Bron	-11.6911
▁Loch	-11.6912
▁Solo	-11.6912
▁melt	-11.6918
▁treasure	-11.6919
▁container	-11.6921
tender	-11.6924
▁CO	-11.6927
▁Thi	-11.693
▁Walk	-11.6931
li	-11.6931
▁Patter	-11.6934
▁oversee	-11.6935
ST	-11.694
▁Cave	-11.694
desh	-11.6943
▁reside	-11.6945
▁missionar	-11.6945
▁oak	-11.6948
▁negotiat	-11.696
rank	-11.696
▁refuge	-11.6977
apy	-11.6978
usa	-11.6979
bark	-11.6981
▁Kend	-11.6982
▁breach	-11.6983
omit	-11.6985
ption	-11.6985
AC	-11.6996
▁ju	-11.6999
ria	-11.7
▁ext	-11.7012
▁loyal	-11.7016
▁Parad	-11.7018
▁organism	-11.7021
gh	-11.7028
▁cock	-11.7038
▁emphasiz	-11.7039
imi	-11.7039
amil	-11.704
▁carriages	-11.7047
▁gay	-11.7054
▁sl	-11.7057
Down	-11.7059
▁Winds	-11.7063
mp	-11.7066
ographic	-11.7067
▁Bal	-11.7068
▁tract	-11.7074
▁Jewel	-11.7074
color	-11.7076
WC	-11.7076
▁Harve	-11.7076
▁sighting	-11.7078
ird	-11.7078
tter	-11.7086
bout	-11.7086
anyan	-11.7094
gle	-11.7095
▁invade	-11.7096
▁Nam	-11.7097
acre	-11.7099
dge	-11.7117
tters	-11.7117
▁Laur	-11.7117
annad	-11.7123
53	-11.7123
▁Berm	-11.7128
raba	-11.7133
▁Mora	-11.714
▁hyph	-11.7148
tland	-11.7162
▁Flo	-11.7163
dding	-11.7164
live	-11.7168
NS	-11.7169
▁Steven	-11.7173
mart	-11.7175
▁reserves	-11.7181
▁Mode	-11.7185
▁hostilit	-11.7186
aur	-11.7187
▁archer	-11.7188
▁Nige	-11.7196
▁unrel	-11.7198
ku	-11.7201
ah	-11.7204
▁BM	-11.7211
LC	-11.7216
▁Bann	-11.7218
▁AL	-11.722
▁Transit	-11.722
▁Cro	-11.7224
▁Direct	-11.7224
▁Finn	-11.7228
▁orient	-11.7229
ient	-11.723
nel	-11.7235
lude	-11.7235
▁Rom	-11.7235
iscount	-11.7236
▁adjust	-11.7239
▁Range	-11.724
*	-11.7241
~	-11.7241
▁Abraham	-11.7241
▁Senior	-11.7241
▁jurisdiction	-11.7241
▁lobster	-11.7241
▁pianist	-11.7241
▁unanimous	-11.7241
▁undergraduate	-11.7241
▁Pompe	-11.7241
▁Siberia	-11.7241
▁prognos	-11.7241
▁Patriarch	-11.7241
▁unveil	-11.7241
▁Method	-11.7241
▁grape	-11.7241
▁constrain	-11.7241
▁mosque	-11.7241
▁substrate	-11.7241
▁surprising	-11.7241
▁Abram	-11.7241
▁Affair	-11.7241
▁licence	-11.7241
▁Promot	-11.7241
▁decree	-11.7241
▁agaric	-11.7241
▁boost	-11.7241
▁resort	-11.7241
▁spider	-11.7241
▁identification	-11.7241
▁Sugar	-11.7241
▁annex	-11.7241
▁expir	-11.7241
▁galax	-11.7241
▁proud	-11.7242
▁Reaction	-11.7242
▁harass	-11.7242
▁legitimate	-11.7242
▁flashback	-11.7242
▁Idol	-11.7242
▁comparative	-11.7242
▁chef	-11.7242
▁metropoli	-11.7243
▁Theodor	-11.7243
▁gauge	-11.7243
▁nucleo	-11.7244
▁sparse	-11.7244
▁Townsville	-11.7244
▁distress	-11.7245
▁Claw	-11.7245
▁lord	-11.7245
▁golf	-11.7245
▁Believ	-11.7246
▁Glen	-11.7246
▁naturalist	-11.7247
▁prae	-11.7248
▁Metall	-11.7248
▁owl	-11.7248
▁retaliat	-11.7248
▁echo	-11.7248
▁rework	-11.7248
▁compensat	-11.7249
▁taxonom	-11.7249
▁Centur	-11.7249
▁Palen	-11.7249
▁brass	-11.725
▁antholog	-11.725
▁Midland	-11.725
▁Prest	-11.7252
▁Moham	-11.7252
▁geograph	-11.7253
▁Holland	-11.7253
▁funnel	-11.7254
▁escap	-11.7257
▁Palmyr	-11.7257
▁Personnel	-11.7258
▁Locat	-11.7259
▁Toward	-11.7261
▁Tribun	-11.7262
eff	-11.7264
▁destin	-11.7265
▁wonder	-11.7268
▁178	-11.7271
▁integr	-11.7271
essa	-11.7272
▁marrie	-11.7273
▁donor	-11.7274
▁assignment	-11.7275
▁ideolog	-11.728
▁nerv	-11.7282
▁Ur	-11.7289
▁prose	-11.729
sex	-11.729
▁Henri	-11.7292
▁evaluat	-11.7299
blad	-11.73
▁Gera	-11.7303
▁Highlander	-11.7306
▁pressing	-11.7307
▁Kit	-11.731
isual	-11.7315
▁Andr	-11.7321
▁Chenn	-11.7323
▁Daw	-11.7329
mediate	-11.7331
▁Fri	-11.7332
▁Bede	-11.7335
▁Edit	-11.7336
Shar	-11.7337
lov	-11.7337
range	-11.7344
▁southwester	-11.7346
▁wis	-11.7349
▁imagin	-11.7349
▁teache	-11.7353
▁Hamp	-11.7363
▁Johann	-11.7366
abo	-11.7367
loph	-11.7368
▁Olivi	-11.7368
qua	-11.737
▁Luci	-11.7374
▁vari	-11.7374
▁Plato	-11.7376
▁operative	-11.7379
▁cor	-11.7379
▁capp	-11.7383
ature	-11.7385
▁waterway	-11.7386
▁Malaya	-11.7389
marca	-11.7391
ál	-11.7395
onvention	-11.7398
aland	-11.74
▁Herman	-11.7401
▁exceeding	-11.7406
▁Nu	-11.7407
cious	-11.741
position	-11.742
▁Bah	-11.742
▁utter	-11.7423
▁scan	-11.7424
ib	-11.7432
61	-11.7439
cFarlan	-11.7446
▁tag	-11.7451
▁imagine	-11.7463
▁temperat	-11.747
▁Fus	-11.7472
iate	-11.7473
▁Core	-11.7486
merg	-11.7488
▁Edd	-11.7489
ncos	-11.7491
▁resolv	-11.7493
nto	-11.7493
PR	-11.7495
DT	-11.7501
▁Gerr	-11.7508
lik	-11.7511
pot	-11.7513
▁Sep	-11.7514
▁dome	-11.7528
hand	-11.7528
28	-11.7533
rnissart	-11.7535
market	-11.7538
strong	-11.7538
icon	-11.754
inus	-11.7543
▁myelo	-11.7547
▁arrow	-11.7552
greement	-11.7553
▁Barbi	-11.7557
rypt	-11.7558
uma	-11.7558
▁Pic	-11.7561
▁Sali	-11.7562
▁Indo	-11.7566
▁barr	-11.7567
ogle	-11.7569
▁Hand	-11.7571
▁Dub	-11.7575
ru	-11.7578
▁Iran	-11.7578
ceratops	-11.7582
Art	-11.7584
▁oral	-11.7596
▁Ari	-11.7602
▁ceremoni	-11.7607
▁111	-11.761
▁widen	-11.7613
cover	-11.7622
uchi	-11.7622
otten	-11.7632
eum	-11.7636
dale	-11.7639
▁Suss	-11.7649
▁Administrati	-11.7657
raid	-11.7661
ours	-11.7662
▁Strat	-11.7662
▁Bun	-11.7667
pedi	-11.7671
▁pray	-11.7674
▁Geograph	-11.7679
opsi	-11.7681
▁Massa	-11.7682
▁Scha	-11.7687
mma	-11.7688
▁Cove	-11.7692
uke	-11.7694
arch	-11.7694
▁Arbeider	-11.7695
▁irrigat	-11.7695
▁Agricultur	-11.7695
▁Environment	-11.7695
▁Vaishnav	-11.7695
▁client	-11.7695
▁immense	-11.7695
▁privilege	-11.7695
▁reluctan	-11.7695
▁Franç	-11.7695
▁deserve	-11.7696
▁eager	-11.7696
▁Prussia	-11.7696
▁pilgrim	-11.7696
▁Oswal	-11.7696
▁compell	-11.7696
endar	-11.7696
▁Certificat	-11.7696
▁Dinosaur	-11.7696
▁jacket	-11.7696
▁Strong	-11.7696
▁spectac	-11.7696
▁treason	-11.7696
croft	-11.7696
▁niche	-11.7696
▁Cabr	-11.7696
▁Borea	-11.7696
▁bunker	-11.7696
▁stiff	-11.7696
▁triangle	-11.7696
▁unpopular	-11.7697
▁butterfl	-11.7697
rough	-11.7697
▁ghat	-11.7697
▁Flood	-11.7697
▁Karamok	-11.7697
▁courage	-11.7697
▁outdoor	-11.7697
▁torture	-11.7697
▁persistent	-11.7697
▁WWE	-11.7697
avelin	-11.7697
▁remaster	-11.7697
▁Strait	-11.7698
▁cheap	-11.7699
extraterrestrial	-11.77
▁dictator	-11.77
▁Eugen	-11.7701
éra	-11.7701
▁Mun	-11.7701
▁Hydn	-11.7701
▁Proto	-11.7702
▁ap	-11.7702
▁Money	-11.7703
▁Elephant	-11.7703
▁Hispani	-11.7704
▁Fashi	-11.7704
▁calculation	-11.7706
▁gull	-11.7706
▁joy	-11.7707
▁Bryan	-11.7707
▁enthusiastic	-11.7707
▁flatten	-11.7709
hill	-11.7709
▁novelist	-11.771
▁Flash	-11.7711
▁leap	-11.7711
▁Tang	-11.7711
▁feat	-11.7712
▁flightless	-11.7712
▁lament	-11.7713
▁bag	-11.7713
▁Thanh	-11.7714
▁Devon	-11.7715
▁chip	-11.7715
▁Cl	-11.7717
▁Ola	-11.7719
▁Shi	-11.772
▁supervisor	-11.7722
▁1820	-11.7723
obile	-11.7724
▁keyboard	-11.7725
▁sovereign	-11.7725
▁prediction	-11.7726
▁nude	-11.7726
▁idol	-11.7727
erson	-11.7732
▁Ltd	-11.7736
▁Mick	-11.7736
oma	-11.7738
▁invent	-11.7741
▁mint	-11.7744
▁arcade	-11.7752
▁Madr	-11.7754
▁Store	-11.7755
▁expel	-11.7755
▁Kings	-11.7756
▁und	-11.7757
moto	-11.7757
▁Chester	-11.7764
uzzle	-11.7767
▁rector	-11.7767
Xe	-11.7771
▁sperm	-11.7773
etta	-11.7776
▁matri	-11.7779
▁Peronis	-11.7779
▁degrad	-11.778
▁Ono	-11.7781
isto	-11.7784
▁tribe	-11.7788
▁Ger	-11.7791
▁theoretical	-11.7791
opper	-11.7796
stin	-11.7801
▁Spy	-11.7806
roke	-11.7807
tr	-11.7809
▁Marty	-11.781
▁Kras	-11.781
▁Baye	-11.7816
▁Commissioner	-11.7817
▁Linds	-11.7819
bride	-11.7819
▁commando	-11.7823
▁Toy	-11.7831
v	-11.7832
top	-11.7832
▁gear	-11.7837
ilda	-11.7838
▁affirm	-11.7838
▁penetrat	-11.7839
▁consume	-11.7841
▁ironic	-11.7846
▁optimis	-11.7847
▁Kerr	-11.7857
▁Mart	-11.7858
▁regulate	-11.7859
▁quest	-11.7863
▁popula	-11.7863
acco	-11.7864
ommercial	-11.7866
▁Bute	-11.7866
▁overcom	-11.787
▁hail	-11.7873
building	-11.7875
nounce	-11.7879
▁WC	-11.7886
▁replica	-11.7893
rated	-11.7896
▁Belle	-11.7901
ibilit	-11.7902
▁suite	-11.7904
iped	-11.7906
▁pret	-11.7911
▁labell	-11.7912
▁graves	-11.7916
▁Jess	-11.7916
▁worshippe	-11.7921
▁Waterf	-11.7925
oke	-11.7933
illan	-11.7935
▁outrage	-11.7937
▁McG	-11.7942
ologist	-11.7943
▁Strange	-11.7943
▁Luk	-11.7944
▁Corn	-11.7945
▁Writer	-11.7946
aking	-11.7947
▁Pay	-11.7956
000	-11.7956
▁northwester	-11.7962
▁Econom	-11.7967
▁Kor	-11.797
▁Wad	-11.7974
▁fertil	-11.7976
incar	-11.7983
▁meal	-11.7989
ednes	-11.7994
eba	-11.7999
▁satisf	-11.8006
▁dia	-11.8008
pani	-11.8011
ura	-11.8011
▁Holli	-11.8017
▁dresse	-11.802
val	-11.8021
▁Zh	-11.8024
▁Sign	-11.8025
atherin	-11.8025
mbassador	-11.8028
▁fisher	-11.803
▁166	-11.8031
▁poster	-11.8031
▁accumulat	-11.8036
▁Chang	-11.8043
▁Wom	-11.8043
oul	-11.8044
▁modell	-11.8049
gon	-11.8053
▁temper	-11.8059
▁Nic	-11.8065
▁Roos	-11.8077
ank	-11.8078
▁Bran	-11.808
▁devi	-11.8085
▁Brand	-11.8107
tor	-11.8107
▁undert	-11.8109
rek	-11.811
tsu	-11.8114
▁Map	-11.812
▁Indiana	-11.8128
ozo	-11.8132
▁persuad	-11.8132
onso	-11.8137
▁Domini	-11.8139
hat	-11.8141
▁pledge	-11.8141
▁Produc	-11.8144
▁chor	-11.8146
▁prominen	-11.815
▁Lauren	-11.8154
▁Bab	-11.816
pagan	-11.8163
▁Fig	-11.8166
lotte	-11.817
▁candida	-11.817
▁Certain	-11.8172
▁Continent	-11.8172
▁Cossack	-11.8172
▁Hubbard	-11.8172
▁Individual	-11.8172
▁Klingon	-11.8172
▁accommodation	-11.8172
▁migrant	-11.8172
▁pirate	-11.8172
▁resurrect	-11.8172
▁bacteria	-11.8172
▁democra	-11.8172
▁superficial	-11.8172
▁Sleep	-11.8172
▁rehabilitat	-11.8172
▁vigorous	-11.8172
▁Benedict	-11.8172
▁vassal	-11.8172
▁gravitational	-11.8172
▁Appeal	-11.8172
▁patent	-11.8172
▁Buckingham	-11.8172
▁Nottingham	-11.8172
▁grasp	-11.8172
▁Dangerous	-11.8172
▁vicar	-11.8172
▁eucalypt	-11.8172
▁stamp	-11.8172
pulc	-11.8172
▁Standard	-11.8172
▁XeF	-11.8172
▁Petit	-11.8172
▁outpost	-11.8173
▁wonderful	-11.8173
▁Faith	-11.8173
▁breath	-11.8173
▁olive	-11.8173
▁Nichols	-11.8173
▁obligation	-11.8174
ayana	-11.8174
▁etymolog	-11.8174
▁tech	-11.8174
▁distortion	-11.8174
▁Planet	-11.8174
▁textile	-11.8174
▁Laud	-11.8175
ortrait	-11.8175
Octa	-11.8175
▁Borg	-11.8175
▁crescen	-11.8175
▁purpl	-11.8176
▁drunk	-11.8176
▁Mott	-11.8176
▁supernova	-11.8176
▁scream	-11.8177
▁Burt	-11.8177
▁Vocal	-11.8177
▁luck	-11.8177
▁Bullet	-11.8178
▁laser	-11.8178
▁calculator	-11.8178
wyn	-11.8179
▁wheat	-11.8179
▁punish	-11.8179
▁lamin	-11.8179
▁philosophical	-11.8179
▁Indoor	-11.8181
jiang	-11.8182
▁occurrence	-11.8182
▁Mah	-11.8182
▁lung	-11.8183
▁accelerat	-11.8183
▁tyre	-11.8183
▁Traditional	-11.8183
▁Phoenicia	-11.8187
▁Animal	-11.8189
▁bio	-11.8189
urnpike	-11.819
▁Benson	-11.8191
aja	-11.8192
▁web	-11.8193
gestion	-11.8193
▁cement	-11.8195
▁Doc	-11.8195
eville	-11.8196
▁Esse	-11.8196
▁insight	-11.8197
▁Fighter	-11.8199
▁Bosnian	-11.8201
▁corona	-11.8202
▁procedure	-11.8204
▁Tamp	-11.8205
▁pile	-11.8207
▁280	-11.8207
hoo	-11.8211
▁Brent	-11.8211
▁Ran	-11.8212
▁Shar	-11.8214
izard	-11.8214
▁testif	-11.8216
▁nonsens	-11.8217
▁Christophe	-11.8219
▁indication	-11.822
▁sociolog	-11.8223
ugal	-11.8224
▁inspect	-11.8227
▁prince	-11.8227
▁Mat	-11.8228
▁Kho	-11.8229
▁Abo	-11.8233
▁innovation	-11.8235
akes	-11.8237
▁ditch	-11.8237
▁prehistor	-11.8238
born	-11.8244
▁posts	-11.8247
▁Pla	-11.8248
uran	-11.825
▁Mongolia	-11.825
▁percussion	-11.8254
hiban	-11.8255
▁screening	-11.8255
▁Safe	-11.826
▁Zap	-11.8262
▁Ami	-11.8263
king	-11.8271
auna	-11.8273
▁distribute	-11.8275
▁patroll	-11.828
▁conscien	-11.8281
pit	-11.8282
▁violat	-11.829
▁Futur	-11.8292
▁Sch	-11.8294
lane	-11.8297
dra	-11.83
▁pav	-11.8311
eign	-11.8319
ines	-11.8321
▁152	-11.8322
▁shorten	-11.8327
▁Side	-11.833
▁demoli	-11.8331
▁Thirt	-11.8333
▁priorit	-11.8333
ignment	-11.8342
▁168	-11.8342
pp	-11.8346
aki	-11.8347
▁Draw	-11.8349
▁Figg	-11.8355
▁blown	-11.8359
▁Wein	-11.8362
bot	-11.8373
itter	-11.8377
▁judg	-11.8378
▁Ce	-11.838
ission	-11.8383
▁captive	-11.8385
▁liber	-11.8385
▁disab	-11.8385
hold	-11.8389
▁beneficia	-11.8392
▁Mau	-11.8394
zor	-11.8401
▁Vat	-11.8404
▁pap	-11.8404
roth	-11.8414
sha	-11.8421
manda	-11.8428
▁infant	-11.8432
mour	-11.8433
▁Novel	-11.844
▁organizer	-11.8446
▁Raide	-11.8451
cat	-11.8461
▁stretche	-11.8466
otype	-11.8474
▁input	-11.8475
▁seasonal	-11.8477
▁Ab	-11.8478
▁file	-11.8491
▁dece	-11.8492
erti	-11.8492
nown	-11.8495
agan	-11.8499
▁excite	-11.8505
keeper	-11.8505
bust	-11.8507
▁localiz	-11.8508
▁unus	-11.8508
▁refere	-11.8511
Z	-11.8514
soft	-11.8517
BE	-11.8518
▁afr	-11.8524
pez	-11.8524
▁motivat	-11.8529
▁forbid	-11.853
▁oppose	-11.8532
55	-11.8534
tish	-11.8534
▁Sant	-11.8537
▁Vo	-11.8538
▁mobili	-11.8541
▁Kash	-11.8542
powder	-11.8544
rad	-11.8549
bab	-11.8554
till	-11.8558
sufficient	-11.8562
▁comfortabl	-11.8563
▁lease	-11.8564
▁Cris	-11.8567
litter	-11.8569
nza	-11.8571
▁rescu	-11.8578
saur	-11.858
rp	-11.8583
sville	-11.8584
▁Barra	-11.8585
oll	-11.8586
parts	-11.8586
▁Vie	-11.8586
▁worri	-11.8591
game	-11.8591
▁atmospher	-11.8597
▁Aret	-11.8598
▁Berli	-11.8599
ccles	-11.8618
zel	-11.862
onia	-11.8621
▁smok	-11.8621
▁pal	-11.8629
ek	-11.8639
RE	-11.8642
▁chees	-11.8643
▁user	-11.8643
▁gag	-11.8645
ores	-11.865
▁Ci	-11.8651
▁Non	-11.8654
▁1.	-11.8656
lli	-11.8657
thos	-11.8658
▁Lim	-11.8663
chi	-11.867
▁forag	-11.8671
▁Communication	-11.8672
▁Nguy	-11.8672
▁Tamaulipas	-11.8672
▁artifact	-11.8672
▁authentic	-11.8672
▁diminish	-11.8672
▁dreadnought	-11.8672
▁kilogram	-11.8672
▁larva	-11.8672
▁manoeuvre	-11.8672
▁syllable	-11.8672
▁trivial	-11.8672
▁embarrass	-11.8672
▁Templar	-11.8672
Ō	-11.8672
▁notorious	-11.8672
Å	-11.8672
▁emplacement	-11.8672
▁motive	-11.8672
▁engrav	-11.8672
cumb	-11.8672
▁Mozambican	-11.8672
▁Discover	-11.8672
▁Window	-11.8672
▁sewer	-11.8672
▁HBO	-11.8672
▁postpone	-11.8672
▁vowel	-11.8673
▁misunderst	-11.8673
dia	-11.8673
▁preference	-11.8673
▁Diam	-11.8673
▁Armour	-11.8674
▁trauma	-11.8674
▁courtyard	-11.8674
▁Quarter	-11.8674
▁crypt	-11.8675
agoda	-11.8675
▁Nap	-11.8675
▁faithful	-11.8675
▁Allāh	-11.8676
▁megalith	-11.8677
▁Wolver	-11.8677
smith	-11.8678
▁partition	-11.8678
▁rebound	-11.8678
▁Warwick	-11.8681
▁Dre	-11.8683
▁detonat	-11.8686
▁admission	-11.8686
▁Hollow	-11.8687
▁prostitute	-11.8688
▁Pig	-11.8688
▁Creation	-11.869
▁Gen	-11.869
▁invertebrate	-11.869
▁generator	-11.8692
▁institute	-11.8692
▁hinder	-11.8692
▁laud	-11.8696
▁Architectur	-11.8696
▁mould	-11.8697
▁absen	-11.8697
▁Mend	-11.8699
▁traverse	-11.8701
oyage	-11.8702
brough	-11.8702
▁morel	-11.8703
▁criteri	-11.8704
▁mason	-11.8708
▁Rid	-11.871
▁intermedi	-11.871
▁Clan	-11.8712
▁Angle	-11.8713
hestnut	-11.8717
ition	-11.8717
ole	-11.8718
▁testimon	-11.8718
▁endorse	-11.8718
anzani	-11.872
▁fret	-11.872
▁Hild	-11.8723
▁Cassin	-11.8724
▁await	-11.8725
▁scal	-11.8725
▁Ras	-11.8726
▁mold	-11.8727
▁161	-11.873
ferr	-11.8731
raw	-11.8732
apilla	-11.8733
▁pathway	-11.8734
▁cons	-11.8736
▁hitter	-11.8738
dad	-11.8741
▁em	-11.8741
uku	-11.8744
▁befriend	-11.8745
▁induc	-11.8746
▁tap	-11.8747
▁folklor	-11.8749
▁Beeth	-11.8753
▁GB	-11.8754
▁dismissal	-11.8756
▁Alban	-11.876
▁Oil	-11.876
rsal	-11.876
fric	-11.8761
times	-11.8763
▁VH	-11.8771
▁Tyr	-11.8777
▁clade	-11.8777
▁Elle	-11.8783
harp	-11.8785
▁Nue	-11.8786
atomic	-11.8788
▁propell	-11.8789
▁Rey	-11.8789
ester	-11.8792
▁migrate	-11.8795
▁robe	-11.881
▁bleed	-11.8813
pan	-11.8814
▁guitars	-11.8817
▁gle	-11.8819
▁peni	-11.882
▁compatib	-11.8828
▁Ost	-11.8833
▁equall	-11.8834
▁Sem	-11.8834
21	-11.8836
ambu	-11.8838
▁Finch	-11.8841
▁Qu	-11.8842
runk	-11.885
▁Kr	-11.8855
▁ze	-11.8856
▁clash	-11.8867
andis	-11.8868
▁Tur	-11.8869
▁panthe	-11.8871
ps	-11.8876
▁Oliv	-11.8879
mach	-11.8879
▁rider	-11.8888
issan	-11.8894
▁Rei	-11.8894
okan	-11.8898
▁attacker	-11.8902
▁enclos	-11.8904
▁320	-11.8905
▁desir	-11.8912
▁Dalm	-11.8913
▁Bod	-11.8917
▁Cann	-11.8927
▁camel	-11.8932
ud	-11.8934
gott	-11.8936
▁ceme	-11.8939
▁Polyt	-11.8943
▁Bor	-11.8944
▁Pit	-11.8947
▁Kill	-11.8948
chand	-11.8962
nake	-11.8964
▁Tau	-11.8965
elia	-11.8976
▁Puppet	-11.8977
▁mobil	-11.8978
54	-11.898
spective	-11.8982
hem	-11.8983
▁gentle	-11.8998
▁receiver	-11.9002
▁Collin	-11.9002
▁Karn	-11.9004
ollo	-11.9005
shi	-11.9008
identifi	-11.9008
pe	-11.9013
▁auto	-11.9024
ragon	-11.9031
▁div	-11.9034
WA	-11.904
ash	-11.9043
▁153	-11.9047
▁Anim	-11.9051
ef	-11.9054
▁Any	-11.9055
llor	-11.9057
Pol	-11.9058
▁Reta	-11.9058
yclone	-11.9068
▁dissolve	-11.9075
cks	-11.9077
▁postur	-11.9078
lo	-11.9081
▁Cho	-11.9087
wage	-11.9089
▁satir	-11.9096
▁stripe	-11.9106
▁addresse	-11.9108
ua	-11.9116
necessar	-11.9119
chair	-11.9122
Music	-11.9122
realm	-11.9122
▁Sabo	-11.9127
uan	-11.9138
pple	-11.9139
▁contend	-11.9147
▁enhanc	-11.9148
HF	-11.9148
uckle	-11.9148
thick	-11.9149
airie	-11.9151
▁Mani	-11.9152
▁etc	-11.9167
▁Demo	-11.9167
▁submit	-11.917
ged	-11.9178
▁teenage	-11.9188
▁distract	-11.919
▁robot	-11.9192
isappear	-11.9194
▁Phoe	-11.9194
▁bombard	-11.9195
▁Sim	-11.9196
▁autonom	-11.9196
ootleg	-11.9196
unnel	-11.9197
▁eukaryot	-11.9198
grenadier	-11.9198
oë	-11.9198
▁Antarctic	-11.9198
▁ESPN	-11.9198
▁Hundred	-11.9198
▁Sovetsk	-11.9198
▁Statistic	-11.9198
▁bankrupt	-11.9198
▁clutch	-11.9198
▁reptile	-11.9198
▁revelation	-11.9198
▁Diarma	-11.9198
▁hazard	-11.9198
▁recipient	-11.9198
▁burden	-11.9198
efact	-11.9198
▁Kristians	-11.9198
▁exaggerat	-11.9198
▁Rodrigue	-11.9198
▁nutrient	-11.9198
▁Orchestra	-11.9198
▁Eurasia	-11.9198
▁ultra	-11.9198
▁craz	-11.9198
▁clerk	-11.9198
▁Lisbon	-11.9198
▁pharaoh	-11.9198
▁spontaneous	-11.9198
▁Pilot	-11.9198
iastical	-11.9198
▁derivative	-11.9198
▁librett	-11.9198
▁earthstar	-11.9198
▁spoil	-11.9198
▁pollut	-11.9199
▁Explor	-11.9199
▁Bre	-11.9199
▁Kumar	-11.9199
▁DeGro	-11.9199
▁plaque	-11.9199
▁Fight	-11.9199
▁Folk	-11.9199
▁Whig	-11.9199
▁bucket	-11.9199
▁bulkhead	-11.9199
▁receptor	-11.92
▁odor	-11.92
▁classroom	-11.92
▁Dirt	-11.92
▁loot	-11.9201
▁Update	-11.9201
▁analog	-11.9201
▁wander	-11.9201
▁depot	-11.9201
▁endorsement	-11.9202
▁cre	-11.9202
▁ballot	-11.9202
▁veil	-11.9202
▁strand	-11.9202
▁Jeffer	-11.9203
▁Elect	-11.9204
▁Recent	-11.9204
▁midfielder	-11.9207
▁flotilla	-11.9207
▁Calder	-11.9207
▁Kawa	-11.9208
▁Hank	-11.9209
▁wetland	-11.9209
▁Net	-11.921
▁Observation	-11.9213
▁refit	-11.9215
▁Julia	-11.9215
▁slab	-11.9217
▁embodi	-11.9219
war	-11.9219
▁Gof	-11.922
▁Soft	-11.9223
▁Milan	-11.9224
▁southward	-11.9226
▁Pie	-11.9226
▁propeller	-11.9226
viv	-11.9227
▁punctu	-11.923
▁tendenc	-11.9231
▁leukemi	-11.9233
▁Sw	-11.9235
▁diversion	-11.9235
▁ethic	-11.9237
▁Qin	-11.9237
▁gait	-11.9238
▁protector	-11.924
▁Administrat	-11.9243
▁vein	-11.9243
▁tracking	-11.9245
▁Biographer	-11.9246
mun	-11.9251
▁approve	-11.9251
sty	-11.9252
aphor	-11.9253
▁initiate	-11.9255
▁bead	-11.9256
š	-11.9256
▁stripp	-11.9258
▁keeper	-11.9259
▁Put	-11.9262
▁advise	-11.9263
▁Word	-11.9266
▁Date	-11.9269
ovement	-11.927
▁Trav	-11.9271
▁spinn	-11.9274
▁wield	-11.9289
▁Vision	-11.9291
▁residue	-11.9292
▁Lao	-11.9294
▁Byr	-11.9294
▁chromosome	-11.9297
grove	-11.9299
▁adorn	-11.93
42	-11.93
▁aw	-11.9304
rmal	-11.9305
emic	-11.9307
▁assumption	-11.9316
▁revol	-11.9322
▁rope	-11.9331
▁Oah	-11.9332
quet	-11.9334
▁sto	-11.9338
hei	-11.9338
▁subdivi	-11.9344
▁sca	-11.9352
aff	-11.9357
▁SF	-11.9362
▁forecast	-11.9366
tine	-11.9369
trick	-11.9378
▁recit	-11.9385
▁stabiliz	-11.9387
▁forget	-11.9387
▁Ibar	-11.9387
▁Cushi	-11.9396
entral	-11.9401
▁Sang	-11.9408
idel	-11.941
alo	-11.9425
mate	-11.9433
logical	-11.9437
uki	-11.9439
mation	-11.944
▁Gla	-11.9445
stance	-11.9445
oca	-11.9446
evel	-11.9446
erdict	-11.9449
▁mixe	-11.9451
43	-11.9458
ky	-11.9458
▁Samp	-11.946
▁154	-11.946
▁Def	-11.9462
▁glo	-11.9473
bilit	-11.9473
rez	-11.9473
ction	-11.9478
▁vint	-11.9478
stick	-11.948
▁Touris	-11.9482
▁Nf	-11.9487
car	-11.9496
gge	-11.9499
chill	-11.9505
▁portal	-11.9506
▁Pink	-11.9509
IT	-11.9509
▁viewer	-11.9522
strum	-11.9527
▁Judg	-11.9536
lese	-11.9541
ges	-11.9549
ć	-11.9554
▁originate	-11.9556
hai	-11.9566
▁destruct	-11.9567
ast	-11.9567
ult	-11.9567
▁envis	-11.9571
ouche	-11.9574
▁Jak	-11.9576
tara	-11.9581
▁citizen	-11.9586
▁169	-11.9591
▁Tin	-11.9596
▁mud	-11.9597
▁Cent	-11.9604
demic	-11.9607
▁Doub	-11.9609
amine	-11.961
mateur	-11.9611
wa	-11.9612
enic	-11.9613
▁Ice	-11.9614
▁Za	-11.9618
▁rushe	-11.9623
▁seas	-11.9629
▁103	-11.9632
▁var	-11.9632
▁Poe	-11.9633
aver	-11.9638
▁oxid	-11.9642
▁Stol	-11.9643
▁lobb	-11.9644
▁surve	-11.9654
▁Pict	-11.9662
▁pave	-11.9663
▁realm	-11.9665
▁Phi	-11.9666
mble	-11.967
▁obsess	-11.9677
▁FO	-11.9677
▁consecrat	-11.9693
▁cuts	-11.9699
▁seam	-11.9699
neas	-11.9704
finger	-11.9706
spring	-11.9706
original	-11.9708
folk	-11.9709
force	-11.971
Eu	-11.9711
▁Bend	-11.9713
chel	-11.9717
▁custo	-11.9718
▁Bosnia	-11.9719
▁keyboards	-11.9721
▁allegi	-11.9721
umi	-11.9722
▁comfort	-11.9724
UC	-11.9729
▁Hale	-11.9729
▁Aero	-11.9732
▁Worth	-11.9737
▁Crusade	-11.9739
structure	-11.9743
▁observer	-11.9744
▁strings	-11.9745
▁Montenegr	-11.9746
nati	-11.9746
llah	-11.9747
oulevard	-11.9752
va	-11.9753
▁configur	-11.9754
▁Previous	-11.9754
▁Venezuela	-11.9754
▁abrupt	-11.9754
▁disadvantage	-11.9754
▁hybrid	-11.9754
▁millimetre	-11.9754
▁mosaic	-11.9754
▁thunderstorm	-11.9754
▁immortal	-11.9754
▁staircase	-11.9754
▁sawmill	-11.9754
▁solitar	-11.9754
▁flexib	-11.9754
▁Acre	-11.9754
▁augment	-11.9754
▁Cornwall	-11.9754
▁lavish	-11.9754
▁sulfur	-11.9754
▁nomad	-11.9754
▁maskray	-11.9754
▁Honour	-11.9754
▁humiliat	-11.9754
▁merit	-11.9754
▁interval	-11.9754
▁prefecture	-11.9754
▁Fortune	-11.9754
▁smell	-11.9754
▁sprite	-11.9755
▁oath	-11.9755
▁evoke	-11.9755
▁storytell	-11.9755
▁Elvi	-11.9755
▁manifestation	-11.9755
▁Match	-11.9755
▁republic	-11.9755
hal	-11.9756
▁Bluff	-11.9756
▁workshop	-11.9756
▁Ecolog	-11.9756
ovenant	-11.9757
▁nestling	-11.9757
▁Stalin	-11.9757
▁eminent	-11.9757
▁Agne	-11.9757
▁mourn	-11.9757
▁dump	-11.9758
▁Jesuit	-11.9759
▁Totten	-11.976
▁Twic	-11.976
▁instructor	-11.976
▁Asc	-11.976
▁tea	-11.9761
▁nominal	-11.9761
▁fluorescen	-11.9761
▁referend	-11.9761
▁plaster	-11.9761
▁pew	-11.9762
incin	-11.9762
▁Luther	-11.9762
▁bestow	-11.9763
▁physicist	-11.9764
▁medicine	-11.9764
▁Julius	-11.9764
▁instant	-11.9766
▁Dragon	-11.9767
▁millenni	-11.9768
assl	-11.9768
▁collid	-11.9769
visa	-11.9769
▁canyon	-11.977
▁filmmaker	-11.9771
▁Quit	-11.9771
▁Peck	-11.9772
▁Influence	-11.9773
▁abolition	-11.9775
▁Snell	-11.9775
▁Loft	-11.9776
▁Luck	-11.9776
▁Alam	-11.9778
▁Zone	-11.9779
▁disruption	-11.9781
▁verbal	-11.9783
▁Driver	-11.9784
▁gri	-11.9785
▁bitter	-11.9786
▁Imag	-11.9787
▁pastor	-11.9787
▁dot	-11.9787
▁Worthing	-11.9787
▁Coloni	-11.9788
▁clearance	-11.979
▁downward	-11.9796
wamp	-11.9798
▁intensive	-11.9798
▁Fir	-11.9799
▁obe	-11.9801
▁dismay	-11.9802
kra	-11.9802
ér	-11.9809
▁pig	-11.9812
ip	-11.9814
neumo	-11.9818
▁furni	-11.9822
▁Robot	-11.9824
▁microscopic	-11.9826
▁Hoo	-11.9827
▁Grave	-11.9827
▁fond	-11.9828
happ	-11.9828
▁compensate	-11.9829
▁Nir	-11.983
zt	-11.9836
▁Plann	-11.9838
asket	-11.984
inz	-11.984
▁outline	-11.9843
▁upward	-11.9846
▁Hardco	-11.9848
▁faste	-11.9851
▁Moth	-11.9852
DR	-11.9854
▁wel	-11.9854
▁interactiv	-11.9855
riff	-11.9855
kov	-11.9855
nagar	-11.9856
strov	-11.9857
▁logg	-11.9858
▁Bona	-11.9859
litz	-11.9859
▁divinit	-11.9862
▁Amp	-11.9864
▁Grim	-11.9867
▁Buck	-11.9869
▁troph	-11.9869
▁Gia	-11.9871
▁imply	-11.9874
▁buff	-11.9875
nine	-11.9881
▁Jell	-11.9881
emise	-11.9882
▁refin	-11.9883
▁Body	-11.989
▁watche	-11.9892
▁stimulat	-11.9893
▁Reco	-11.99
▁Kin	-11.9904
▁Pas	-11.9906
nnual	-11.9908
uras	-11.9914
amous	-11.9914
▁accumulate	-11.9915
▁bin	-11.9917
▁reunite	-11.9921
▁Providen	-11.9931
wig	-11.9936
▁fertiliz	-11.9943
▁Tad	-11.9944
sel	-11.9951
▁diocese	-11.9957
▁mail	-11.9957
▁illuminat	-11.9958
hon	-11.9965
▁imm	-11.9968
▁lakes	-11.997
▁Werne	-11.9972
erra	-11.9979
▁dominan	-11.9979
▁Dry	-11.9984
▁spare	-11.9996
▁sampl	-11.9999
trench	-12.0003
▁advert	-12.0007
▁Isa	-12.0008
▁taxa	-12.0008
▁Cort	-12.001
teen	-12.0012
arta	-12.0014
omplex	-12.0027
▁interi	-12.0028
▁maker	-12.0029
▁reactiv	-12.0032
cted	-12.0039
▁evolve	-12.004
▁115	-12.0043
▁alternat	-12.0053
TB	-12.0053
▁Pal	-12.0056
▁Surviv	-12.0059
▁Traf	-12.0061
urti	-12.0064
▁antiqu	-12.0067
▁Bridges	-12.007
▁por	-12.007
▁exercis	-12.0078
▁barb	-12.0078
▁geologic	-12.0087
cation	-12.0098
▁Eli	-12.0102
cane	-12.0107
▁Dare	-12.0108
sibilit	-12.0108
▁royalt	-12.0111
▁Java	-12.0112
gamer	-12.0124
▁Amy	-12.0124
logo	-12.0126
▁packag	-12.0128
hapter	-12.0131
▁excavat	-12.0138
▁dr	-12.0144
semen	-12.0144
▁Croat	-12.015
▁Theme	-12.0152
q	-12.0153
icia	-12.0159
illo	-12.016
▁Franc	-12.0167
▁reunit	-12.0168
▁Paper	-12.0169
▁Alexandr	-12.0189
▁revive	-12.019
49	-12.0193
▁thematic	-12.0199
pproximate	-12.0199
▁Surre	-12.0209
corporate	-12.0213
▁Lem	-12.0216
▁rails	-12.0218
ague	-12.0221
▁regulat	-12.0221
▁Levi	-12.0223
▁Spani	-12.0223
ency	-12.0223
▁XII	-12.0229
mel	-12.0234
▁qua	-12.0243
anni	-12.0244
▁Sou	-12.0247
▁Sab	-12.0248
nest	-12.0251
▁Camero	-12.0254
▁accessib	-12.0264
HA	-12.0267
▁Cop	-12.0268
clam	-12.027
ht	-12.027
▁appreciate	-12.0272
adi	-12.0278
inc	-12.0281
▁cruis	-12.0282
angz	-12.0282
aire	-12.0286
mother	-12.029
▁glaci	-12.0291
▁equat	-12.0292
▁troubles	-12.0295
▁Rut	-12.0297
▁Suf	-12.03
flow	-12.03
iation	-12.0302
Der	-12.0312
▁Princip	-12.032
▁provoke	-12.0322
▁convers	-12.0325
▁Chuck	-12.033
▁Kita	-12.033
void	-12.0336
▁conform	-12.0338
▁advent	-12.034
ī	-12.0342
▁Extinct	-12.0342
▁Frankfurt	-12.0342
▁Ibrahim	-12.0342
▁Ishmael	-12.0342
▁Zimmerman	-12.0342
▁confiscate	-12.0342
▁ingredient	-12.0342
▁reclaim	-12.0342
▁shadow	-12.0342
▁subplot	-12.0342
▁virtuos	-12.0342
▁aristocra	-12.0342
▁graz	-12.0342
▁nominee	-12.0342
▁suspicion	-12.0342
▁Shield	-12.0342
▁UCL	-12.0342
▁cottage	-12.0342
▁scratch	-12.0342
▁sleeve	-12.0342
▁Article	-12.0342
▁Isabel	-12.0342
▁exemplifie	-12.0342
▁cosmetic	-12.0342
▁Seventeen	-12.0342
▁qualification	-12.0342
▁cardinal	-12.0342
▁plural	-12.0342
aceae	-12.0342
▁potato	-12.0342
hemica	-12.0342
▁faint	-12.0342
▁Tsuba	-12.0342
▁latitude	-12.0342
▁unchang	-12.0342
elope	-12.0343
▁inexperience	-12.0343
▁reinstate	-12.0343
agh	-12.0343
▁bubble	-12.0343
▁compress	-12.0343
▁Dhangar	-12.0343
▁Motherwell	-12.0343
▁Narv	-12.0343
▁girlfriend	-12.0343
▁unofficial	-12.0343
▁humid	-12.0344
▁Fleming	-12.0344
▁Mana	-12.0344
owder	-12.0344
▁lieutenant	-12.0345
▁Hi	-12.0345
▁Guang	-12.0345
▁Habit	-12.0345
▁amendment	-12.0345
▁Break	-12.0345
▁cruel	-12.0345
▁Armenia	-12.0345
▁Kitty	-12.0345
▁pigment	-12.0345
▁spillway	-12.0345
▁columnist	-12.0346
NH	-12.0346
▁trustee	-12.0346
ambiguous	-12.0346
▁jag	-12.0347
▁prosecutor	-12.0347
fair	-12.0347
▁Language	-12.0348
▁Otto	-12.0348
▁Panther	-12.0348
▁relic	-12.0348
▁fascist	-12.0349
▁Vill	-12.0349
▁Economic	-12.0349
▁rotat	-12.0349
ipp	-12.035
▁Cause	-12.035
▁Agust	-12.035
▁Legion	-12.035
▁Wake	-12.035
▁guardian	-12.0351
▁Casa	-12.0352
▁furious	-12.0352
▁contemplat	-12.0353
▁swift	-12.0355
▁Vita	-12.0355
▁encompass	-12.0356
▁installment	-12.0357
▁Griffi	-12.0357
▁Utta	-12.0357
▁Hunt	-12.0358
▁scarce	-12.0358
▁patern	-12.0359
▁stranger	-12.036
▁conformation	-12.036
▁technological	-12.0361
▁flare	-12.0361
▁galley	-12.0364
▁synthesizer	-12.0364
▁Prison	-12.0364
solith	-12.0365
▁Pitch	-12.0368
▁910	-12.0369
▁overt	-12.0369
▁whistle	-12.037
▁adverse	-12.037
▁tann	-12.0371
▁Franciscan	-12.0371
▁Historian	-12.0372
▁Buff	-12.0372
▁iconograph	-12.0372
▁distributor	-12.0373
▁immun	-12.0373
ictionar	-12.0375
▁petrol	-12.0378
▁mural	-12.0379
▁hostage	-12.0379
ube	-12.0381
▁spouse	-12.0381
drop	-12.0382
▁Pond	-12.0382
▁emitt	-12.0382
iago	-12.0385
▁Mond	-12.0389
minent	-12.039
▁Fork	-12.0394
▁glor	-12.0394
▁plead	-12.0396
▁specification	-12.04
ould	-12.0401
▁Quest	-12.0409
▁Im	-12.041
▁prec	-12.041
▁Cabin	-12.0411
▁wrestler	-12.0416
▁Mug	-12.0426
▁obscure	-12.0427
▁Serge	-12.0434
▁Muti	-12.0435
▁Publisher	-12.0439
▁Friend	-12.044
iano	-12.0443
▁Wir	-12.0443
fume	-12.0447
▁cleric	-12.045
▁NM	-12.0451
▁pes	-12.0452
▁styl	-12.0453
▁Terri	-12.0457
▁128	-12.0457
▁suck	-12.0467
▁gener	-12.047
▁tow	-12.0472
raig	-12.0474
▁Yea	-12.0475
▁lonel	-12.0476
▁addict	-12.0479
éda	-12.0479
▁lineage	-12.048
▁Ster	-12.0482
▁realise	-12.0488
affle	-12.049
▁Kre	-12.049
▁lyric	-12.0493
▁Sau	-12.0497
cus	-12.05
▁Circu	-12.0503
▁HD	-12.0505
▁jewelle	-12.0508
▁presenter	-12.0515
▁serializ	-12.0515
▁Semiti	-12.0516
placement	-12.0516
▁Kno	-12.0518
▁Mech	-12.0521
▁reliabl	-12.0524
▁motoris	-12.0526
▁teen	-12.0531
▁Div	-12.0536
▁mari	-12.0541
▁Donn	-12.0542
▁chao	-12.0549
voy	-12.055
▁corporation	-12.0551
ending	-12.0551
▁Chay	-12.0552
▁Bha	-12.0553
▁Carrie	-12.0554
▁Herr	-12.0556
▁convincing	-12.056
▁ordina	-12.056
▁inf	-12.0562
▁Glori	-12.0568
▁Calv	-12.057
▁Wilder	-12.057
▁mis	-12.0589
▁fl	-12.059
atti	-12.059
▁murderer	-12.0596
▁finishe	-12.0604
lain	-12.0607
▁Sacr	-12.061
▁Nott	-12.0611
stract	-12.0614
▁Hartle	-12.0618
▁selective	-12.0619
sad	-12.0624
rett	-12.0632
bak	-12.0638
story	-12.0639
▁trib	-12.064
vad	-12.0642
▁curio	-12.0647
yang	-12.065
▁terminat	-12.0662
▁elector	-12.0662
matic	-12.0664
▁rendering	-12.0668
ane	-12.0672
▁sho	-12.0684
of	-12.0686
▁voic	-12.0688
IF	-12.0693
▁classifie	-12.0695
ampto	-12.0699
▁104	-12.0704
▁Qui	-12.0706
▁fringe	-12.071
▁confess	-12.0712
▁innovat	-12.0713
▁subtl	-12.0714
▁cart	-12.0715
okie	-12.0721
her	-12.0724
ene	-12.0727
cribe	-12.073
▁Poll	-12.0736
▁Cooke	-12.0737
▁redevelop	-12.0738
ronze	-12.0739
▁Event	-12.0742
▁116	-12.0744
▁triangula	-12.075
ussel	-12.0751
stile	-12.0753
▁polar	-12.0754
▁Moors	-12.076
▁beque	-12.0768
▁interfere	-12.0768
▁freeze	-12.0776
▁penetrate	-12.0777
nial	-12.0786
pri	-12.0791
▁Convers	-12.0793
▁aft	-12.0794
osion	-12.0799
shed	-12.0801
▁RF	-12.0803
22	-12.0808
care	-12.0809
▁financ	-12.0813
▁demons	-12.0814
istinguish	-12.0814
▁167	-12.0818
▁Blacks	-12.0822
▁impri	-12.0825
▁Dela	-12.0826
ffman	-12.0828
▁bedro	-12.0831
▁ambi	-12.0838
▁Nai	-12.0839
▁arche	-12.0846
▁progresse	-12.0852
aughter	-12.0857
▁reconcile	-12.0865
▁lean	-12.0868
▁relian	-12.0869
▁Sham	-12.087
▁arsen	-12.0885
▁cha	-12.0889
▁Gale	-12.0889
rude	-12.0889
▁Barr	-12.0891
▁Lon	-12.0893
▁commend	-12.0896
lent	-12.0896
▁symbolis	-12.0914
releas	-12.0916
▁charg	-12.0919
▁vertebra	-12.092
▁mort	-12.0926
aq	-12.0927
owitz	-12.0935
▁renovat	-12.0937
irp	-12.094
▁cab	-12.0953
ometr	-12.0959
▁Abbot	-12.096
corn	-12.096
terrestrial	-12.0961
▁unb	-12.0962
xperience	-12.0962
▁accura	-12.0965
▁Behavio	-12.0967
▁Continu	-12.0967
Spisevognselskap	-12.0967
▁Alternative	-12.0967
▁Ethiopia	-12.0967
▁Kitsune	-12.0967
▁Penguin	-12.0967
▁Ptolem	-12.0967
▁Restaurant	-12.0967
▁articulate	-12.0967
▁contaminat	-12.0967
▁lambeosaurine	-12.0967
▁mitochondria	-12.0967
▁pamphlet	-12.0967
▁procure	-12.0967
▁solicit	-12.0967
▁splinter	-12.0967
▁vulgar	-12.0967
▁Lanois	-12.0967
▁bulb	-12.0967
▁unwilling	-12.0967
▁Worcester	-12.0967
▁Zombie	-12.0967
▁truncat	-12.0967
▁wagon	-12.0967
▁mercenar	-12.0967
▁hadrosaurid	-12.0967
▁transept	-12.0967
▁discourage	-12.0967
▁floodplain	-12.0967
▁clever	-12.0967
▁cartridge	-12.0967
▁choreograph	-12.0967
▁curricul	-12.0967
▁ridiculous	-12.0967
▁Edwin	-12.0967
▁shatter	-12.0967
▁Robbie	-12.0967
▁enclosure	-12.0967
▁Puritan	-12.0967
▁Scap	-12.0967
▁deplet	-12.0968
▁classify	-12.0968
▁Disaster	-12.0968
▁apologize	-12.0968
▁embroi	-12.0968
resisti	-12.0968
▁Doug	-12.0968
▁copyright	-12.0968
▁discretion	-12.0968
▁Spence	-12.0968
▁haul	-12.0968
▁click	-12.0969
▁Everett	-12.0969
▁catalogue	-12.0969
▁feasib	-12.0969
▁Sergi	-12.0969
▁implication	-12.0969
▁altitude	-12.0969
▁vegetable	-12.0969
▁Maclag	-12.0969
▁autonomous	-12.0969
▁Wł	-12.097
bec	-12.097
▁covenant	-12.097
liation	-12.097
▁vow	-12.097
▁Chick	-12.097
▁reuse	-12.097
▁dive	-12.0971
▁veto	-12.0971
▁vivi	-12.0971
▁melanchol	-12.0971
▁pageant	-12.0972
▁Kalyan	-12.0972
bodie	-12.0972
▁Boliv	-12.0972
▁Preparation	-12.0973
▁paperback	-12.0973
▁orientation	-12.0973
▁cosmo	-12.0973
▁prescribe	-12.0973
▁quotation	-12.0973
▁Iceland	-12.0974
▁discern	-12.0974
▁attest	-12.0974
▁Lanka	-12.0975
▁sensor	-12.0977
▁mounting	-12.0979
▁Kö	-12.0979
erdale	-12.0979
▁stela	-12.0979
▁broadside	-12.098
▁mandat	-12.098
Chuck	-12.0982
hawk	-12.0983
▁contradiction	-12.0984
▁Rare	-12.0985
▁citation	-12.0987
▁auction	-12.0988
▁coil	-12.0988
▁amend	-12.0989
▁omni	-12.0989
▁allusion	-12.0992
▁1660	-12.0992
raine	-12.0992
ergar	-12.0993
finish	-12.0993
▁Manga	-12.0994
▁myc	-12.0994
escue	-12.0994
▁vanish	-12.0995
ran	-12.0996
appropriate	-12.0998
ultimate	-12.0999
▁specialis	-12.1001
rapper	-12.1001
common	-12.1003
▁na	-12.1004
▁1845	-12.1006
▁Alliance	-12.1007
▁abdom	-12.1008
▁revert	-12.101
▁Rough	-12.101
▁Travel	-12.1011
▁Dove	-12.1012
▁Ador	-12.1016
▁gig	-12.1022
▁showcase	-12.1025
▁Devil	-12.1026
ikh	-12.1026
▁decent	-12.1027
▁worsen	-12.1027
▁lend	-12.1028
fight	-12.1028
▁Hartman	-12.1029
▁remed	-12.103
▁heredit	-12.1032
▁Kinne	-12.1032
stage	-12.1033
▁facilitat	-12.1036
▁cater	-12.1037
▁ferry	-12.1039
▁Armor	-12.104
rap	-12.1041
through	-12.1045
mash	-12.1046
▁priva	-12.1052
GA	-12.106
▁activate	-12.1062
pin	-12.1063
▁Scholars	-12.1067
▁reconcil	-12.1069
▁138	-12.107
▁Mithra	-12.1071
entine	-12.1074
▁accompanie	-12.1076
ches	-12.108
TO	-12.108
▁Lac	-12.108
icard	-12.1084
▁adviser	-12.1085
▁Ame	-12.1089
▁Virgi	-12.109
style	-12.109
▁insur	-12.109
▁Nek	-12.109
▁Traff	-12.109
lown	-12.1091
wap	-12.1093
▁lobby	-12.1094
▁Sav	-12.1095
▁roundabout	-12.1096
▁prop	-12.1097
seldo	-12.1107
▁Bern	-12.1107
▁boxes	-12.1109
▁archive	-12.1112
▁Foot	-12.1114
▁Sp	-12.1115
▁lens	-12.1115
▁Liber	-12.1117
▁McK	-12.1119
▁Babylonia	-12.112
int	-12.1122
lich	-12.1124
▁civi	-12.1125
▁Starr	-12.1129
▁maid	-12.1132
▁feminin	-12.1133
▁Morocc	-12.1135
▁Brando	-12.1139
▁Ruf	-12.114
▁172	-12.1143
▁ram	-12.1144
▁Verm	-12.1145
▁Claud	-12.115
ulf	-12.1151
▁Len	-12.1153
▁shake	-12.1159
herent	-12.116
▁Num	-12.1172
aba	-12.1175
▁Pitts	-12.1177
▁gal	-12.1178
▁Forge	-12.1182
▁Mackina	-12.1183
▁assemble	-12.1187
▁Too	-12.1189
▁dispos	-12.119
▁Hod	-12.1192
tail	-12.1198
▁173	-12.1199
▁Isi	-12.1207
▁Vida	-12.1216
▁sphere	-12.1218
stitution	-12.1218
▁Kara	-12.1219
▁Bard	-12.1221
▁Came	-12.1223
▁proph	-12.1227
▁Rosa	-12.1229
▁Tempe	-12.1238
▁Drum	-12.1243
ii	-12.1247
▁Cass	-12.1252
GT	-12.1254
SD	-12.1256
lz	-12.1261
▁lett	-12.1262
▁Ledge	-12.1262
▁projection	-12.1266
estig	-12.1266
▁Monda	-12.1266
▁cub	-12.1269
PH	-12.1274
▁marginal	-12.1279
PL	-12.1279
olka	-12.128
▁moralit	-12.1281
rch	-12.1281
▁applie	-12.1283
▁Raw	-12.1287
asha	-12.1289
wal	-12.1291
▁manipulate	-12.1293
▁Treb	-12.1298
▁lov	-12.13
kind	-12.1302
▁drag	-12.1302
▁Georg	-12.1305
vier	-12.1307
scot	-12.1314
▁Kala	-12.1319
▁Nicola	-12.1319
▁Ob	-12.1321
▁Tra	-12.1329
rk	-12.1335
eman	-12.1335
iya	-12.1336
▁utilize	-12.1343
▁Physic	-12.1347
▁mod	-12.1354
▁FC	-12.1354
acht	-12.1359
▁worm	-12.1363
vacha	-12.1365
olat	-12.1367
rades	-12.1368
▁infest	-12.1368
prising	-12.137
▁drains	-12.1371
▁emigrat	-12.1371
▁mo	-12.1371
▁Notes	-12.1373
nuclea	-12.1376
olia	-12.1378
▁employer	-12.1381
▁cele	-12.1385
▁differentiate	-12.1387
▁Northeast	-12.1395
▁offend	-12.1396
▁Marv	-12.1396
▁Lone	-12.1399
▁accuse	-12.1402
▁Mul	-12.1403
▁hydr	-12.1403
▁blu	-12.1403
▁Swans	-12.1412
▁Aid	-12.1419
▁Compar	-12.142
tzpa	-12.142
▁Lear	-12.1426
eral	-12.1426
handler	-12.144
▁Wo	-12.1444
▁resid	-12.1446
▁Rac	-12.1446
use	-12.1451
ison	-12.1451
▁communicate	-12.1454
▁Kon	-12.1454
▁Glo	-12.1454
ception	-12.1455
▁femini	-12.1462
iel	-12.1463
▁Eval	-12.1463
▁156	-12.1472
homa	-12.1475
eur	-12.1479
jin	-12.1487
ruz	-12.1487
chievement	-12.149
▁popul	-12.1491
▁statistical	-12.1491
▁GM	-12.1499
form	-12.152
▁Manda	-12.152
doubt	-12.1521
tze	-12.1522
▁Mongol	-12.1523
▁choos	-12.1526
▁Kav	-12.1529
▁Perc	-12.153
▁obscur	-12.1538
altar	-12.1546
anama	-12.1546
iocese	-12.1555
▁squat	-12.156
▁intro	-12.1569
▁clinic	-12.1572
▁Farr	-12.1578
nate	-12.1579
▁calculate	-12.1588
▁Rao	-12.1588
iett	-12.1592
punct	-12.1593
▁Coul	-12.1594
▁Harv	-12.1596
ibn	-12.1599
▁profession	-12.16
amlet	-12.1604
erous	-12.1604
▁enthusias	-12.1607
stra	-12.1611
▁efficien	-12.1611
lé	-12.1615
▁vacan	-12.1616
▁disast	-12.1621
itsu	-12.1622
▁micro	-12.1623
▁Interacti	-12.1623
▁snap	-12.1623
▁practi	-12.1624
▁certificat	-12.1624
anuel	-12.1628
▁justifi	-12.1629
▁Kiss	-12.163
xchange	-12.163
utla	-12.1631
▁ow	-12.1633
hāv	-12.1633
ễ	-12.1633
▁Amendment	-12.1633
▁Competiti	-12.1633
▁Scientologist	-12.1633
▁Scratch	-12.1633
▁Sihanouk	-12.1633
▁Thousand	-12.1633
▁apprentice	-12.1633
▁constituent	-12.1633
▁ectomycorrhiza	-12.1633
▁extravagan	-12.1633
▁fracture	-12.1633
▁hierarch	-12.1633
▁magistrate	-12.1633
▁messenger	-12.1633
▁paratrooper	-12.1633
▁plagiari	-12.1633
▁quarterfinal	-12.1633
▁registr	-12.1633
▁reproduce	-12.1633
▁transplant	-12.1633
▁typewriter	-12.1633
quois	-12.1633
▁Croydon	-12.1633
▁adolescen	-12.1633
▁crater	-12.1633
▁disgust	-12.1633
▁lodge	-12.1633
▁psychi	-12.1633
▁overthrow	-12.1633
▁peripher	-12.1633
▁persecut	-12.1633
▁Firecr	-12.1633
▁cytogenetic	-12.1633
▁Anatolia	-12.1633
▁despatche	-12.1633
▁grenade	-12.1633
▁inevitabl	-12.1633
▁gesture	-12.1634
▁cinematograph	-12.1634
▁invok	-12.1634
▁subtype	-12.1634
▁transcribe	-12.1634
tymolog	-12.1634
▁glamo	-12.1634
▁Eduard	-12.1634
▁landslide	-12.1634
▁database	-12.1634
▁warehouse	-12.1634
▁Egyptologist	-12.1634
▁GPU	-12.1634
▁Moresby	-12.1634
▁marsh	-12.1634
▁levee	-12.1634
▁unfortunate	-12.1634
▁reorganis	-12.1634
▁sociologist	-12.1634
▁Kamala	-12.1635
▁Runn	-12.1635
▁regret	-12.1635
▁pillar	-12.1635
▁classmate	-12.1635
▁Innocen	-12.1635
▁Stela	-12.1635
▁Borderers	-12.1636
▁fledgling	-12.1636
▁urgent	-12.1636
▁Maje	-12.1636
opter	-12.1636
▁torso	-12.1636
▁hetero	-12.1637
▁computation	-12.1637
▁submission	-12.1637
▁Mysore	-12.1637
▁splash	-12.1638
▁Jump	-12.1638
▁reef	-12.1638
▁pierc	-12.1638
▁Alpha	-12.1638
▁renumber	-12.1639
▁exert	-12.1639
▁vacation	-12.164
▁Kaj	-12.164
▁gallon	-12.1642
omestic	-12.1643
▁federation	-12.1643
▁Jamaica	-12.1643
▁Speak	-12.1644
▁erod	-12.1645
▁motivation	-12.1645
▁Steff	-12.1645
▁subgen	-12.1646
▁accelerate	-12.1647
▁passport	-12.1647
▁MI	-12.165
ankle	-12.1651
▁skeptic	-12.1652
▁Financ	-12.1652
▁glow	-12.1653
itz	-12.1653
▁milestone	-12.1654
▁Wide	-12.1655
▁absor	-12.1655
▁cylinder	-12.1656
▁Kress	-12.1657
▁shipyard	-12.1658
▁Bahr	-12.1659
▁Northumbria	-12.1659
▁Factor	-12.1659
▁Programme	-12.1659
▁Broom	-12.1659
▁alloy	-12.1659
▁Tata	-12.1659
▁Milk	-12.166
▁Atkin	-12.1661
▁SM	-12.1663
▁duck	-12.1664
▁Manning	-12.1664
▁prohibition	-12.1666
▁pier	-12.1667
▁gamma	-12.1668
▁cheer	-12.1668
zzar	-12.1671
▁Ivor	-12.1672
▁stunning	-12.1674
▁Structure	-12.1674
▁Edm	-12.1674
dyll	-12.1676
▁pledg	-12.1677
Connor	-12.1677
▁Roch	-12.1677
▁Letter	-12.1678
▁Poem	-12.1679
hub	-12.1679
▁replicate	-12.168
▁Priv	-12.1681
▁Athen	-12.1683
▁equalise	-12.1683
▁Eyes	-12.1684
uta	-12.1685
▁Larg	-12.1685
ctari	-12.1687
horn	-12.1688
▁sage	-12.1688
piece	-12.1689
Q	-12.169
▁equator	-12.1691
▁conc	-12.1692
aragua	-12.1692
▁Wor	-12.1695
▁Afterward	-12.1697
limb	-12.1706
adequate	-12.1706
▁Aca	-12.1708
▁favourabl	-12.1711
▁Hum	-12.1712
▁theorist	-12.1714
supply	-12.1715
normal	-12.1716
▁Could	-12.1717
▁aesthetic	-12.1718
▁Alg	-12.1727
unami	-12.1727
▁fus	-12.173
▁presiden	-12.1731
▁arra	-12.1735
cybe	-12.1738
lf	-12.1739
ras	-12.1743
woman	-12.1747
▁angel	-12.1748
▁107	-12.1749
▁epi	-12.175
pen	-12.1752
elbac	-12.1755
▁combatant	-12.1758
cri	-12.1758
▁Hob	-12.176
▁crust	-12.1761
ramp	-12.1762
vas	-12.1768
▁outlin	-12.1775
▁Cour	-12.1778
▁presid	-12.178
▁hom	-12.1781
▁Xin	-12.1783
26	-12.1784
CP	-12.1788
13	-12.1792
▁Shear	-12.1795
elong	-12.1797
▁antibod	-12.1798
▁speckle	-12.1798
▁dune	-12.1799
aig	-12.1807
▁fake	-12.1807
▁Southwest	-12.1808
▁powder	-12.1809
▁Crew	-12.1816
pocalyp	-12.1817
▁Brahma	-12.1818
▁Hutch	-12.1827
liberation	-12.1829
▁fence	-12.1832
▁contin	-12.1834
pg	-12.1835
annit	-12.1842
▁Jen	-12.1845
▁inhal	-12.1847
▁109	-12.1848
rner	-12.1849
OR	-12.1854
▁Pett	-12.1856
▁degenerate	-12.1857
▁fram	-12.1858
▁proportional	-12.1863
▁sentenc	-12.1866
▁liberat	-12.1867
▁genero	-12.1873
atory	-12.1882
▁fraction	-12.1882
▁Hui	-12.1882
▁Jeffr	-12.1885
▁geni	-12.1887
▁Format	-12.1903
▁package	-12.1904
▁stimulate	-12.1905
▁Springs	-12.1906
▁venerat	-12.1913
posed	-12.1914
▁AAA	-12.1917
affect	-12.1921
tar	-12.1921
▁meteorologi	-12.1922
▁attende	-12.1923
▁Charit	-12.1923
ost	-12.1923
ratin	-12.1924
SS	-12.1927
▁Manu	-12.1927
▁Carn	-12.1931
iris	-12.1932
▁pac	-12.1937
▁Por	-12.1941
urvivor	-12.1942
▁photos	-12.1944
▁Nobod	-12.1944
icea	-12.1947
▁repelle	-12.1956
▁corners	-12.1968
▁Cand	-12.1968
ander	-12.1968
▁plu	-12.1972
hant	-12.1975
rofessional	-12.1976
▁Find	-12.1976
atche	-12.1978
limina	-12.1981
▁Gy	-12.1981
▁Lil	-12.1991
▁Pray	-12.2004
▁rulers	-12.2009
▁refiner	-12.2018
▁Lands	-12.2026
▁replie	-12.2027
uilt	-12.203
▁Raid	-12.203
▁Abe	-12.2043
parte	-12.205
▁133	-12.2053
uble	-12.2062
isation	-12.2062
▁striv	-12.2063
▁Gala	-12.2081
ruth	-12.2088
▁Recordings	-12.2088
▁Boa	-12.2099
▁freez	-12.2101
grat	-12.2101
ét	-12.2106
osa	-12.2108
rake	-12.211
▁Warn	-12.2125
▁mediate	-12.2129
▁Mons	-12.2146
opulation	-12.2156
action	-12.2157
▁Vanc	-12.2158
▁Monte	-12.2158
ohn	-12.216
genes	-12.2163
▁denot	-12.2166
rrent	-12.217
▁nurs	-12.2176
▁Roth	-12.2187
tin	-12.2197
slot	-12.2199
▁Maid	-12.22
orda	-12.2202
curr	-12.2203
ulan	-12.2207
deo	-12.2216
▁cas	-12.2226
▁spr	-12.2227
ishna	-12.2227
▁definiti	-12.2228
lamp	-12.2228
utomobile	-12.2229
▁Bil	-12.2236
▁Sex	-12.2241
▁implie	-12.2244
roe	-12.2246
▁Bobca	-12.2246
▁Shawn	-12.2259
otic	-12.2259
ani	-12.226
▁mut	-12.2263
▁ge	-12.2266
▁Maur	-12.2267
runner	-12.2267
▁exo	-12.2268
niec	-12.2272
enne	-12.2276
plaus	-12.2278
Allis	-12.2282
▁avia	-12.2282
▁airpla	-12.2286
ider	-12.2295
eacon	-12.2296
affo	-12.2298
▁Hunting	-12.2301
aker	-12.2307
▁Dominic	-12.2307
▁emit	-12.231
igue	-12.2314
fold	-12.2315
▁Bio	-12.2316
▁Ki	-12.2319
kan	-12.2326
▁210	-12.2329
▁Marqu	-12.233
▁Riv	-12.2331
▁Guer	-12.2332
▁octa	-12.2332
▁Ott	-12.2333
▁smuggl	-12.2333
triu	-12.2334
lotilla	-12.2336
iable	-12.2337
▁unifi	-12.2338
▁reproducti	-12.2338
umming	-12.2338
▁inhibit	-12.2342
▁bounc	-12.2344
▁Confedera	-12.2345
▁blank	-12.2345
limate	-12.2345
▁ordinat	-12.2346
ricate	-12.2346
lihood	-12.2347
▁Nazis	-12.2347
▁Gloucester	-12.2348
ô	-12.2348
à	-12.2348
ă	-12.2348
▁Audio	-12.2348
▁Dharm	-12.2348
▁Presbyterian	-12.2348
▁Selenite	-12.2348
▁administrator	-12.2348
▁constellation	-12.2348
▁enlighten	-12.2348
▁erroneous	-12.2348
▁improper	-12.2348
▁intermittent	-12.2348
▁landowner	-12.2348
▁outflank	-12.2348
▁precursor	-12.2348
▁refurbish	-12.2348
▁reggae	-12.2348
▁segregat	-12.2348
▁spruce	-12.2348
▁vizier	-12.2348
▁voluntar	-12.2348
▁quadrup	-12.2348
▁Soldier	-12.2348
hinke	-12.2348
▁goalscor	-12.2348
▁proponent	-12.2348
▁tentative	-12.2348
▁creep	-12.2348
▁flavor	-12.2348
▁masterpiece	-12.2348
▁chlori	-12.2348
bbot	-12.2348
▁Atomic	-12.2348
▁Reuter	-12.2348
▁signify	-12.2349
▁behave	-12.2349
▁tribble	-12.2349
▁Mead	-12.2349
▁Culver	-12.2349
unci	-12.2349
▁recycl	-12.2349
▁shortlist	-12.235
LI	-12.235
▁resent	-12.235
▁volley	-12.235
▁flourish	-12.235
▁incense	-12.235
ricula	-12.235
▁arbitra	-12.235
▁embass	-12.2351
▁luc	-12.2351
▁shade	-12.2351
▁Jovi	-12.2351
urnal	-12.2351
▁Amazon	-12.2351
tiè	-12.2351
▁Confederation	-12.2352
▁Rubin	-12.2352
▁Technical	-12.2352
▁Arri	-12.2353
▁frill	-12.2353
▁Typical	-12.2353
▁screenwriter	-12.2353
▁volcano	-12.2354
▁rehearsal	-12.2355
▁councillor	-12.2355
▁spear	-12.2355
▁hopeful	-12.2356
arnival	-12.2356
▁bullet	-12.2358
▁newborn	-12.2358
▁Engle	-12.2358
▁contraceptive	-12.2359
▁overlapp	-12.2359
▁collaborator	-12.2359
eater	-12.236
▁Gavin	-12.236
thumb	-12.236
▁howitzer	-12.236
▁thriv	-12.2361
▁1868	-12.2362
▁inspection	-12.2363
▁nymph	-12.2364
▁Bhai	-12.2364
▁claw	-12.2364
▁1770	-12.2365
▁jar	-12.2366
▁clarifi	-12.2367
▁Owl	-12.2369
▁Measure	-12.237
evival	-12.2371
▁spout	-12.2371
▁nitr	-12.2373
NN	-12.2376
uru	-12.2377
▁Peru	-12.2377
▁detector	-12.2378
vapor	-12.2379
▁lateral	-12.2379
▁Trott	-12.2379
▁waterfall	-12.2379
▁Feature	-12.2381
▁Raph	-12.2381
hamp	-12.2382
lepi	-12.2382
▁restless	-12.2383
▁setback	-12.2386
▁axi	-12.2386
▁Learn	-12.2388
▁cavit	-12.239
▁worry	-12.2392
▁periodic	-12.2394
▁stereotype	-12.2395
▁Johannes	-12.2396
▁robber	-12.2397
mascu	-12.2397
▁Lans	-12.2398
08	-12.2399
ool	-12.2403
cca	-12.2404
▁Glenn	-12.2406
▁steeple	-12.2407
phili	-12.2407
buck	-12.2407
▁mob	-12.2409
▁Hug	-12.241
▁publicize	-12.241
▁Lex	-12.2411
▁echoe	-12.2418
▁regulator	-12.2419
▁Rog	-12.2422
bon	-12.2426
▁serialis	-12.2428
nau	-12.2429
eri	-12.2434
▁Ti	-12.2437
▁contractor	-12.2439
▁Axe	-12.244
acy	-12.2441
▁ambulance	-12.2442
▁Unico	-12.2448
▁Hyp	-12.2448
egalith	-12.2451
▁Sk	-12.2462
▁outward	-12.2462
▁batch	-12.2463
▁Das	-12.2464
▁mystic	-12.2469
yaku	-12.247
rometric	-12.2471
▁geographical	-12.2472
▁Tyn	-12.2473
▁Malco	-12.2475
▁Andh	-12.2477
ears	-12.248
▁Else	-12.248
▁Roche	-12.2482
effective	-12.2483
morph	-12.2484
nfortunate	-12.2485
▁clar	-12.2485
develop	-12.2487
▁aggregat	-12.2488
▁Cover	-12.2489
accept	-12.249
▁Mara	-12.2492
allas	-12.2493
publish	-12.2495
▁sac	-12.2498
eft	-12.2502
former	-12.2503
▁soc	-12.2507
mmediate	-12.2508
▁Pel	-12.2508
▁anthropolog	-12.2511
▁incidental	-12.2514
▁dissolv	-12.2519
lot	-12.252
mind	-12.2521
▁tir	-12.2523
▁inherent	-12.2524
▁Oz	-12.2525
▁202	-12.2526
▁chee	-12.2529
▁lowland	-12.253
▁Timo	-12.2531
boom	-12.2533
▁Take	-12.2534
▁Xia	-12.2545
nan	-12.2545
each	-12.2546
▁denote	-12.2547
hara	-12.255
HU	-12.255
poor	-12.2553
88	-12.2557
▁stemm	-12.2557
iler	-12.2563
▁fledg	-12.2564
▁plume	-12.2564
▁Cran	-12.2566
▁plast	-12.2566
dition	-12.2568
▁gentlem	-12.2568
▁Crime	-12.2568
hope	-12.2568
unning	-12.2571
rmed	-12.2571
▁emptie	-12.2576
▁accessor	-12.2577
iker	-12.2583
▁tick	-12.2585
▁Gabo	-12.2588
ju	-12.26
devil	-12.2606
▁Arg	-12.2608
ave	-12.2619
▁innovati	-12.2624
▁rob	-12.2625
▁Kelle	-12.2632
ometric	-12.2633
▁melodrama	-12.2634
▁Hano	-12.2644
bi	-12.2649
▁muster	-12.2652
shine	-12.2655
ivor	-12.2655
uri	-12.2655
▁raft	-12.2658
rigg	-12.2663
mire	-12.2665
mac	-12.2666
balla	-12.2669
▁bik	-12.2671
▁repris	-12.2674
▁McCo	-12.2678
anor	-12.2686
▁hardco	-12.2688
▁Primar	-12.2688
cell	-12.2694
▁Strach	-12.2698
▁vin	-12.2701
lle	-12.2705
▁Simm	-12.2712
▁Tuf	-12.2712
▁Din	-12.2722
▁Glor	-12.2725
ila	-12.2727
▁expresse	-12.2731
▁Dogge	-12.2732
▁procession	-12.2733
egislature	-12.2743
tive	-12.2745
▁acro	-12.2747
odon	-12.2749
lage	-12.2759
▁Kowa	-12.2766
▁iodi	-12.2766
ound	-12.2778
istress	-12.2785
ved	-12.2792
mani	-12.2793
▁Terror	-12.28
ops	-12.28
hook	-12.2804
ini	-12.2807
▁popularis	-12.2811
ody	-12.2813
▁Adil	-12.2815
raged	-12.2816
▁157	-12.2822
fish	-12.2823
▁constitut	-12.2824
▁trainer	-12.2824
▁Nico	-12.2828
▁peri	-12.2828
▁dar	-12.2828
▁governors	-12.2832
▁Ramo	-12.2835
▁touris	-12.2836
▁scores	-12.2842
▁Yar	-12.2846
vention	-12.285
▁brave	-12.285
▁patrioti	-12.2854
PC	-12.2857
gale	-12.2858
▁Cri	-12.2862
▁nucleol	-12.2863
nterior	-12.287
lady	-12.2876
▁Eri	-12.2878
achus	-12.2879
▁unite	-12.2879
cu	-12.288
▁Scen	-12.2884
cing	-12.2894
▁holder	-12.2896
▁Jur	-12.2898
▁Pent	-12.2901
▁execute	-12.2904
▁Whe	-12.2904
▁Marya	-12.2906
roc	-12.2914
▁slit	-12.2915
▁terminate	-12.2918
anxi	-12.2922
▁cooperat	-12.2922
ourage	-12.2923
tman	-12.2929
▁AM	-12.2939
▁impose	-12.294
FC	-12.2942
▁reprise	-12.2948
ō	-12.2951
▁hospitaliz	-12.2953
▁Recon	-12.2957
mala	-12.2959
▁Seg	-12.2962
structur	-12.2965
awling	-12.2971
ssault	-12.2975
lux	-12.2976
esert	-12.2985
▁appar	-12.2988
▁Wr	-12.2988
ij	-12.2993
mpress	-12.2999
pert	-12.2999
luk	-12.3003
dolph	-12.3012
▁va	-12.3017
toba	-12.3029
▁grip	-12.3033
▁mimic	-12.304
pard	-12.3043
▁Hono	-12.3044
visor	-12.3049
AP	-12.3052
▁forb	-12.3057
▁embrac	-12.3058
▁Heath	-12.3059
▁Lind	-12.3065
▁Vick	-12.3066
ashi	-12.3071
▁Grac	-12.3072
mund	-12.3079
rf	-12.3079
our	-12.3083
ambo	-12.3085
Pau	-12.309
▁cylind	-12.309
cientific	-12.3091
▁Gin	-12.3091
umour	-12.3092
▁pot	-12.3094
▁Fun	-12.3098
▁crusade	-12.3099
▁nitro	-12.31
ovation	-12.3101
▁Cardinals	-12.3102
nath	-12.3106
▁exam	-12.3111
tations	-12.3113
xample	-12.3114
▁educate	-12.3115
ilke	-12.3116
pposed	-12.3116
▁Concern	-12.3117
▁disembark	-12.3117
▁excommunicat	-12.3117
^	-12.3117
elecommunication	-12.3117
ê	-12.3117
▁Cougar	-12.3117
▁Occupation	-12.3117
▁astronaut	-12.3117
▁caricature	-12.3117
▁cladogram	-12.3117
▁façade	-12.3117
▁leisure	-12.3117
▁microphone	-12.3117
▁nightclub	-12.3117
▁patriarch	-12.3117
▁rendezvous	-12.3117
▁terrif	-12.3117
▁violin	-12.3117
♯	-12.3117
▁Establish	-12.3117
▁lounge	-12.3117
▁pencil	-12.3117
▁unpredictab	-12.3117
▁Controvers	-12.3117
▁inconsistenc	-12.3117
▁premature	-12.3117
▁hectare	-12.3117
▁martyr	-12.3117
▁revamp	-12.3117
▁falcon	-12.3117
▁scuttl	-12.3117
▁accolade	-12.3117
▁ceratopsid	-12.3117
cendi	-12.3117
▁undefe	-12.3117
▁Parrot	-12.3117
▁boycott	-12.3117
▁utilit	-12.3117
▁Martín	-12.3117
▁antelope	-12.3117
▁polytheis	-12.3117
▁ribbon	-12.3117
▁undertaking	-12.3117
▁commute	-12.3117
▁bolster	-12.3117
▁Sparta	-12.3117
▁Stephan	-12.3117
▁propulsi	-12.3117
▁Apostoli	-12.3117
▁peasant	-12.3117
▁Tiber	-12.3117
▁applau	-12.3117
▁polygamist	-12.3117
▁Sloven	-12.3117
▁sacrament	-12.3117
▁pornograph	-12.3117
▁cohesi	-12.3118
▁ninja	-12.3118
▁flint	-12.3118
▁acquaintance	-12.3118
▁dialect	-12.3118
musement	-12.3118
▁viper	-12.3118
▁crab	-12.3118
▁griev	-12.3118
wych	-12.3118
▁Gonzale	-12.3119
dience	-12.3119
▁Provision	-12.3119
▁monkey	-12.3119
▁toilet	-12.3119
nclave	-12.3119
▁dentist	-12.3119
▁detract	-12.312
▁filter	-12.312
▁Epi	-12.3121
▁bench	-12.3122
▁contestant	-12.3122
urname	-12.3122
▁subfamil	-12.3122
▁Sabre	-12.3123
▁brush	-12.3123
▁turnpike	-12.3124
▁stirr	-12.3124
▁punch	-12.3124
▁systematic	-12.3125
▁revisit	-12.3126
rigger	-12.3126
▁Keep	-12.3126
▁lust	-12.3127
▁orphan	-12.3127
arm	-12.3127
▁Montenegrin	-12.3128
▁nail	-12.3128
adys	-12.3129
▁Alek	-12.3129
▁Cage	-12.3129
▁Slav	-12.313
▁desk	-12.313
▁turnover	-12.3131
wrink	-12.3132
▁scripture	-12.3132
▁Model	-12.3133
▁Should	-12.3134
▁confession	-12.3134
▁wrapp	-12.3135
ournament	-12.3135
▁populariz	-12.3135
▁Settle	-12.3136
guan	-12.3137
itual	-12.3138
▁disk	-12.3139
▁forg	-12.3142
haracteristics	-12.3142
athed	-12.3142
▁blessing	-12.3142
▁716	-12.3142
▁allegor	-12.3143
▁Statu	-12.3145
▁Step	-12.3145
▁Husse	-12.3146
▁Patrol	-12.3146
rero	-12.3147
▁Colton	-12.3147
▁urn	-12.3147
▁smash	-12.3148
▁Santo	-12.3148
▁dev	-12.3149
▁posthumously	-12.3149
▁Craw	-12.3149
direct	-12.3154
▁Duma	-12.3156
▁Natal	-12.3156
▁Buchan	-12.316
▁Marco	-12.3163
▁unpa	-12.3165
seller	-12.3166
▁conspi	-12.3168
polis	-12.3173
▁Stup	-12.3176
▁grind	-12.3177
▁vent	-12.3178
▁defect	-12.3182
▁overrun	-12.3182
▁centr	-12.3183
▁Ahm	-12.3183
▁Aut	-12.3186
▁Bi	-12.3187
▁Trap	-12.3191
span	-12.3191
▁Singer	-12.3192
▁Bud	-12.3193
▁categori	-12.3194
sterda	-12.3206
verness	-12.3207
▁Flemi	-12.3207
twe	-12.3207
▁Fé	-12.321
path	-12.3211
▁Sna	-12.3213
▁enforc	-12.3215
fol	-12.3221
▁Eat	-12.3221
crub	-12.3224
▁Marcell	-12.3228
ub	-12.3228
▁admirer	-12.3232
▁myceli	-12.325
▁justif	-12.3254
axa	-12.3256
▁Jona	-12.3256
▁spo	-12.3258
▁nut	-12.3261
▁anatom	-12.3261
▁Waldo	-12.3262
peat	-12.3265
▁Wid	-12.3269
▁Anup	-12.3271
▁herbivore	-12.3273
iage	-12.3273
▁bor	-12.3277
openha	-12.3281
▁taper	-12.3283
otta	-12.3283
▁flora	-12.3283
oundtrack	-12.3284
▁spir	-12.3286
▁Petri	-12.3288
▁Save	-12.3289
▁Shand	-12.3289
▁Nol	-12.3289
▁Lyd	-12.329
▁clad	-12.329
▁metaboli	-12.3291
▁contracepti	-12.3291
▁Sola	-12.3295
▁insurgen	-12.3296
▁casua	-12.33
▁refine	-12.33
wild	-12.3301
moor	-12.3302
lateral	-12.3307
tones	-12.3308
▁dose	-12.3308
▁ribosome	-12.3309
court	-12.3313
▁naya	-12.3314
accessib	-12.3316
Africa	-12.3316
discover	-12.332
▁communicat	-12.3321
▁Leg	-12.3321
▁Mol	-12.3321
oliday	-12.3324
Paul	-12.3326
memorial	-12.3327
WB	-12.3328
▁cello	-12.333
amas	-12.3334
▁Uday	-12.3338
bade	-12.3339
▁Halle	-12.334
ridge	-12.3354
econstruction	-12.3357
uman	-12.3358
▁elevate	-12.336
aunt	-12.3364
aron	-12.3367
wi	-12.3369
pine	-12.3369
▁Halla	-12.3372
nelli	-12.3375
inae	-12.3375
▁Fitz	-12.338
▁uni	-12.3382
rugg	-12.3384
▁traveller	-12.3384
▁Tar	-12.3388
▁reservation	-12.3389
▁forgive	-12.3389
▁airb	-12.3393
MA	-12.3395
mmer	-12.3398
▁Change	-12.3398
▁plea	-12.3402
▁specifi	-12.3404
▁pic	-12.341
▁weir	-12.3412
▁Mine	-12.3418
apse	-12.3423
cou	-12.3426
Fix	-12.3429
nym	-12.3431
CM	-12.3433
▁Coli	-12.344
▁Trans	-12.344
▁Macke	-12.3442
▁Salm	-12.3444
▁lambs	-12.3452
▁Pont	-12.3462
▁infiltrate	-12.3465
▁volt	-12.347
iest	-12.3472
▁substitut	-12.3474
▁stip	-12.3477
▁Fac	-12.3479
▁Shank	-12.3481
unge	-12.3484
ño	-12.3484
master	-12.3488
ntry	-12.3489
arriage	-12.3492
gras	-12.3493
ulation	-12.3495
▁Osa	-12.3496
▁Petr	-12.3499
▁Maids	-12.3499
▁recur	-12.3505
▁CB	-12.3507
▁Evi	-12.351
▁laps	-12.3512
sta	-12.3524
▁compu	-12.3527
CI	-12.3532
band	-12.3538
▁discus	-12.3544
romiscu	-12.3546
▁Plant	-12.3549
▁Beatt	-12.355
▁Dard	-12.3555
epe	-12.3555
▁nomen	-12.3557
avia	-12.3559
aak	-12.3563
▁dop	-12.3563
ffect	-12.3569
▁stowa	-12.3571
ute	-12.3573
44	-12.3575
ollar	-12.3581
▁purit	-12.3584
▁Gr	-12.3589
BI	-12.3592
▁spher	-12.3601
▁Fil	-12.3608
▁Fre	-12.3616
hiro	-12.3616
stop	-12.3618
▁phenomena	-12.3622
▁MM	-12.3624
▁instinct	-12.3625
▁prophe	-12.3626
SH	-12.3632
kla	-12.3636
▁ecc	-12.3643
▁burge	-12.3646
▁duel	-12.3647
▁Heron	-12.3652
▁Rev	-12.3657
sign	-12.3658
▁relocate	-12.3665
gli	-12.3667
36	-12.3669
ei	-12.367
▁ru	-12.3677
▁Sai	-12.3679
▁characterize	-12.3687
nacle	-12.3694
▁Rotte	-12.3696
▁Nest	-12.3697
▁Suzu	-12.3698
rical	-12.3705
▁annu	-12.3715
▁gro	-12.372
▁Minerv	-12.3733
▁Unc	-12.3736
rath	-12.3742
▁mess	-12.3753
▁CA	-12.3754
ik	-12.3779
▁revolve	-12.378
▁inflat	-12.3783
polit	-12.3787
▁geolog	-12.3789
▁Bate	-12.3792
▁Ying	-12.3792
puls	-12.3797
▁Buddh	-12.3802
wine	-12.3806
Vall	-12.3812
▁allude	-12.3813
▁Twel	-12.3821
hari	-12.3824
▁Candidat	-12.383
rest	-12.383
▁uno	-12.3833
▁Feel	-12.3836
gassi	-12.3838
unders	-12.3844
standing	-12.3848
▁Palest	-12.385
▁coordinate	-12.3851
aving	-12.3855
▁eclipse	-12.3856
▁Lite	-12.386
▁Astr	-12.3864
undar	-12.3866
late	-12.3866
▁bidd	-12.387
▁referenc	-12.3874
fus	-12.3875
▁Gros	-12.3878
▁Mata	-12.3882
▁monast	-12.3885
version	-12.3893
27	-12.3894
▁digit	-12.3898
▁automat	-12.39
ectar	-12.3903
▁hypothe	-12.3911
▁subsid	-12.3911
▁composit	-12.3912
▁delegat	-12.3912
▁Rum	-12.3916
itul	-12.3921
affir	-12.3921
▁subord	-12.3923
rdan	-12.3924
libr	-12.3924
rio	-12.3924
GS	-12.3927
▁revolv	-12.3929
▁Tac	-12.3931
vant	-12.3931
troph	-12.3933
▁equi	-12.3934
93	-12.3935
▁erupt	-12.394
▁shower	-12.3941
weig	-12.3944
scopic	-12.3945
▁ep	-12.3946
ounterfeit	-12.3948
ollaboration	-12.3948
asualties	-12.3948
▁indulge	-12.395
ỳ	-12.395
‐	-12.395
▁Beaufighter	-12.395
▁Conflict	-12.395
▁GCSE	-12.395
▁Illustrated	-12.395
▁Increasing	-12.395
▁Neoscapteriscus	-12.395
▁Roadblock	-12.395
▁affiliation	-12.395
▁catastroph	-12.395
▁deprecati	-12.395
▁disgrace	-12.395
▁disillusion	-12.395
▁forfeit	-12.395
▁lanthanide	-12.395
▁meadow	-12.395
▁mislead	-12.395
▁monologue	-12.395
▁overshadow	-12.395
▁peptide	-12.395
▁predominate	-12.395
▁stegosauri	-12.395
▁utilis	-12.395
ú	-12.395
▁Kaufman	-12.395
▁Reflecti	-12.395
▁Ancona	-12.395
▁Antiquit	-12.395
▁cistern	-12.395
▁dissatisf	-12.395
▁bayonet	-12.395
▁Astronom	-12.395
▁pedestrian	-12.395
▁cautious	-12.395
▁frighten	-12.395
▁mechaniz	-12.395
▁Citizen	-12.395
▁Scra	-12.395
▁impersonati	-12.395
▁paradox	-12.395
▁linebacker	-12.395
▁indenture	-12.395
▁Gibbons	-12.395
▁Bengal	-12.395
▁jersey	-12.395
▁minigame	-12.395
▁clue	-12.3951
▁precinct	-12.3951
▁miniature	-12.3951
▁Propert	-12.3951
▁ceramic	-12.3951
▁Murchad	-12.3951
brittle	-12.3951
▁Predator	-12.3951
udders	-12.3951
▁Inspir	-12.3951
▁intruder	-12.3951
▁Muang	-12.3951
édér	-12.3951
▁rewrit	-12.3951
▁Gryllotalpa	-12.3951
▁beard	-12.3951
▁clause	-12.3951
▁Multi	-12.3951
▁Turtle	-12.3952
vigat	-12.3952
▁african	-12.3952
anasi	-12.3952
▁Knowles	-12.3952
▁Narayan	-12.3952
▁quarry	-12.3952
venir	-12.3952
▁episcopa	-12.3952
▁Glid	-12.3953
▁simulator	-12.3953
▁Naples	-12.3953
▁Nubia	-12.3953
tirtha	-12.3953
▁Guti	-12.3953
▁magnate	-12.3954
▁boulevard	-12.3954
▁Edmonto	-12.3954
deroga	-12.3954
▁relent	-12.3954
▁immers	-12.3955
▁Senna	-12.3955
elief	-12.3955
▁Scho	-12.3955
▁dockyard	-12.3955
▁Shrine	-12.3955
▁guess	-12.3956
▁craftsman	-12.3956
▁spectroscop	-12.3956
▁overpass	-12.3956
▁undermine	-12.3958
pplicant	-12.3958
▁MeV	-12.3958
▁tilt	-12.3959
▁emission	-12.3959
▁Zionis	-12.3959
▁Editor	-12.396
▁Gaul	-12.3961
▁screw	-12.3961
▁uphold	-12.3963
▁Moto	-12.3963
▁carnival	-12.3963
▁Pesca	-12.3964
▁Spot	-12.3965
▁Soma	-12.3965
Dyne	-12.3965
▁Tjo	-12.3965
▁mutin	-12.3966
▁Falcon	-12.3966
▁cheat	-12.3966
für	-12.3967
▁animator	-12.3967
▁Grow	-12.3967
▁investigator	-12.3969
▁moth	-12.3969
▁intrigu	-12.397
▁Direction	-12.397
▁Tsar	-12.397
▁Enriqu	-12.3972
▁Lucia	-12.3974
▁Khe	-12.3974
▁Nara	-12.3974
cepti	-12.3975
▁centen	-12.3978
▁Location	-12.3978
▁hacker	-12.3979
kward	-12.3979
drome	-12.398
rvis	-12.3982
▁denie	-12.3982
demn	-12.3982
▁Chul	-12.3984
▁claimant	-12.3985
geon	-12.3985
▁archa	-12.3986
▁flip	-12.3987
▁Coron	-12.3987
HO	-12.399
▁luxur	-12.3991
▁navigat	-12.3994
▁contributor	-12.3995
odes	-12.3996
▁trawl	-12.3996
▁Screen	-12.3997
▁TH	-12.3997
▁dip	-12.3998
▁facto	-12.4001
▁Sv	-12.4002
▁Licen	-12.4002
doubted	-12.4004
▁aux	-12.4005
▁119	-12.4005
▁Brom	-12.4005
assic	-12.4006
▁Summ	-12.4007
▁offence	-12.4008
▁chant	-12.4008
▁cooperate	-12.4009
ongregationalist	-12.4012
deacon	-12.402
▁Kama	-12.4021
ropagand	-12.4021
iful	-12.4021
▁Academic	-12.4024
▁fuck	-12.4029
▁sple	-12.4029
rctic	-12.4031
▁Usu	-12.4036
▁swimmer	-12.4037
▁urge	-12.4038
▁Pick	-12.4042
▁Alder	-12.4046
▁cyclo	-12.4047
▁ferre	-12.4052
▁Aware	-12.4055
▁playground	-12.4056
▁centimeter	-12.4057
▁spurr	-12.4057
KO	-12.4059
▁supplier	-12.4069
▁Cai	-12.4073
▁venge	-12.4074
erran	-12.4083
▁McGu	-12.4085
▁fibre	-12.4087
▁impli	-12.4087
▁rational	-12.4089
anjeev	-12.4089
ragg	-12.409
▁Vin	-12.4091
▁abus	-12.4091
▁Emmet	-12.4092
▁erra	-12.4093
▁Candidate	-12.41
▁Masa	-12.4102
igm	-12.4106
▁casualt	-12.4111
robe	-12.4112
▁expend	-12.4119
mplain	-12.4121
▁Pet	-12.4122
▁oars	-12.4127
▁Wilt	-12.4129
▁analyse	-12.4133
NU	-12.4135
▁vest	-12.414
front	-12.4141
intend	-12.4144
▁Kv	-12.415
▁Boot	-12.4151
▁fluoride	-12.4162
daga	-12.4164
▁Wilk	-12.4165
aux	-12.4165
▁economical	-12.4166
dden	-12.4168
lop	-12.4175
▁cry	-12.4175
RS	-12.418
▁Carolin	-12.4182
▁rever	-12.4188
essel	-12.4189
▁conscript	-12.4189
▁Serbia	-12.4189
▁Marin	-12.4199
▁simulate	-12.4202
▁Heat	-12.4207
lick	-12.4208
▁salv	-12.421
▁Shoe	-12.4211
nic	-12.4212
sure	-12.4212
▁Scotti	-12.4212
▁Pand	-12.4214
film	-12.4221
▁discriminat	-12.4221
qualifi	-12.4222
valid	-12.4222
pool	-12.4222
▁Blanc	-12.4225
fleet	-12.4225
wheel	-12.4226
rop	-12.4226
connect	-12.4226
▁Dami	-12.4228
artbreak	-12.4228
chemical	-12.4228
plus	-12.4228
▁Mw	-12.4229
▁encod	-12.4229
BM	-12.4231
grow	-12.4231
há	-12.4232
consistent	-12.4233
▁flags	-12.4247
▁Andre	-12.4247
▁dub	-12.4249
▁confer	-12.4251
idt	-12.4253
▁improvis	-12.4255
▁Cope	-12.4257
nekānta	-12.4259
▁Nois	-12.4269
▁herb	-12.4269
▁Nurs	-12.4274
onal	-12.4275
▁Malt	-12.4277
▁Bu	-12.4279
torial	-12.428
▁sil	-12.428
▁Try	-12.4285
▁Archi	-12.4289
▁afore	-12.4293
zam	-12.4298
▁Lea	-12.4298
▁reasonabl	-12.4301
▁Tyl	-12.4305
anche	-12.4306
lugg	-12.4309
▁Ein	-12.4313
clos	-12.4324
ngle	-12.4336
poly	-12.4349
▁Rou	-12.4354
DA	-12.4362
mede	-12.4364
aya	-12.4366
▁Chao	-12.4367
▁patche	-12.4368
▁Bl	-12.4369
▁Kova	-12.4371
▁pr	-12.4371
anches	-12.4373
▁Barbad	-12.4373
▁Pap	-12.4379
▁Please	-12.438
▁tun	-12.4383
▁Neo	-12.4387
rington	-12.4387
▁rigg	-12.439
▁Rous	-12.4395
▁hil	-12.44
ignificant	-12.4401
▁Chun	-12.4401
ego	-12.441
ulat	-12.4413
▁ob	-12.4415
iracle	-12.4426
▁spli	-12.4426
▁anxi	-12.4427
▁sponsors	-12.4433
▁vibra	-12.4438
fu	-12.4439
▁Romantic	-12.4441
▁Tami	-12.4441
base	-12.4453
▁radiat	-12.4459
▁infiltrat	-12.446
egal	-12.4462
▁happi	-12.4462
▁Mayo	-12.4463
▁Use	-12.4476
enberg	-12.4479
▁foreigner	-12.448
▁Rud	-12.4483
rtha	-12.4483
aj	-12.4484
uk	-12.4486
walk	-12.449
▁nett	-12.4494
cope	-12.4496
▁Colum	-12.4499
egie	-12.4499
▁wav	-12.45
▁noct	-12.4504
▁Cliff	-12.4508
▁donate	-12.4513
▁Commerc	-12.4515
▁tire	-12.4529
▁Johan	-12.454
▁repl	-12.4541
orian	-12.4542
▁134	-12.4544
uperior	-12.4551
iga	-12.4552
▁Hom	-12.4553
▁RP	-12.4557
▁stabilize	-12.4559
algar	-12.4568
▁Khme	-12.457
▁longitud	-12.4574
▁stud	-12.4578
elve	-12.4581
▁induce	-12.4582
▁Cur	-12.4589
▁Iz	-12.4598
▁Helleni	-12.4598
lder	-12.46
▁pill	-12.4616
imeter	-12.4629
olera	-12.4631
title	-12.4632
▁caste	-12.4645
▁behead	-12.4645
obia	-12.4648
ador	-12.4648
▁stylist	-12.4655
▁Saw	-12.4658
agger	-12.4659
▁imag	-12.4663
▁126	-12.4669
▁woo	-12.4674
enber	-12.468
▁Jama	-12.4683
▁dipp	-12.4692
▁ioniz	-12.4694
arcelo	-12.4695
llier	-12.4698
▁Naga	-12.4701
▁Gua	-12.4703
▁Barn	-12.4705
grass	-12.4708
ckes	-12.4709
▁penal	-12.4712
▁explod	-12.4719
▁Fift	-12.4733
▁Saf	-12.4741
▁fibr	-12.4747
▁Heid	-12.4757
▁relativ	-12.476
▁Ker	-12.4761
▁aide	-12.4761
▁Seas	-12.4763
stina	-12.4766
▁Slo	-12.4766
vann	-12.4767
urious	-12.4769
igma	-12.477
▁mous	-12.4787
▁chari	-12.4787
▁Bibl	-12.4787
▁Cruiser	-12.4787
▁suppose	-12.4788
gara	-12.479
wing	-12.48
▁linguist	-12.4801
▁App	-12.4802
turmo	-12.4802
▁310	-12.4804
▁lip	-12.4804
tom	-12.4809
▁stereotyp	-12.4809
emia	-12.4812
atric	-12.4815
▁eSport	-12.4824
▁Chad	-12.4826
imultaneous	-12.4833
▁Altar	-12.4834
▁salvage	-12.4835
▁physi	-12.4837
▁owe	-12.4844
▁Webb	-12.4846
omato	-12.4846
▁kidnap	-12.4847
▁Advertis	-12.4847
▁skelet	-12.4849
▁exempt	-12.4849
▁Meso	-12.485
▁viole	-12.485
rout	-12.485
▁hawk	-12.4851
▁quarte	-12.4851
▁volcan	-12.4851
irror	-12.4852
▁infra	-12.4853
llt	-12.4853
▁Athlet	-12.4854
itness	-12.4854
▁Specific	-12.4855
lett	-12.4858
▁Relations	-12.4859
▁blog	-12.4859
▁unsuit	-12.4859
▁unconscious	-12.4859
Î	-12.4859
≤	-12.4859
▁Experiment	-12.4859
▁Graphic	-12.4859
▁Husband	-12.4859
▁Kaspar	-12.4859
▁Polynesia	-12.4859
▁Prefecture	-12.4859
▁Shropshire	-12.4859
▁appellation	-12.4859
▁camouflage	-12.4859
▁counsel	-12.4859
▁deprive	-12.4859
▁discredit	-12.4859
▁folktale	-12.4859
▁merchandis	-12.4859
▁purported	-12.4859
▁regeneration	-12.4859
▁reissue	-12.4859
▁serpent	-12.4859
▁Biscay	-12.4859
▁Tasmania	-12.4859
▁Zartan	-12.4859
▁bureaucra	-12.4859
▁surreal	-12.4859
▁Application	-12.4859
▁Episode	-12.4859
▁honeyeater	-12.4859
▁theropod	-12.4859
▁nostalgi	-12.4859
▁abdicat	-12.4859
▁cigarette	-12.4859
▁Lombard	-12.4859
▁ligament	-12.4859
▁Essay	-12.4859
▁blond	-12.4859
▁STD	-12.4859
▁ellip	-12.4859
▁sublim	-12.4859
▁steroid	-12.4859
gg	-12.486
▁Expert	-12.486
▁steward	-12.486
▁illusion	-12.486
▁Border	-12.486
▁versatil	-12.486
▁Liberator	-12.486
▁Faust	-12.486
▁intoxicat	-12.486
▁racquet	-12.486
▁barbette	-12.486
▁drastic	-12.486
▁Taiwan	-12.486
▁Pampa	-12.486
▁Sudan	-12.486
▁Resident	-12.486
oneymoon	-12.486
ović	-12.486
▁Vincent	-12.486
▁tornado	-12.4861
▁Sophi	-12.4861
▁Fortuna	-12.4861
cysti	-12.4861
▁snip	-12.4861
▁diverge	-12.4861
▁riddle	-12.4861
▁gangster	-12.4861
▁incapa	-12.4861
▁proposition	-12.4861
▁Birkin	-12.4862
▁vector	-12.4862
▁beetle	-12.4862
▁microlight	-12.4862
▁Alleg	-12.4862
▁pause	-12.4862
▁Leaf	-12.4862
▁dictatorship	-12.4862
rebrand	-12.4862
▁silen	-12.4863
▁balloon	-12.4863
▁cadet	-12.4863
▁Punt	-12.4864
▁brake	-12.4864
▁frau	-12.4864
▁lubrica	-12.4864
▁surf	-12.4865
▁Stamp	-12.4865
▁Darling	-12.4865
▁caes	-12.4866
▁tiger	-12.4867
▁Norsk	-12.4867
▁genom	-12.4867
▁Normal	-12.4867
▁Turn	-12.4868
▁minist	-12.4869
▁fable	-12.4869
▁Thrill	-12.4869
▁superb	-12.4869
▁restraint	-12.4869
▁exemption	-12.487
▁inflammat	-12.487
▁Mouse	-12.487
▁exchang	-12.4871
▁parall	-12.4871
ogns	-12.4871
▁catechism	-12.4872
▁Zim	-12.4872
▁kidnapp	-12.4872
▁Horro	-12.4872
▁fool	-12.4873
▁Kes	-12.4873
▁stale	-12.4873
▁Guill	-12.4874
▁Airways	-12.4876
▁pawn	-12.4876
▁Title	-12.4876
▁Otra	-12.4876
▁banish	-12.4877
▁Magnus	-12.4877
▁Webber	-12.4878
derland	-12.4878
▁finer	-12.4879
fork	-12.488
▁Eisen	-12.4881
▁1⁄	-12.4882
lastic	-12.4882
ucket	-12.4882
ripp	-12.4882
ppen	-12.4883
▁Hold	-12.4885
▁predat	-12.4885
▁Pré	-12.4886
▁curtai	-12.4887
▁auditor	-12.4889
▁Raven	-12.4891
▁Winche	-12.4892
▁chronicler	-12.4892
▁amass	-12.4893
▁modernize	-12.4893
nderson	-12.4893
▁Salaa	-12.4895
▁snapp	-12.4896
▁lance	-12.4897
▁minus	-12.4898
▁hare	-12.4899
▁Relat	-12.4901
gau	-12.4903
etawa	-12.4906
▁Mosc	-12.4906
huan	-12.4907
▁Hab	-12.4908
▁cosm	-12.4909
▁Musician	-12.491
ntiquari	-12.491
▁Miran	-12.4911
cub	-12.4916
▁Ganga	-12.4919
▁HMC	-12.4921
▁Corner	-12.4923
▁mandate	-12.4924
▁Lenin	-12.4924
▁mal	-12.4926
▁Tulli	-12.4928
▁Demon	-12.4931
▁Chel	-12.4931
▁aborti	-12.4931
▁fertilis	-12.4935
inawa	-12.4936
▁Crimin	-12.4937
▁ascetic	-12.4937
▁Tactic	-12.494
▁Duck	-12.4941
▁objector	-12.4943
▁prow	-12.4946
rious	-12.4951
tional	-12.4951
▁Jaya	-12.4953
▁Genev	-12.4958
▁Samo	-12.4959
▁horribl	-12.4959
▁352	-12.496
▁NP	-12.4961
▁Thorn	-12.4963
▁expressive	-12.4967
▁Million	-12.4967
▁tar	-12.4967
achi	-12.4968
bor	-12.4968
▁Yat	-12.4969
▁Angu	-12.497
▁Wilbur	-12.497
dish	-12.4974
VI	-12.4974
▁herald	-12.4976
▁Lana	-12.4978
▁conn	-12.4978
ockyard	-12.4978
▁Shru	-12.4979
▁typesett	-12.498
▁verif	-12.4981
▁Lat	-12.4986
▁Musc	-12.4987
▁Irv	-12.4995
hange	-12.4996
▁271	-12.4999
▁Jor	-12.5
▁vacanc	-12.5
▁Wend	-12.5002
tute	-12.5004
▁Palac	-12.5004
▁prot	-12.5005
▁Novo	-12.5007
gua	-12.5009
▁influ	-12.5012
▁tile	-12.5012
▁pitche	-12.5013
▁Dynam	-12.5014
▁intern	-12.5015
▁Stern	-12.5016
▁Bethe	-12.5017
▁Ports	-12.5021
ygo	-12.5024
▁Teng	-12.5025
▁Dreams	-12.5027
▁scen	-12.503
▁drumm	-12.5031
▁neur	-12.5032
▁abduct	-12.5033
▁sideline	-12.5035
▁Marle	-12.5035
▁deci	-12.5041
▁Shiz	-12.5044
phae	-12.5044
▁lookout	-12.5047
tto	-12.5051
etus	-12.5054
▁automobile	-12.5054
▁solidif	-12.5059
▁Roug	-12.5059
▁tort	-12.5064
cuse	-12.5064
▁depos	-12.5067
▁Beav	-12.5072
▁stadi	-12.5074
▁Frey	-12.508
▁norm	-12.5081
viole	-12.5086
even	-12.5087
▁specialize	-12.5088
▁devotee	-12.5093
esel	-12.5093
▁photographer	-12.5095
ump	-12.5096
iji	-12.5097
rid	-12.5104
▁parad	-12.5112
Arts	-12.5112
classifi	-12.5113
ust	-12.5115
▁debat	-12.5116
▁Denard	-12.5128
▁Gal	-12.513
▁Dunde	-12.5131
uation	-12.5131
▁Capri	-12.5132
▁axe	-12.5133
amia	-12.5142
▁localit	-12.5148
sthetic	-12.515
▁XV	-12.515
▁horrifi	-12.515
▁rim	-12.5151
into	-12.5152
▁minds	-12.5152
▁recreate	-12.5154
▁symbolize	-12.5157
▁analyst	-12.5158
▁bolt	-12.5158
▁synthe	-12.5163
teven	-12.5165
istance	-12.5168
▁aggress	-12.517
ving	-12.517
▁excavate	-12.5173
apa	-12.5176
bile	-12.5177
▁reserv	-12.5182
▁Cin	-12.5187
▁Casi	-12.5189
ulam	-12.5191
jm	-12.5192
skirt	-12.5192
maker	-12.5196
▁catcher	-12.5205
ffin	-12.5206
▁Role	-12.5208
▁RE	-12.5209
▁sulfo	-12.5211
▁Dop	-12.5213
tooth	-12.5221
▁205	-12.5223
▁Gab	-12.5224
tower	-12.5224
urine	-12.5225
forward	-12.5225
▁Swan	-12.5229
▁Rank	-12.5231
chase	-12.5231
deck	-12.5233
sleep	-12.5236
▁Aske	-12.5237
Pro	-12.5238
address	-12.5239
person	-12.5242
▁covert	-12.5245
arcel	-12.5246
▁minded	-12.5247
GB	-12.5249
▁launches	-12.5253
series	-12.5253
▁continual	-12.5255
Las	-12.5258
▁mapp	-12.5258
▁Dollo	-12.5263
erma	-12.5263
inta	-12.5265
itu	-12.5265
dike	-12.5268
▁glu	-12.5275
avya	-12.5277
▁Hipp	-12.5279
aul	-12.5279
Rou	-12.528
pair	-12.5291
implicit	-12.5292
FI	-12.5294
ogen	-12.5297
▁node	-12.5299
ulous	-12.53
nette	-12.5303
▁Sl	-12.5309
▁Sites	-12.531
tje	-12.5311
▁Jains	-12.5313
▁noticeabl	-12.5314
▁disperse	-12.5315
▁Pinkne	-12.5319
look	-12.533
▁coating	-12.534
▁Spec	-12.5343
list	-12.5344
▁Cag	-12.5346
leba	-12.535
esha	-12.5353
▁Pur	-12.5358
arpa	-12.5359
▁uter	-12.5366
ibar	-12.5367
rator	-12.5367
▁Spi	-12.5378
▁narrate	-12.5384
▁col	-12.5385
▁Florenc	-12.5387
▁repel	-12.5393
▁spectra	-12.5406
▁fol	-12.5414
▁mall	-12.5414
liver	-12.5421
▁Pris	-12.5421
▁knot	-12.5422
kh	-12.5429
eration	-12.5431
▁Prue	-12.5437
dash	-12.5438
ipulat	-12.5453
phobi	-12.5458
▁denounc	-12.5459
▁Thie	-12.546
▁Burg	-12.5463
▁Balla	-12.5464
oni	-12.5464
▁Rudol	-12.5476
▁Sell	-12.5476
ocal	-12.5476
▁prom	-12.5482
hen	-12.5486
bei	-12.5486
ister	-12.5493
bias	-12.55
ID	-12.5502
aval	-12.5507
▁catche	-12.5514
▁hym	-12.5518
▁pri	-12.5519
▁sol	-12.5525
▁wit	-12.5532
distinguish	-12.554
idar	-12.554
▁Gru	-12.5544
▁Augustin	-12.5546
athl	-12.5561
elody	-12.5562
odu	-12.5566
▁eva	-12.5566
zak	-12.5569
▁lu	-12.557
spur	-12.5574
▁Hutchin	-12.5574
br	-12.5575
rows	-12.5581
ircuit	-12.5584
▁Adol	-12.5587
▁dung	-12.5589
▁violate	-12.5591
etch	-12.5594
▁fabric	-12.561
▁ribosom	-12.5613
▁seduct	-12.5627
rust	-12.5633
▁lik	-12.5634
ffen	-12.5634
ase	-12.5635
660	-12.5635
▁Pea	-12.5644
inder	-12.5647
▁slop	-12.5651
spoke	-12.566
▁manse	-12.566
▁Emer	-12.5661
▁rema	-12.5662
udd	-12.5665
verse	-12.5668
hil	-12.5681
▁Lt	-12.5684
▁farthe	-12.5689
▁comet	-12.5689
▁Em	-12.5694
▁diar	-12.5695
▁Democra	-12.5697
neous	-12.5698
▁bridg	-12.5701
▁Clar	-12.5702
nnes	-12.5706
lide	-12.5709
rtificial	-12.5716
tte	-12.572
geant	-12.572
▁scru	-12.5721
mbition	-12.5724
vestment	-12.5729
▁Brama	-12.5732
dict	-12.5732
▁imitat	-12.5733
▁evaluate	-12.5737
▁spa	-12.5738
▁solu	-12.574
ulk	-12.574
eopard	-12.5744
▁Nag	-12.5746
mail	-12.5755
endra	-12.5756
▁Dad	-12.5757
▁adheren	-12.5762
▁Ava	-12.5766
▁Raj	-12.5768
▁Cres	-12.5768
▁dismisse	-12.5769
▁Plat	-12.5772
▁Pola	-12.578
peake	-12.5785
▁Gran	-12.5785
▁Shab	-12.5789
tern	-12.5797
▁Colleg	-12.5797
▁Vale	-12.58
▁Associate	-12.5801
▁creativ	-12.5802
ü	-12.5803
▁Schne	-12.5808
▁possesse	-12.5809
▁Hari	-12.581
nik	-12.5811
▁glid	-12.5822
nar	-12.5824
▁swim	-12.5824
▁precis	-12.5824
▁rar	-12.5825
▁conve	-12.5826
flue	-12.5832
▁hack	-12.5834
▁intrigue	-12.5836
ple	-12.5837
▁compli	-12.5838
▁transl	-12.5844
abha	-12.5845
▁posit	-12.5846
▁descripti	-12.5849
▁rib	-12.585
load	-12.585
onna	-12.5851
forth	-12.5852
elanchol	-12.5852
fune	-12.5854
izz	-12.5854
▁casin	-12.5857
mbass	-12.5857
maxilla	-12.5858
▁Multipl	-12.5858
▁oblig	-12.5859
▁symbio	-12.5859
▁Aurora	-12.5859
▁Manufactur	-12.5859
▁brainwash	-12.5859
▁franc	-12.5859
>	-12.5859
î	-12.5859
ṃ	-12.5859
▁Asylum	-12.5859
▁Entertainer	-12.5859
▁Mushroom	-12.5859
▁Newspaper	-12.5859
▁Philosoph	-12.5859
▁clinch	-12.5859
▁disapprov	-12.5859
▁entrepreneur	-12.5859
▁handbag	-12.5859
▁hieroglyph	-12.5859
▁incompeten	-12.5859
▁militant	-12.5859
▁paleontologist	-12.5859
▁polypeptide	-12.5859
▁turbulen	-12.5859
▁unfavorabl	-12.5859
～	-12.5859
å	-12.5859
▁Brilliant	-12.5859
▁Tahiti	-12.5859
▁correlat	-12.5859
▁quarrel	-12.5859
▁scroll	-12.5859
ل	-12.5859
▁carpet	-12.5859
▁unjust	-12.5859
▁effig	-12.5859
▁Gentlem	-12.5859
▁Pongola	-12.5859
▁instalment	-12.5859
▁saxophon	-12.5859
▁undeniabl	-12.5859
▁sarsen	-12.5859
▁Mustang	-12.5859
▁organelle	-12.5859
▁Adapt	-12.5859
▁Balkan	-12.586
pecul	-12.586
▁precept	-12.586
▁superstitio	-12.586
▁Jakob	-12.586
▁avatar	-12.586
▁Session	-12.586
▁Bharat	-12.586
▁spindle	-12.586
▁negat	-12.586
▁Beaufort	-12.586
▁Ceratopsia	-12.586
▁Digg	-12.586
▁bracket	-12.586
▁lobe	-12.586
▁saloon	-12.586
▁Fatima	-12.586
▁subdue	-12.586
▁Fourteen	-12.586
▁cookbook	-12.586
▁Isthm	-12.586
▁caf	-12.586
▁lizard	-12.5861
▁hoist	-12.5861
▁solemn	-12.5861
▁standpoint	-12.5861
▁envoy	-12.5861
▁coffin	-12.5861
XX	-12.5861
topol	-12.5861
▁grandios	-12.5861
▁pub	-12.5861
▁Agaric	-12.5861
alisade	-12.5862
▁Suc	-12.5862
▁livelihood	-12.5862
utterfl	-12.5862
▁Rhine	-12.5862
▁preface	-12.5863
▁Fellow	-12.5863
▁carbonate	-12.5863
▁Octavia	-12.5863
▁Protest	-12.5864
▁holster	-12.5864
▁Surya	-12.5864
▁obstruction	-12.5864
▁Wynn	-12.5864
▁Rail	-12.5864
▁elastic	-12.5865
ermanent	-12.5865
▁mathematician	-12.5866
▁fundamentalist	-12.5866
▁disabilit	-12.5866
clusive	-12.5866
▁Ghara	-12.5867
▁Termina	-12.5867
▁inhibitor	-12.5867
ocre	-12.5868
spora	-12.5868
▁hyper	-12.5868
bra	-12.5868
▁puck	-12.5868
emographic	-12.5868
▁soloist	-12.5868
▁Fresh	-12.5868
▁Orient	-12.5868
▁intestine	-12.5869
rke	-12.5869
▁salvo	-12.5869
▁purge	-12.5869
▁Humanit	-12.5869
▁Yog	-12.587
adel	-12.587
▁discount	-12.587
▁silico	-12.5871
▁corrosi	-12.5871
▁Rik	-12.5872
▁waive	-12.5872
▁pulse	-12.5873
▁Steiner	-12.5873
▁Index	-12.5876
▁Revel	-12.5876
withstand	-12.5877
▁dragg	-12.5877
▁Titan	-12.5878
▁Barba	-12.5879
▁Job	-12.5879
▁Shade	-12.5882
▁Weiss	-12.5882
▁chicken	-12.5883
▁Vai	-12.5883
▁Astro	-12.5883
▁agil	-12.5885
▁digest	-12.5885
rative	-12.5886
▁Luz	-12.5886
▁vau	-12.5886
▁stup	-12.5888
▁cull	-12.5888
▁berth	-12.5889
▁Moza	-12.5891
▁Bla	-12.5891
▁ferrie	-12.5891
▁voca	-12.5891
▁Peak	-12.5892
▁preacher	-12.5893
ucas	-12.5894
▁pudding	-12.5894
▁Blaze	-12.5894
ambeosaur	-12.5894
lp	-12.5896
▁polyg	-12.5896
▁Resor	-12.5897
maine	-12.5898
▁Mono	-12.5898
▁indicator	-12.59
▁rite	-12.59
▁767	-12.5903
▁emulat	-12.5904
▁flyby	-12.5905
▁mule	-12.5905
▁slam	-12.5907
▁Prov	-12.5908
▁Associat	-12.5909
▁Proh	-12.5909
▁Tarant	-12.5909
▁Agent	-12.591
▁Transition	-12.591
▁comput	-12.5913
utton	-12.5913
▁Helg	-12.5917
▁Petro	-12.5917
ilto	-12.5918
ino	-12.592
▁lure	-12.5921
▁dwelling	-12.5921
▁proton	-12.5925
▁wa	-12.5927
▁Lima	-12.5927
▁escalat	-12.5928
cadi	-12.593
▁taxon	-12.593
▁Piz	-12.5931
▁numerical	-12.5933
▁harmonic	-12.5934
utic	-12.5934
▁WN	-12.5936
break	-12.5937
▁embrace	-12.5937
▁physici	-12.594
▁Hida	-12.5941
▁tre	-12.5946
▁Ve	-12.5947
aum	-12.5948
▁Hern	-12.5953
▁Nc	-12.5956
▁perch	-12.5956
▁lords	-12.5959
chin	-12.5961
▁contender	-12.5964
▁Zong	-12.5966
perfection	-12.5966
thorn	-12.597
▁Brew	-12.5972
▁sensu	-12.5977
▁pent	-12.5977
phan	-12.598
auro	-12.5982
udding	-12.5983
▁Dix	-12.5983
andler	-12.5985
▁Socialis	-12.5985
▁kin	-12.5985
▁tab	-12.5987
▁earnest	-12.5987
china	-12.599
itic	-12.5991
▁flax	-12.5992
▁penn	-12.5999
▁272	-12.6
▁biolog	-12.6005
▁Fan	-12.6007
fia	-12.6018
▁Cell	-12.6022
▁ros	-12.6029
▁champ	-12.6033
▁matte	-12.6037
▁rev	-12.6041
stated	-12.6047
riction	-12.6055
ungi	-12.6056
▁Kay	-12.6058
▁radiate	-12.6069
▁likeness	-12.607
▁Elo	-12.6071
ivalent	-12.6076
ZA	-12.6078
awi	-12.608
▁Kil	-12.6092
▁Bolet	-12.6094
▁Harri	-12.6098
▁Emi	-12.6098
▁Hut	-12.6099
pop	-12.611
▁disuse	-12.6118
▁vir	-12.6119
▁rower	-12.6123
tuck	-12.6123
hop	-12.6129
erunner	-12.6131
ervoi	-12.6132
ading	-12.6132
▁overture	-12.6135
scene	-12.6135
▁moss	-12.614
estre	-12.6142
▁Bella	-12.6143
divid	-12.6145
onymous	-12.6145
▁Baro	-12.6148
▁easter	-12.6148
▁Banga	-12.6154
▁Cara	-12.6159
location	-12.6161
▁Iro	-12.6161
▁Wick	-12.6165
adri	-12.6166
▁Patti	-12.6168
▁171	-12.6174
ardi	-12.6174
▁Grass	-12.6175
▁bra	-12.6176
▁Olive	-12.6189
▁Ez	-12.6201
rcade	-12.6202
tisem	-12.6204
▁Scene	-12.6207
▁needle	-12.6208
▁Mack	-12.6209
▁cho	-12.6211
▁193	-12.6212
ference	-12.6212
literate	-12.6212
▁eclips	-12.6219
▁Vish	-12.6223
▁Benn	-12.6229
▁Mosqu	-12.6241
terior	-12.6242
▁Paras	-12.6244
▁desp	-12.6246
vain	-12.6249
▁Guards	-12.6252
▁diag	-12.6256
▁Paint	-12.6263
▁confesse	-12.6265
▁Eas	-12.6266
▁rot	-12.6275
▁chromati	-12.6275
bul	-12.6277
▁Phan	-12.6278
▁Coal	-12.6283
▁overtur	-12.6289
▁satisfactor	-12.6289
▁285	-12.6292
▁Psych	-12.6294
law	-12.6295
conclusive	-12.6297
shrink	-12.63
uppeteer	-12.6302
mit	-12.6309
iar	-12.631
▁lamb	-12.631
▁cogniti	-12.6315
▁thinker	-12.6316
▁Ant	-12.6316
▁Jacobi	-12.6317
MM	-12.632
▁premi	-12.6321
▁gall	-12.6321
genit	-12.6322
Carmel	-12.6331
protect	-12.6332
▁Osbo	-12.6333
▁lectur	-12.6336
safe	-12.6337
▁nick	-12.6338
Day	-12.6343
arvin	-12.6343
famous	-12.6348
offensive	-12.6358
purpose	-12.6359
▁tart	-12.636
▁Alfons	-12.6362
resh	-12.6362
asteroid	-12.6374
osov	-12.6377
dras	-12.6384
ICE	-12.6388
▁extras	-12.6393
▁plott	-12.64
raja	-12.6401
▁pla	-12.6407
▁Squad	-12.6416
constitution	-12.6416
▁Warne	-12.642
▁sir	-12.6431
gic	-12.6437
▁McFa	-12.6448
mela	-12.645
ecca	-12.6453
▁Io	-12.6453
▁Yal	-12.6467
fluent	-12.6468
▁Cros	-12.6472
shot	-12.6479
▁chi	-12.6483
roy	-12.6484
tract	-12.6487
ixteen	-12.6488
▁Insu	-12.6489
ñ	-12.649
arrier	-12.6491
▁springs	-12.6502
▁seme	-12.6504
▁Hens	-12.6514
▁139	-12.6525
stem	-12.6526
▁poke	-12.6526
▁q	-12.6533
▁Brod	-12.6535
950	-12.6544
▁inactiv	-12.6554
▁collaborate	-12.6559
pos	-12.6562
▁che	-12.657
▁dredg	-12.6574
▁Ich	-12.6576
ibal	-12.6582
mere	-12.6585
rrogate	-12.6601
▁circulate	-12.6603
rawl	-12.6605
▁siz	-12.6618
bla	-12.6621
essin	-12.6626
shaw	-12.6633
obb	-12.6645
netic	-12.6648
▁tempera	-12.6655
spect	-12.6662
▁meta	-12.6668
▁signifie	-12.667
tigation	-12.6679
fri	-12.668
▁telegra	-12.6681
▁Kess	-12.6682
unes	-12.6683
▁Gus	-12.6685
tigator	-12.6687
nab	-12.6692
ension	-12.6692
▁drafts	-12.6692
▁gentl	-12.6692
unker	-12.6693
ancer	-12.6697
▁terror	-12.6698
▁Luc	-12.6701
lush	-12.6711
▁Shir	-12.6712
mark	-12.6719
activat	-12.6719
▁Boe	-12.6728
▁148	-12.6738
lia	-12.6742
▁Socie	-12.6742
▁herbivor	-12.6746
che	-12.6747
▁casual	-12.6753
gum	-12.6755
▁Surf	-12.6757
▁Gat	-12.6757
stabili	-12.6759
▁intervene	-12.6761
arden	-12.6763
▁Dicke	-12.6763
▁Kaz	-12.6772
iff	-12.6774
▁ascen	-12.6776
▁machi	-12.6778
blanc	-12.6778
▁Abus	-12.6778
▁mycelia	-12.6779
gia	-12.678
▁shine	-12.6783
▁Sac	-12.6784
atitude	-12.6787
▁anthropo	-12.6788
icious	-12.6789
[...]
